{"<bos>":0,"<eos>":1,"<pad>":2,"<unk>":3,"<user>":4,"<assistant>":5,"<system>":6,"<tool_call>":7,"<tool_result>":8,"<think>":9,"</think>":10,"<memory>":11,"</memory>":12,"<code>":13,"</code>":14,"!":15,"\"":16,"#":17,"$":18,"%":19,"&":20,"'":21,"(":22,")":23,"*":24,"+":25,",":26,"-":27,".":28,"/":29,"0":30,"1":31,"2":32,"3":33,"4":34,"5":35,"6":36,"7":37,"8":38,"9":39,":":40,";":41,"<":42,"=":43,">":44,"?":45,"@":46,"A":47,"B":48,"C":49,"D":50,"E":51,"F":52,"G":53,"H":54,"I":55,"J":56,"K":57,"L":58,"M":59,"N":60,"O":61,"P":62,"Q":63,"R":64,"S":65,"T":66,"U":67,"V":68,"W":69,"X":70,"Y":71,"Z":72,"[":73,"\\":74,"]":75,"^":76,"_":77,"`":78,"a":79,"b":80,"c":81,"d":82,"e":83,"f":84,"g":85,"h":86,"i":87,"j":88,"k":89,"l":90,"m":91,"n":92,"o":93,"p":94,"q":95,"r":96,"s":97,"t":98,"u":99,"v":100,"w":101,"x":102,"y":103,"z":104,"{":105,"|":106,"}":107,"~":108,"¡":109,"¢":110,"£":111,"¤":112,"¥":113,"¦":114,"§":115,"¨":116,"©":117,"ª":118,"«":119,"¬":120,"®":121,"¯":122,"°":123,"±":124,"²":125,"³":126,"´":127,"µ":128,"¶":129,"·":130,"¸":131,"¹":132,"º":133,"»":134,"¼":135,"½":136,"¾":137,"¿":138,"Â":139,"Ã":140,"Ä":141,"Å":142,"Æ":143,"Ç":144,"Ë":145,"Ì":146,"Î":147,"Ï":148,"Ð":149,"Ñ":150,"Ö":151,"Ø":152,"Ù":153,"Ú":154,"Û":155,"à":156,"á":157,"â":158,"ã":159,"ä":160,"å":161,"æ":162,"ç":163,"è":164,"é":165,"î":166,"ï":167,"ð":168,"ó":169,"Ă":170,"ă":171,"Ċ":172,"Ę":173,"Ġ":174,"ġ":175,"Ģ":176,"ģ":177,"Ĥ":178,"ĥ":179,"Ħ":180,"ħ":181,"Ĩ":182,"ĩ":183,"Ī":184,"ī":185,"Ĭ":186,"ĭ":187,"Į":188,"į":189,"İ":190,"ı":191,"Ĳ":192,"ĳ":193,"Ĵ":194,"ĵ":195,"Ķ":196,"ķ":197,"ĸ":198,"Ĺ":199,"ĺ":200,"Ļ":201,"ļ":202,"Ľ":203,"ľ":204,"Ŀ":205,"ŀ":206,"Ł":207,"ł":208,"Ń":209,"à¦":210,"à§":211,"Ġà¦":212,"à¦¾":213,"à¦°":214,"à§į":215,"à§ĩ":216,"Ġt":217,"à¦¿":218,"he":219,"à¦¨":220,"Ġa":221,"Ġs":222,"ĠĠ":223,"ou":224,"à¦¯":225,"in":226,"Ġm":227,"à¦ķ":228,"Ġw":229,"à¦¤":230,"re":231,"ha":232,"à¦²":233,"à¦¬":234,"on":235,"Ġb":236,"Ġthe":237,"à¦¼":238,"nd":239,"ĠĊ":240,"à¦®":241,"or":242,"er":243,"is":244,"Ġf":245,"it":246,"à§ģ":247,"ĠI":248,"ll":249,"Ġc":250,"à¦¸":251,"Ġd":252,"Ġà¦¸":253,"en":254,"Ġà¦¬":255,"Ġà¦ķ":256,"es":257,"Ġn":258,"Ġl":259,"à¦¦":260,"Ġà¦ª":261,"Ġy":262,"Ġp":263,"à§ĭ":264,"ar":265,"Ġth":266,"à¦Ł":267,"Ġo":268,"ĠT":269,"Ġh":270,"Ġto":271,"at":272,"à¦ª":273,"Ġyou":274,"hat":275,"st":276,"ĠA":277,"ing":278,"à§Ģ":279,"se":280,"ot":281,"ve":282,"Ġhe":283,"om":284,"Ġà¦Ĩ":285,"ow":286,"Ġand":287,"an":288,"Ġof":289,"Ġà¦®":290,"Ġg":291,"à¦¶":292,"et":293,"ĠĠĠĠ":294,"à¦ľ":295,"à¦Ĺ":296,"ĠW":297,"Ġà¦¨":298,"à¦ĩ":299,"Ġbe":300,"à¥":301,"Ġà¦ı":302,"à¥¤":303,"le":304,"ce":305,"Ġin":306,"Ġha":307,"Ġà§":308,"Ġmy":309,"à¦·":310,"ĠĠĠ":311,"Ġà¦¹":312,"à¦¹":313,"ay":314,"ut":315,"à¦¡":316,"ed":317,"ir":318,"ld":319,"Ġà¦¦":320,"im":321,"ch":322,"ĠS":323,"à¦Ľ":324,"à¦¼à§ĩ":325,"ĠB":326,"à¦§":327,"ith":328,"Ġà¦ķà¦°":329,"Ġà¦ħ":330,"Ġu":331,"Ġme":332,"Ġà¦ľ":333,"à¦¼à¦¾":334,"Ġnot":335,"ĠH":336,"'s":337,"à¦Ĥ":338,"gh":339,"ĠC":340,"Ġre":341,"ĠM":342,"Ġthat":343,"Ġis":344,"Ġst":345,"ad":346,"ĠAnd":347,"Ġfor":348,"ent":349,"ur":350,"à¦ļ":351,"oo":352,"ke":353,"Ġwith":354,"Ġà¦¤":355,"Ġwe":356,"our":357,"Ġe":358,"al":359,"ill":360,"ri":361,"à¦¥":362,"her":363,"Ġit":364,"Ġas":365,"ĠO":366,"Ġà¦¶":367,"§à§":368,"Ġyour":369,"à¦£":370,"ĠL":371,"Ġde":372,"Ġà¦°":373,"Ġthou":374,"à¦ĸ":375,"as":376,"à¦Ń":377,"ght":378,"am":379,"Ġon":380,"Ġk":381,"ome":382,"'d":383,"ĠP":384,"lf":385,"Ġhis":386,"ĠF":387,"ĠG":388,"id":389,"ĠR":390,"EN":391,"ord":392,"Ġà¦¯":393,"ro":394,"ĠThe":395,"ck":396,"Ġhave":397,"Ġse":398,"us":399,"ly":400,"IN":401,"Ġhim":402,"Ġli":403,"Ġà¦Ĺ":404,"Ġà¦ļ":405,"Ġthis":406,"Ġà¦ĵ":407,"Ġso":408,"Ġ=":409,"IO":410,"ra":411,"ess":412,"âĢ":413,"à§¦":414,"à¦ĵ":415,"ct":416,"ĠD":417,"pe":418,"ĠN":419,"ore":420,"Ġsha":421,"ion":422,"ĠĠĠĠĠĠĠ":423,"Ġcon":424,"Ġà¦ī":425,"hi":426,"ain":427,"ould":428,"ter":429,"ood":430,"Ġà¦Ń":431,"AR":432,"ver":433,"if":434,"ĠY":435,"Ġ(":436,"ĠE":437,"Ġthy":438,"iz":439,"ge":440,"th":441,"Ġdo":442,"Ġwill":443,"Ġ'":444,"ru":445,"..":446,"Ġno":447,"est":448,"Ġsu":449,"Ġbut":450,"à§§à§":451,"Ġà§¨":452,"US":453,"il":454,"ath":455,"rom":456,"Ġà¦ĩ":457,"ĠTo":458,"pon":459,"Ġà¦ªà¦°":460,"Ġne":461,"ame":462,"Ġall":463,"Ġ{":464,"Ġma":465,"Ġ}":466,"Ġà¦²":467,"and":468,"ĠTh":469,"Ġv":470,"han":471,"Ġà¦¸à¦®":472,"à¦«":473,"Ġher":474,"self":475,"Ġan":476,"Ġà¦«":477,"ĠK":478,"Ġlo":479,"ĠV":480,"ard":481,"ize":482,"Ġà¦ĸ":483,"ort":484,"qu":485,"à§Ĥ":486,"Ġthee":487,"ell":488,"ul":489,"Ġfa":490,"Ġby":491,"Ġshall":492,"Ġour":493,"à¦Ļ":494,"Ġà¦ıà¦ķ":495,"ig":496,"UC":497,"Ġare":498,"à¦°à¦¤":499,"à¦ī":500,"à§ĩà¥¤":501,"à§ĥ":502,"ING":503,");":504,"Ġcom":505,"ho":506,"Ġà§§à§":507,"Ġkn":508,"à¦°à¦ķ":509,"em":510,"li":511,"ous":512,"Ġlet":513,"ĠThat":514,"ear":515,"ate":516,"urn":517,"ER":518,"OR":519,"Ġà¦¹à¦¯":520,"Ġwhat":521,"Ġsh":522,"Ġà¦¥":523,"Ġ<":524,"Ġif":525,"Ġar":526,"row":527,"ust":528,"Ġpr":529,"ant":530,"Ġà¦Ł":531,"Ġfrom":532,"ET":533,"Ġà¦Ĩà¦®":534,"Ġà¦ħà¦¨":535,"à¦ł":536,"ak":537,"à¦¬à¦°":538,"Ġgood":539,"art":540,"ast":541,"ĠBut":542,"ine":543,"res":544,"iv":545,"ight":546,"Ġlord":547,"Ġat":548,"hich":549,"Ġman":550,"nt":551,"ers":552,"'ll":553,"Ġbl":554,"one":555,"ci":556,"Ġwhe":557,"ĠWhat":558,"Ġà¦ľà¦¨":559,"Ġam":560,"à¦¾à¦Ĥ":561,"ive":562,"ES":563,"ry":564,"ble":565,"ong":566,"Ġshe":567,"ea":568,"end":569,"Ġà¦¡":570,"Ġà¦Ľ":571,"Ġmore":572,"à§¦à§§à§":573,"Ġret":574,"Ġgo":575,"ĠâĢ":576,"Ġthem":577,"Ġà¦¬à¦²":578,"out":579,"Ġwas":580,"IC":581,"ĠFor":582,"à¦ı":583,"au":584,"Ġsir":585,"other":586,"Ġreturn":587,"um":588,"Ġ-":589,"()":590,"oth":591,"Ġj":592,"ĠHe":593,"Ġnow":594,"à§¨":595,"à¦ģ":596,"Ġus":597,"ost":598,"Ġhat":599,"Ġthere":600,"à¦ĵà¦¯":601,"Ġwould":602,"AN":603,"à¦ŀ":604,"ind":605,"Ġknow":606,"Ġcan":607,"are":608,"LO":609,"ven":610,"ep":611,"ie":612,"IUS":613,"Ġsay":614,"à¦ªà¦¨":615,"io":616,"ARD":617,"ake":618,"ĠKING":619,"ather":620,"fe":621,"Ġsw":622,"Ġlove":623,"Ġhere":624,"--":625,"Ġtheir":626,"ec":627,"Ġbr":628,"ata":629,"à¦®à¦¨":630,"Ġor":631,"ĠMy":632,"Ġthan":633,"ue":634,"all":635,"ick":636,"pt":637,"ic":638,"Ġking":639,"Ġthey":640,"...":641,"Ġqu":642,"Ġthen":643,"un":644,"od":645,"Ġun":646,"Ġà§¨à§¦à§§à§":647,"Ġconst":648,"::":649,"Ġspe":650,"ist":651,"à¦°à¦£":652,"ink":653,"lo":654,"ure":655,"à¦¾,":656,"à¦ªà¦°":657,"ond":658,"Ġwor":659,"ponse":660,"Ġà¦ıà¦¬":661,"Ġmay":662,"ĠAs":663,"Ġpro":664,"hy":665,"Ġim":666,"Ġcome":667,"ook":668,"fore":669,"pp":670,"Ġ:":671,"ish":672,"Ġà¦Ĩà¦°":673,"Ġwell":674,"Ġ_":675,"âĢĻ":676,"ĠJ":677,"LI":678,"ĠWhe":679,"Ġhand":680,"Ġself":681,"à¦¬à¦¨":682,"KE":683,"ol":684,"Ġone":685,"Ġset":686,"Ġhath":687,"à§Į":688,"à¦ľà¦¨":689,"irst":690,"ĠYou":691,"Ġmake":692,"à¦¤à¦°":693,"reat":694,"Ġdef":695,"Ġmust":696,"ound":697,"gain":698,"Ġsp":699,"yn":700,"Ġgra":701,"Ġho":702,"Ġwere":703,"Ġà¦§":704,"à¦¬à¦¸":705,"ef":706,"size":707,"ĠĠĠĠĠ":708,"Ġsee":709,"Ġà¦ıà¦ĩ":710,"Ġshould":711,"Ġlike":712,"Ġaw":713,"Ġimp":714,"de":715,"el":716,"Ġsa":717,"ity":718,"TIO":719,"Ġmad":720,"à¦ĩà¦¨":721,"Ġuse":722,"Ġfather":723,"Ġpl":724,"atch":725,"Ġhad":726,"ng":727,"ves":728,"Ġà¦ĺ":729,"Ġdid":730,"Ġupon":731,"OM":732,"ime":733,"à¦¾à¦ģ":734,"ass":735,"à§«":736,"Ġtoo":737,"Ġres":738,"ice":739,"own":740,"ab":741,"ON":742,"Ġpo":743,"ence":744,"Ġx":745,"Ġà¦īà¦ª":746,"Ġdeath":747,"ward":748,"Ġen":749,"Ġwhich":750,"à§©":751,"Ġr":752,"ĠIf":753,"orn":754,"Ġà¦¹à¦¬":755,"fig":756,"Ġnew":757,"Ġspeak":758,"ync":759,"Ġ=>":760,"Ġwhen":761,"Ġasync":762,"ĠâĢĺ":763,"Ġà¦®à¦¨":764,"Ġout":765,"Ġfri":766,"Ġhow":767,"entle":768,"Ġagain":769,"ICH":770,"ĠRICH":771,"ap":772,"Ġtru":773,"man":774,"OL":775,"ise":776,"ĠDU":777,"ĠDUKE":778,"Ġup":779,"Ġheart":780,"Ġyet":781,"Ġà¦Ĩà¦²":782,"age":783,"Ġà¦ıà¦ķà¦Ł":784,"à§®":785,"à¦¾à¥¤":786,"à§ª":787,"ile":788,"very":789,"Ġname":790,"ĠU":791,"ĠWe":792,"ĠWith":793,"ĠRICHARD":794,"Ġwho":795,"ign":796,"ĠThou":797,"ENTIO":798,"ror":799,"Ġsome":800,"eng":801,"à¦ļà¦¨":802,"à¦°à¦®":803,"ĠIn":804,"iting":805,"ĠWhich":806,"ance":807,"Ġri":808,"ave":809,"Ġmar":810,"ire":811,"à§Ī":812,"Ġhon":813,"nce":814,"à¦ĥ":815,"ful":816,"Ġstr":817,"ack":818,"Ġson":819,"à¦°à¦¯":820,"à¦¶à¦¨":821,"à¦ĩà¦²":822,"Ġoff":823,"Ġmine":824,"ies":825,"Ġdis":826,"à¦Ĩ":827,"Ġcl":828,"har":829,"INC":830,"à¦ķà¦°":831,"Ġà¦Ĩà¦ªà¦¨":832,"ince":833,"ub":834,"ĠWhy":835,"ĠOf":836,"'t":837,"ber":838,"à¦¿à¦Ĥ":839,"ose":840,"ĠGod":841,"wn":842,"EL":843,"Ġtime":844,"32":845,"Ġsuch":846,"ĠFirst":847,"ĠSo":848,"mit":849,"à¦¼à¦¿":850,"Ġhear":851,"ac":852,"à§ĩ,":853,"ness":854,"uch":855,"Ġbrother":856,"Ġ->":857,"onfig":858,"data":859,"ction":860,"Ġthese":861,"Ġex":862,"Ġhea":863,"ĠCl":864,"Ġab":865,"à¦ªà¦¤":866,"Ġblood":867,"ial":868,"oy":869,"Ġà¦ıà¦°":870,"ither":871,"Ġ2":872,"Ġgive":873,"ĠNo":874,"UE":875,"ĠIs":876,"Ġfo":877,"Ġà¦Ĩà¦Ĺ":878,"Ġday":879,"Ġear":880,"Ġro":881,"Ġlook":882,"Ġthink":883,"oul":884,"Ġ/":885,"Ġlife":886,"ĠHow":887,"ĠII":888,"Ġtell":889,"Ġal":890,"Ġà¦Ĩà¦¸":891,"ens":892,"eet":893,"EST":894,"AB":895,"à¦°à¦¬":896,"Ġey":897,"Ġwhere":898,"ĠQ":899,"Ġword":900,"Ġtake":901,"UCH":902,"ag":903,"Ġfriend":904,"Ġà¦ķà¦°à¦¤":905,"ĠThis":906,"ther":907,"Ġ1":908,"Ġdes":909,"à¦²à¦¨":910,"ĠGLO":911,"UCEST":912,"ĠGLOUCEST":913,"ĠGLOUCESTER":914,"erv":915,"ĠCome":916,"rown":917,"een":918,"à§İ":919,"Ġà¦Ĩà¦¬":920,"Ġà¦ķà¦®":921,"ady":922,"Ġgentle":923,"Ġart":924,"Ġcomm":925,"ings":926,"urse":927,"Ġà§¨à§¦à§§à§®":928,"ĠLord":929,"Ġà§©":930,"Ġà¦¢":931,"ase":932,"à¦¿,":933,"RY":934,"utt":935,"ĠRome":936,"ĠBe":937,"à§Ń":938,"à§§":939,"tis":940,"ĠVINC":941,"UEEN":942,"ĠQUEEN":943,"ĠVINCENTIO":944,"ult":945,"ĠMar":946,"son":947,"à¦°à¦¸":948,"Ġwar":949,"ĠOF":950,"for":951,"à¦¦à¦¨":952,"ace":953,"Ġmost":954,"Ġhonour":955,"Ġmuch":956,"Ed":957,"Ġbet":958,"UM":959,"à§¯":960,"LAN":961,"ĠWhere":962,"get":963,"à¦ĺ":964,"Ġtw":965,"ength":966,"Ġcont":967,"AM":968,"Ġmade":969,"à¦¼à¥¤":970,"Ġà¦¸à¦¬":971,"Ġarr":972,"ents":973,"):":974,"erial":975,"Ġfear":976,"Ġhast":977,"ĠNow":978,"path":979,"à¦¦à¦ķ":980,"butt":981,"ĠWho":982,"ict":983,"div":984,"Ġà¦®à¦§":985,"name":986,"aught":987,"ubmit":988,"Ġfi":989,"Ġresponse":990,"Ġfn":991,"ivot":992,"={":993,"ĠĠĠĠĠĠĠĠĠ":994,"();":995,"length":996,"Ġpivot":997,"ĠHEN":998,"ĠVec":999,"erialize":1000,"button":1001,"ĠHENRY":1002,"Ġcou":1003,"Ġgreat":1004,"à§¬":1005,"Ġà¦¸à¦°":1006,"Ġbre":1007,"oc":1008,"not":1009,"à¦ĸà¦¨":1010,"ide":1011,"ved":1012,"Ġnever":1013,"à¦¼à§ĭ":1014,"à¦¿à¥¤":1015,"ower":1016,"Ġfair":1017,"igh":1018,"Ġmen":1019,"Ġaf":1020,"Ġà¦īà¦¦":1021,"ĠAN":1022,"Ġint":1023,"ation":1024,"tle":1025,"ĠYour":1026,"orrow":1027,"ĠIt":1028,"ree":1029,"uke":1030,"à¦²à¦¯":1031,"ough":1032,"Ġ[":1033,"Ġlea":1034,"à¦²à¦ķ":1035,"à¦·à¦£":1036,"Ġà¦ħà¦Ń":1037,"cc":1038,"ORK":1039,"ĠYORK":1040,"Ġpart":1041,"à¦īà¦¨":1042,"Ġany":1043,"Ġsl":1044,"Ġcall":1045,"Ġad":1046,"ss":1047,"à¦°à¦§":1048,"ĠOr":1049,"à¦¸à¦¬":1050,"etch":1051,"à¦¦à¦°":1052,"ST":1053,"INIUS":1054,"ait":1055,"ession":1056,"ems":1057,"Ġcannot":1058,"Ġpre":1059,"les":1060,"à¦¹à¦¤":1061,"Ġtrue":1062,"Ġstand":1063,"Ġheaven":1064,"Ġà¦ĵà¦¯":1065,"Ġà¦¹à¦¤":1066,"old":1067,"à¦¸à¦²":1068,"ĠPET":1069,"ĠSt":1070,"AU":1071,"Ġbeen":1072,"Ġpray":1073,"alse":1074,"hing":1075,"Ġsweet":1076,"Ġfetch":1077,"Ġple":1078,"Ġà¦¹à¦²":1079,"Ġper":1080,"ĠED":1081,"à¦ĩà¦Ł":1082,"WARD":1083,"ĠEDWARD":1084,"à¦Łà¦¨":1085,"uck":1086,"ĠGR":1087,"Ġà¦¸à¦®à¦¯":1088,"atter":1089,",--":1090,"Ġdoth":1091,"ple":1092,"Ġtr":1093,"Ġnoble":1094,"Ġown":1095,"int":1096,"Ġwr":1097,"__":1098,"Ġà¦®à¦¹":1099,"à¦ķà¦²":1100,"ĠLUC":1101,"ull":1102,"ouse":1103,"à¦¤à¦¨":1104,"Ġdone":1105,"load":1106,"Ġà¦§à¦°":1107,"Ġ...":1108,"str":1109,"ĠThere":1110,"Ġle":1111,"ool":1112,"Ġway":1113,"aw":1114,"ife":1115,"à¦¯à¦¬":1116,"Ġhead":1117,"Ġother":1118,"ears":1119,"à¦°à¦¶":1120,"error":1121,"RO":1122,"Ġmean":1123,"à¦Ľà¦°":1124,"Ġ.":1125,"ft":1126,"Ġà¦Ĩà¦¨":1127,"Ġpres":1128,"Ġimport":1129,"ĠEd":1130,"UT":1131,"ĠAn":1132,"ĠSe":1133,"Ġbear":1134,"Ġsc":1135,"ont":1136,"Ġ#":1137,"Ġnor":1138,"EO":1139,"AP":1140,"ĠBy":1141,"Ġvery":1142,"ĠAy":1143,"ĠEdward":1144,"ĠROM":1145,"ĠWhen":1146,"Ġsoul":1147,"ĠROMEO":1148,"Ġ__":1149,"à¦°à¦¦":1150,"Ġworld":1151,"Ġmo":1152,"aint":1153,"Ġnight":1154,"Ġboth":1155,"Ġbefore":1156,"ĠMEN":1157,"ENIUS":1158,"ĠMENENIUS":1159,"à¦°à¦¹":1160,"red":1161,"less":1162,"Ġà§¦":1163,"ause":1164,"Ġshape":1165,"Ġà¦¸à¦Ļ":1166,"ĠLet":1167,"à¦¤à¦¬":1168,"Ġ0":1169,"Ġchi":1170,"TH":1171,"aughter":1172,"able":1173,"ĠHere":1174,"Ġà¦Ĩà¦ľ":1175,"iter":1176,"ces":1177,"ĠThen":1178,"RUCH":1179,"ĠPETRUCH":1180,"ĠPETRUCHIO":1181,"ite":1182,"Ġdown":1183,"Ġdead":1184,"Ġqueen":1185,"bon":1186,"Ġra":1187,"TES":1188,"Ġà¦ħà¦°":1189,"Ġwh":1190,"à¦¬à¦²":1191,"Ġke":1192,"Ġà§ª":1193,"Ġà§«":1194,"Ġbeing":1195,"Ġà¦ªà¦¡":1196,"ment":1197,"à¦®à¦²":1198,"Ġà¦¬à¦¨":1199,"Ġrem":1200,"user":1201,"Ġmyself":1202,"Ġà¦¬à¦Ľà¦°":1203,"Ġfe":1204,"ect":1205,"Ġà¦¸à¦¹":1206,"ĠThan":1207,"ĠMAR":1208,"Ġright":1209,"Ġfl":1210,"fil":1211,"Ġarm":1212,"ang":1213,"Ġ//":1214,"ilt":1215,"file":1216,"Ġclass":1217,"Ġdata":1218,"Name":1219,"];":1220,"ocab":1221,")}":1222,"Ġ</":1223,"ĠConfig":1224,"Ġleave":1225,"</":1226,"Submit":1227,"ĠCOR":1228,"Ġ<=":1229,"ickS":1230,"acci":1231,"Ġthus":1232,"Ġstd":1233,"IOLAN":1234,"ĠsetEd":1235,"Ġawait":1236,"Ġfibon":1237,"__(":1238,"filter":1239,"ĠCORIOLAN":1240,"ickSort":1241,"ĠsetEditing":1242,"Ġfibonacci":1243,"ĠCORIOLANUS":1244,"ress":1245,"form":1246,"ĠSec":1247,"Ġold":1248,"ĠSecond":1249,"Ġgrace":1250,"Ġà¦¬à¦°":1251,"à¦ıà¦¨":1252,"Ġà¦ķà¦¥":1253,"Ġunt":1254,"à¦®à¦¤":1255,"ĠNor":1256,"Ġeyes":1257,"ps":1258,"per":1259,"ĠLE":1260,"Ġmother":1261,"ving":1262,"Ġà¦¤à¦¥":1263,"à§Ģ,":1264,"land":1265,"ĠShe":1266,"sw":1267,"âĢ¦":1268,"Ġrep":1269,"INA":1270,"Ġbeg":1271,"itiz":1272,"Ġever":1273,"Ġpe":1274,"à¦¹à¦®":1275,"Ġlive":1276,"Ġlong":1277,"Ġà¦ļà¦²":1278,"Ġwife":1279,"Ġchild":1280,"Ġwom":1281,"Ġfriends":1282,"ied":1283,"Ġve":1284,"Ġpoor":1285,"ff":1286,"sel":1287,"Ġcons":1288,"Ġaway":1289,"ĠIII":1290,"ail":1291,"ĠGo":1292,"Ġty":1293,"à¦·à¦¯":1294,"Ġmight":1295,"com":1296,"ks":1297,"nder":1298,"Ġà¦¬à¦¡":1299,"ĠSir":1300,"Ġdie":1301,"Ġstay":1302,"Ġcomes":1303,"à¦¥à¦®":1304,"oud":1305,"ĠWar":1306,"eace":1307,"Ġmany":1308,"wick":1309,"ows":1310,"Ġà¦¸à¦°à¦ķ":1311,"Ġrest":1312,"Ġhouse":1313,"Ġru":1314,"Ġhar":1315,"Ġsum":1316,"its":1317,"à¦¤à¦®":1318,"Ġcrown":1319,"ĠWarwick":1320,"ster":1321,"Ġcour":1322,"à§¦à§¦":1323,"Ġthought":1324,"Ġà¦ħà¦¬":1325,"ford":1326,"ug":1327,"come":1328,"ison":1329,"Ġent":1330,"LA":1331,"Tis":1332,"ĠHis":1333,"iss":1334,"ĠIS":1335,"00":1336,"cious":1337,"à¦¼à§Ģ":1338,"Ġlie":1339,"ELLA":1340,"ABELLA":1341,"ĠISABELLA":1342,"Ġà§§à§¦":1343,"à¦¸à¦®":1344,"erc":1345,"os":1346,"RAN":1347,"Ġdaughter":1348,"Ġgr":1349,"ling":1350,"à¦¨à¦¯":1351,"Ġnews":1352,"ĠWell":1353,"Ġnothing":1354,"ĠRomeo":1355,"à¦°à¦¨":1356,"Ġbetter":1357,"Ġi":1358,"Ġtong":1359,"Ġstru":1360,"ĠJU":1361,"LIET":1362,"ONTES":1363,"ĠLEONTES":1364,"ĠJULIET":1365,"ious":1366,"Ġà¦Ĩà¦Ľ":1367,"Ġà¦īà¦¤":1368,"à¦ªà¦ķ":1369,"read":1370,"ĠVI":1371,"ittle":1372,"ĠNay":1373,"Ġprince":1374,"Ġgone":1375,"Ġà¦ĩà¦¨":1376,"Ġ&":1377,"Ġà¦ĩà¦¸à¦²":1378,"à¦¼,":1379,"AD":1380,"ĠPro":1381,"ew":1382,"à¦Łà¦ķ":1383,"ought":1384,"ĠLAD":1385,"ĠLADY":1386,"Ġà§®":1387,"Ġtri":1388,"AL":1389,"Ġser":1390,"cri":1391,"CE":1392,"well":1393,"ENCE":1394,"ors":1395,"Ġkeep":1396,"Ġbest":1397,"che":1398,"Ġsle":1399,"Ġagainst":1400,"Ġcha":1401,"ale":1402,"Ġà§§":1403,"pi":1404,"ĠServ":1405,"ĠDes":1406,"à¦¯à¦ķ":1407,"Ġthose":1408,"ĠOn":1409,"à¦¾-":1410,"une":1411,"Ġacc":1412,"à¦¨à¦®à¦¨":1413,"ĠSha":1414,"hard":1415,"ĠTy":1416,"Ġlittle":1417,"Ġgri":1418,"Ġhence":1419,"ĠSIC":1420,"ĠCitiz":1421,"ĠSICINIUS":1422,"à¦ıà¦¨à¦ª":1423,"ĠNot":1424,"Ġhour":1425,"ud":1426,"Ġface":1427,"ken":1428,"Ġcomp":1429,"llow":1430,"Ġthing":1431,"Ġà¦ķà¦°à¦¬":1432,"Ġlords":1433,"pen":1434,"à¦īà¦ľ":1435,"ret":1436,"ser":1437,"Ġcommon":1438,"ardon":1439,"à¦ĩà¦ķ":1440,"der":1441,"Ġà§¬":1442,"lse":1443,"Ġend":1444,"Ġkind":1445,"Ġyoung":1446,"Ġgu":1447,"Ġ3":1448,"Ġtwo":1449,"ork":1450,"ĠGRE":1451,"Ġstill":1452,"xt":1453,"kes":1454,"Ġà¥¤":1455,"Ġco":1456,"Ġpri":1457,"ield":1458,"à¦¯à¦¬à¦¸":1459,"pro":1460,"Ġhimself":1461,"alk":1462,"à¦¨à¦¤":1463,"ert":1464,"url":1465,"ins":1466,"Ġpur":1467,"Ġpower":1468,"ĠThy":1469,"ĠLUCIO":1470,"arr":1471,"Ġà¦®à¦¤":1472,"Ġ>":1473,"ĠIV":1474,"Ġwit":1475,"Ġà¦ħà¦ª":1476,"ĠRic":1477,"Ġfirst":1478,"ĠRichard":1479,"ty":1480,"Ġà§Ń":1481,"me":1482,"Ġfun":1483,"Ġsub":1484,"Ġsm":1485,"ech":1486,"ĠCL":1487,"Ġcount":1488,"Ġtherefore":1489,"TI":1490,"à¦¨à¦¸":1491,"à¦¯à¦¬à¦¹":1492,"iness":1493,"eft":1494,"Ġpeace":1495,"Ġelse":1496,"Ġdear":1497,"Ġput":1498,"Ġtongue":1499,"Ġunto":1500,"Ġà¦īà¦ªà¦ľ":1501,"uty":1502,"ason":1503,"led":1504,"ĠBR":1505,"hile":1506,"yal":1507,"ĠWill":1508,"Ġcould":1509,"Ġtill":1510,"à¦°à¦¥à¦®":1511,"ĠHave":1512,"Ġduke":1513,"Ġpath":1514,"Ġback":1515,"hange":1516,"Ġà¦ħà¦§":1517,"à¦¯à¦®":1518,"Ġhus":1519,"Ġfunction":1520,"Ġhope":1521,"Ġwords":1522,"Ġthough":1523,"Ġà¦Ĩà¦ĩà¦¨":1524,"ach":1525,"Ġfell":1526,"sed":1527,"eth":1528,"ĠYork":1529,"à¦¬à¦ķ":1530,"Ġneed":1531,"Ġearth":1532,"Ġsession":1533,"Ġfind":1534,"ETH":1535,"LIZ":1536,"Ġbid":1537,"ĠELIZ":1538,"ABETH":1539,"ĠELIZABETH":1540,"Ġà¦¸à¦¨":1541,"ople":1542,"St":1543,"Ġà¦¹à¦ļ":1544,"anc":1545,"Ġlady":1546,"cl":1547,"Ġerror":1548,"vent":1549,"Ġà¦ĸà¦¬à¦°":1550,"Ġà¦¨à¦¤":1551,"band":1552,"Ġval":1553,"Ġleft":1554,"ius":1555,"orse":1556,"Ġthine":1557,"à¦Ĺà¦ŀ":1558,"Ġà¦ķà¦²":1559,"cript":1560,"Ġhome":1561,"men":1562,"Ġhel":1563,"Ġtra":1564,"IAN":1565,"Ġhigh":1566,"Ġforth":1567,"ĠList":1568,"ĠHen":1569,"ĠSelf":1570,"init":1571,"ĠHenry":1572,"Ġhusband":1573,"Ġsize":1574,"ĠYet":1575,"Ġimpl":1576,"ren":1577,"à¦Ĺà¦°":1578,"pd":1579,").":1580,"ĠGood":1581,"rror":1582,"à¦Ŀ":1583,"vere":1584,"Cli":1585,">>":1586,"sli":1587,"pdate":1588,"ark":1589,"atus":1590,"=\"":1591,")?":1592,"ns":1593,"Script":1594,"Res":1595,"bug":1596,"Ġmax":1597,"\">":1598,"![":1599,"Update":1600,"false":1601,"ĠĠĠĠĠĠĠĠĠĠĠ":1602,"Ġvocab":1603,"response":1604,"ensor":1605,"State":1606,"(|":1607,">,":1608,"batch":1609,"json":1610,"};":1611,"Ġbatch":1612,"items":1613,"ĠTensor":1614,"ĠĠĠĠĊ":1615,"leSubmit":1616,"editing":1617,"ĠonUpdate":1618,"usize":1619,"Ġ};":1620,"quickSort":1621,"().":1622,"Ġjson":1623,"::{":1624,"ĠsetName":1625,"ĠuseState":1626,"Ġvec":1627,"Ġstruct":1628,"piRes":1629,"ĠDeserialize":1630,"slice":1631,")?;":1632,"(|&":1633,"piResponse":1634,"ĠAll":1635,"Ġbra":1636,"uth":1637,"ged":1638,"à¦¨à¦¬":1639,"Ġpeople":1640,"hip":1641,"à¦²à¦¬":1642,"Ġban":1643,"Ġmind":1644,"ICK":1645,"tw":1646,"ĠWAR":1647,"WICK":1648,"ĠWARWICK":1649,"ĠDo":1650,"Ġapp":1651,"ds":1652,"Ġà¦ıà¦ĸà¦¨":1653,"ister":1654,"right":1655,"Ġshow":1656,"Ġà¦¦à¦²":1657,"à¦¸à¦¨":1658,"Ġche":1659,"Ġconf":1660,"Ġchar":1661,"AST":1662,"Ġà¦¸à¦Ń":1663,"ĠShall":1664,"ĠCitizen":1665,"Ġà¦ıà¦¸":1666,"Ġà¦Ĩà¦¯":1667,"Ġà§¯":1668,"Ġhands":1669,"ring":1670,"bt":1671,"Ġjoy":1672,"Ġmaster":1673,"Ġsaid":1674,"HAM":1675,"Ġwhy":1676,"Ġwo":1677,"fort":1678,"Ġcause":1679,"ĠNurse":1680,"rer":1681,"Ġà§§à§ª":1682,"UL":1683,"aster":1684,"Ġlaw":1685,"Ġserv":1686,"Ġgl":1687,"ĠThey":1688,"Ġmist":1689,"ĠCAP":1690,"ULET":1691,"Ġnone":1692,"Ġonce":1693,"ĠCAPULET":1694,"Ġevery":1695,"à¦§à¦¨":1696,"Ġopen":1697,"Ġfort":1698,"ans":1699,"umber":1700,"Ġbod":1701,"ĠRe":1702,"IL":1703,"01":1704,"GE":1705,"à¦¬à¦¬":1706,"à¦¼à§ģ":1707,"ousin":1708,"Ġbring":1709,"MIO":1710,"à¦¸à¦¹":1711,"Ġà¦ıà¦Ł":1712,"ary":1713,"Ġdou":1714,"ray":1715,"RI":1716,"ates":1717,"Ġà¦ķà¦°à¦Ľ":1718,"ird":1719,"à¦ķà¦¤":1720,"Ġà¦Ľà¦¬":1721,"Ġplease":1722,"Ġpass":1723,"KING":1724,"KINGHAM":1725,"ĠBUC":1726,"UTUS":1727,"ĠBRUTUS":1728,"ĠBUCKINGHAM":1729,"ĠBo":1730,"à¦®à¦°":1731,"lt":1732,"ory":1733,"à¦ķà¦Ł":1734,"iet":1735,"Ġà§§à§¯":1736,"ĠFrom":1737,"ESS":1738,"Ġà¦¨à¦¯":1739,"sha":1740,"Ġlight":1741,"à¦²à¦¤":1742,"BRO":1743,"ĠTRAN":1744,"ĠBOL":1745,"INGBRO":1746,"ĠTRANIO":1747,"ĠBOLINGBRO":1748,"ĠBOLINGBROKE":1749,"Ġà¦īà¦¨":1750,"Ġnat":1751,"à¦¬à¦¤":1752,"swer":1753,"Ġbes":1754,"Ġthr":1755,"Ġtears":1756,"vost":1757,"Ġwhose":1758,"Ġroyal":1759,"co":1760,"à¦ıà¦¸":1761,"),":1762,"Ġboy":1763,"cess":1764,"Ġcame":1765,"Ġjust":1766,"ried":1767,"Ġsince":1768,"Ġpresent":1769,"mb":1770,"NE":1771,"Ġà¦Ĩà¦®à¦°":1772,"Ġdev":1773,"Ġunder":1774,"à¦¶à¦ķ":1775,"Ġfull":1776,"Ġafter":1777,"Ġwrong":1778,"roke":1779,"Ġpardon":1780,"Ġheard":1781,"Ġà¦ıà¦²":1782,"ĠOur":1783,"Ġland":1784,"pose":1785,"Ġhapp":1786,"GAR":1787,"ĠMARGAR":1788,"ĠMARGARET":1789,"à¦¹à¦°":1790,"irt":1791,"vy":1792,"ping":1793,"Ġlast":1794,"ĠKing":1795,"Ġere":1796,"Ġplace":1797,"ATH":1798,"Ġstate":1799,"AMIL":1800,"Ġmis":1801,"Ġà¦Ĩà¦¦":1802,"eve":1803,"Ġà¦ł":1804,"ĠÂ":1805,"Ġà¦ħà¦¸":1806,"Ġmeet":1807,"Ġkill":1808,"sand":1809,"Ġsorrow":1810,"Ġhold":1811,"ition":1812,"à¦·à¦ķ":1813,"ĠEng":1814,"Ġap":1815,"à¦®à¦¸":1816,"esty":1817,"EY":1818,"ĠSh":1819,"ORD":1820,"Ġthousand":1821,"Ġeye":1822,"Ġwhom":1823,"ĠANGE":1824,"ĠANGELO":1825,"ĠâĢĵ":1826,"Ġ?":1827,"ier":1828,"ild":1829,"Ġà¦ķà¦°à¦²":1830,"SC":1831,"à¦°à¦ļ":1832,"Ġà¦ªà¦¦":1833,"Ġless":1834,"Ġfollow":1835,"Ġanswer":1836,"Ġtre":1837,"ARINA":1838,"arence":1839,"Ġch":1840,"du":1841,"day":1842,"à¦Ĺà¦¤":1843,"Ġà¦¤à¦¬":1844,"Ġabout":1845,"Ġà¦ħà¦«":1846,"Ġbus":1847,"à¦¯à¦¨":1848,"Ġpat":1849,"Ġfar":1850,"ceive":1851,"Ġfool":1852,"Ġhither":1853,"Ġweep":1854,"ĠKATH":1855,"cius":1856,"Ġenem":1857,"ĠClarence":1858,"ĠKATHARINA":1859,"Ġinter":1860,"to":1861,"Ġà¦ĩà¦īà¦¨":1862,"imes":1863,"Ġhelp":1864,"ĠAl":1865,"Ġmaid":1866,"romise":1867,"urde":1868,"Ġfall":1869,"Ġgentleman":1870,"ĠMarcius":1871,"à¦°à¦ª":1872,"Ġ*":1873,"Ġà¦ħà¦ªà¦°":1874,"Ġà¦ĺà¦Łà¦¨":1875,"Ġà§§à§¨":1876,"Ġunc":1877,"Ġob":1878,"Ġbri":1879,"asure":1880,"Ġinto":1881,"selves":1882,"Ġthrow":1883,"Ġshame":1884,"Ġcourt":1885,"Ġà¦ħà¦¤":1886,"ream":1887,"Ġ+":1888,"air":1889,"Ġste":1890,"Ġcoun":1891,"rant":1892,"Ġstri":1893,"ALUS":1894,"ĠESC":1895,"Ġmakes":1896,"Ġcousin":1897,"Ġgracious":1898,"Ġgrief":1899,"ĠESCALUS":1900,"Ġà¦Ĩà¦¶":1901,"Ġwoman":1902,"ject":1903,"à¦ħ":1904,"à¦¤à¦ķ":1905,"ĠUn":1906,"ices":1907,"alt":1908,"Ġturn":1909,"ĠHath":1910,"Ġcomfort":1911,"Ġworth":1912,"Ġhum":1913,"itor":1914,"Ġsleep":1915,"ount":1916,"Ġbed":1917,"Ġtalk":1918,"deed":1919,"Ġwilt":1920,"ĠDUCH":1921,"ĠDuke":1922,"Ġdost":1923,"urderer":1924,"ĠDUCHESS":1925,"tt":1926,"Ġbody":1927,"Ġ4":1928,"ĠAnge":1929,"Ġass":1930,"Ġover":1931,"Ġsun":1932,"pher":1933,"ERC":1934,"ute":1935,"ove":1936,"âĢĿ":1937,"Ġinst":1938,"ily":1939,"ars":1940,"à¦Łà¦Ĺ":1941,"à¦®à¦¦":1942,"ĠHer":1943,"Ġà¦Ĺà¦²":1944,"way":1945,"Ġatt":1946,"Ġthank":1947,"Ġà§¨à§¦à§§à§Ń":1948,"ĠAngelo":1949,"morrow":1950,"Ġseem":1951,"Ġsound":1952,"Ġfault":1953,"av":1954,"à¦®à¦ķ":1955,"Ġplay":1956,"à§¨à§¦à§§à§":1957,"IA":1958,"rue":1959,"Ġanother":1960,"ised":1961,"Ġindeed":1962,"eech":1963,"Ġfalse":1964,"ĠCAMIL":1965,"Ġprove":1966,"ĠCAMILLO":1967,"Ġ5":1968,"ĠâĢľ":1969,"à¦Ĺà¦®":1970,"Ġhas":1971,"ia":1972,"ience":1973,"Ġvo":1974,"à¦°à¦²":1975,"Ġcur":1976,"omet":1977,"Ġà¦°à¦¯":1978,"Ġwel":1979,"ĠWould":1980,"Ġdeed":1981,"ĠEven":1982,"Ġsword":1983,"ĠProvost":1984,"Ġfellow":1985,"à¦¦à¦¸":1986,"ĠMore":1987,"ade":1988,"Ġà¦°à¦¹à¦®":1989,"Ġbo":1990,"ets":1991,"raw":1992,"Ġstre":1993,"à¦®à¦¬":1994,"ENS":1995,"Ġdeli":1996,"Ġpers":1997,"Ġkne":1998,"Ġfight":1999,"ock":2000,"Ġmatter":2001,"ORT":2002,"Ġeven":2003,"Ġvill":2004,"ĠHORT":2005,"Ġfortune":2006,"ĠHORTENS":2007,"ran":2008,"Ġà¦ļà¦Ł":2009,"à¦īà¦Ł":2010,"Ġcare":2011,"Ġcountry":2012,"Ġsent":2013,"Ġbeli":2014,"hold":2015,"ĠFRI":2016,"Ġsovere":2017,"Ġprison":2018,"Ġgrave":2019,"ĠUpon":2020,"ĠHORTENSIO":2021,"ĠFRIAR":2022,"à¦ķà¦¬":2023,"Ġyears":2024,"fect":2025,"à¦ĩà¦¯":2026,"ĠAre":2027,"ury":2028,"à¦ĩà¦¸":2029,",'":2030,"Ġmess":2031,"Ġsend":2032,"Ġvirt":2033,"STA":2034,"Ġmerc":2035,"à¦®à¦ķà¦°":2036,"Ġdoubt":2037,"ĠBAP":2038,"Ġrather":2039,"TISTA":2040,"Ġbanish":2041,"ĠBAPTISTA":2042,"ax":2043,"mp":2044,"ery":2045,"Ġà¦ħà¦¨à¦²":2046,"Ġ)":2047,"Ġwant":2048,"cont":2049,"ouch":2050,"ere":2051,"à¦¿-":2052,"YC":2053,"ĠCOM":2054,"len":2055,"à§ĩ?":2056,"pect":2057,"Ġwish":2058,"Ġà¦īà¦ªà¦°":2059,"Ġbusiness":2060,"à¦¬à¦¶":2061,"Ġreven":2062,"Ġhate":2063,"Ġtruth":2064,"ĠAUT":2065,"Ġhang":2066,"OLYC":2067,"ĠCOMINIUS":2068,"ĠAUTOLYC":2069,"ĠAUTOLYCUS":2070,"à¦ĸà¦¤":2071,"ption":2072,"à§İà¦¸":2073,"Ġà¦¨à¦Ń":2074,"iol":2075,"ault":2076,"Ġà¦ĩà¦¤":2077,"Ġonly":2078,"ĠThird":2079,"Ġà¦Ĩà¦ª":2080,"Ġà§¨à§¦":2081,"Ġà¦¬à¦²à¦²":2082,".'":2083,"ĠCLAR":2084,"Ġreason":2085,"Ġlies":2086,"Ġshalt":2087,"ĠCLARENCE":2088,"Ġà¦Ĩà¦ĵà¦¯":2089,"ok":2090,"ĠRes":2091,"ior":2092,"dd":2093,"cent":2094,"Ġdream":2095,"Ġcommand":2096,"Ġarms":2097,"Ġsea":2098,"Ġbreath":2099,"ENES":2100,"pherd":2101,"à¦·à¦¦":2102,"à¦¸à¦ª":2103,"à¦¡à¦ķ":2104,"ĠCom":2105,"Ġà¦¹à¦ĵà¦¯":2106,"Ġsec":2107,"ener":2108,"Ġà¦ħà¦¬à¦¸":2109,"Ġà¦ħà¦ķ":2110,"Ġnumber":2111,"ĠNOR":2112,"Ġadv":2113,"rance":2114,"ĠGentle":2115,"Ġlay":2116,"VOL":2117,"ms":2118,"Ġà¦¸à¦¦à¦¸":2119,"ĠBEN":2120,"ĠClown":2121,"VOLIO":2122,"ĠBENVOLIO":2123,"Ġ201":2124,"Ġà¦Ĳ":2125,"Ġfree":2126,"Ġà¦¸à¦ķ":2127,"Ġblow":2128,"SP":2129,"Ġport":2130,"Ġwind":2131,"val":2132,"ĠPRO":2133,"Ġsen":2134,"ERO":2135,"Ġsomet":2136,"Ġproud":2137,"Ġenough":2138,"ĠTake":2139,"Ġremem":2140,"Ġpity":2141,"Ġholy":2142,"UMIO":2143,"ĠGRUMIO":2144,"SPERO":2145,"ĠPROSPERO":2146,"hed":2147,"à§ĭà¥¤":2148,"Ġà¦Ŀ":2149,"Ġthree":2150,"ator":2151,"Ġbea":2152,"anger":2153,"ĠKate":2154,"duct":2155,"ten":2156,"Ġchan":2157,"Ġlives":2158,"Ġà¦¬à¦Ļ":2159,"UTIO":2160,"ĠMurderer":2161,"ĠMERC":2162,"Ġsold":2163,"ĠDid":2164,"Ġfare":2165,"Ġswear":2166,"Ġspir":2167,"ĠMERCUTIO":2168,"Ġà¦Ī":2169,"Ġget":2170,"IS":2171,"à¦¹à¦¸":2172,"face":2173,"Ġtend":2174,"à¦¨à¦ķ":2175,"Ġà¦Ĺà¦£":2176,"eter":2177,"pre":2178,"Ġà¦ıà¦®à¦¨":2179,"ĠRead":2180,"Ġwelcome":2181,"ĠWere":2182,"Ġgods":2183,"Ġnature":2184,"Ġwithin":2185,"ĠLUCENTIO":2186,"ĠServant":2187,"Ġvillain":2188,"à¦°à¦¹à¦£":2189,"jo":2190,"bs":2191,"Ġà¦¶à¦°":2192,"Ġstra":2193,"Ġà¦°à¦ķ":2194,"à¦ķà¦¦":2195,"ham":2196,"Ġsister":2197,"Ġgre":2198,"vers":2199,"Ġhappy":2200,"Ġkiss":2201,"Ġthings":2202,"Ġsaw":2203,"OMP":2204,"Ġfoul":2205,"ĠPOMP":2206,"Ġmadam":2207,"LAND":2208,"Ġmistress":2209,"Ġsovereign":2210,"à¦§à¦¬":2211,"unt":2212,"Ġgiv":2213,"Ġà¦īà¦ļ":2214,"apt":2215,"Ġà¦¸à¦ķà¦²":2216,"any":2217,"ĠAt":2218,"Ġbreak":2219,"ĠWas":2220,"Ġclo":2221,"Ġcity":2222,"Ġmeans":2223,"ĠGive":2224,"Ġsubject":2225,"AUL":2226,"Ġyield":2227,"ĠPAUL":2228,"Ġbeseech":2229,"ĠPAULINA":2230,"à¦¨à¦Ł":2231,"Ġà¦¯à¦¦":2232,"Ġcontent":2233,"20":2234,"Ġcra":2235,"Ġà§§à§§":2236,"ici":2237,"Ġmer":2238,"ĠLook":2239,"Ġappe":2240,"Ġden":2241,"ĠSay":2242,"onder":2243,"gainst":2244,"Ġborn":2245,"Ġyours":2246,"gether":2247,"Ġoath":2248,"Ġhorse":2249,"ague":2250,"ĠGREMIO":2251,"ĠPOMPEY":2252,"Ġà¦Ĩà¦ķ":2253,"à¦¨à¦¨":2254,"Ġà¦«à¦²":2255,"ĠMay":2256,"fs":2257,"ĠPO":2258,"ĠAh":2259,"à§§à§Ń":2260,"Ġsupp":2261,"Ġdru":2262,"Ġfire":2263,"Ġtem":2264,"Ġprocess":2265,"Ġwhile":2266,"ĠEngland":2267,"à¦«à¦¤":2268,"Ġà§§à§«":2269,"NIA":2270,"Ġmain":2271,"Ġfaith":2272,"Ġlooks":2273,"XENES":2274,"balt":2275,"Ġwound":2276,"Ġyourself":2277,"ĠVOL":2278,"LIXENES":2279,"Ġbloody":2280,"UMNIA":2281,"ĠPOLIXENES":2282,"ĠVOLUMNIA":2283,"16":2284,"Ġcar":2285,"ey":2286,"Ġà¦ľà¦¯":2287,"by":2288,"Ġà¦¸à¦«":2289,"Ġmon":2290,"use":2291,"ange":2292,"enger":2293,"Ġsit":2294,"Ġwin":2295,"Ġcontents":2296,"Ġrequ":2297,"Ġmaj":2298,"INGS":2299,"ĠFare":2300,"ingman":2301,"Ġà¦Ĩà¦Łà¦ķ":2302,"ĠHAST":2303,"ĠServingman":2304,"Ġtraitor":2305,"ĠHASTINGS":2306,"ian":2307,"à¦¸à¦°":2308,"hes":2309,"ĠNe":2310,"à§·":2311,"ush":2312,"dom":2313,"hand":2314,"Ġà¦Ĺà¦¤":2315,"ĠCan":2316,"Ġperson":2317,"Ġprint":2318,"Ġmark":2319,"ader":2320,"Ġspo":2321,"ertain":2322,"Ġlen":2323,"ĠHast":2324,"Ġchildren":2325,"Ġuncle":2326,"RENCE":2327,"broke":2328,"Ġlam":2329,"ĠLAU":2330,"centio":2331,"ĠLAURENCE":2332,"à§§à§¨":2333,"à¦ľà¦¯":2334,"Ġà¦ıà¦¤":2335,"ĠJul":2336,"az":2337,"ttp":2338,"Ġà¦ıà¦¶":2339,"à¦ıà¦®":2340,"Ġà¦²à¦ķ":2341,"ues":2342,"Ġlate":2343,"48":2344,"Ġsoon":2345,"BY":2346,"Ġmet":2347,"Ġbeat":2348,"like":2349,"BER":2350,"Ġtender":2351,"Ġpatter":2352,"Ġvalue":2353,"Ġsight":2354,"Ġdanger":2355,"ĠTherefore":2356,"ĠTybalt":2357,"Ġmajesty":2358,"ĠPl":2359,"à¦¬à¦ª":2360,"ches":2361,"Ġfoot":2362,"ides":2363,"Ġà¦Ĩà¦°à¦ĵ":2364,"ID":2365,"Ġà¦ıà¦®":2366,"Ġdays":2367,"à¦ļà¦²":2368,"FF":2369,"Ġmessage":2370,"llect":2371,"Ġsin":2372,"Ġsave":2373,"left":2374,"Ġstring":2375,"Ġseen":2376,"Ġtold":2377,"Ġwarrant":2378,"ĠNORTH":2379,"LIFF":2380,"UMBER":2381,"ĠNORTHUMBER":2382,"ĠNORTHUMBERLAND":2383,"64":2384,"000":2385,"Ġà¦¤à¦°":2386,"Ġà¦ıà¦¨":2387,"put":2388,"à§ģà¦ģ":2389,"TA":2390,"ters":2391,"ĠLu":2392,"Ġsad":2393,"à¦¯à¦ª":2394,"Lo":2395,"Ġdoes":2396,"Ġreport":2397,"Ġtype":2398,"Ġgener":2399,"Ġmercy":2400,"arget":2401,"Ġos":2402,"idow":2403,"users":2404,"Ġfarewell":2405,"Ġ32":2406,"Ġ$":2407,"Se":2408,"De":2409,"ient":2410,"Ġdeep":2411,"ĠAP":2412,"Ġà¦ĩà¦ī":2413,"unes":2414,"Ġgold":2415,"sum":2416,"ĠPy":2417,"thon":2418,"from":2419,"ĠError":2420,"izer":2421,"sers":2422,"string":2423,"Ġsure":2424,"Ġheavy":2425,"Save":2426,"rel":2427,"Ġwithout":2428,"Ġthrough":2429,"Ġmarry":2430,"ĠANNE":2431,"Ġdict":2432,"Ġtogether":2433,"Ġhandling":2434,"ĠThough":2435,"derive":2436,"Ġpurpose":2437,"Ġâ":2438,"],":2439,"à¦Łà¦°":2440,"\",":2441,"ml":2442,"Ġ[...":2443,"ĠLi":2444,"ina":2445,"Ġill":2446,"http":2447,"ĠJav":2448,"aim":2449,"TP":2450,"!(":2451,"HT":2452,"ĠData":2453,"Pro":2454,")]":2455,"ĠJava":2456,"Ġsays":2457,"ĠResult":2458,"ĠAPI":2459,"earn":2460,"ĠUser":2461,"Ġ(!":2462,"à¦Ĺà¦²":2463,"ĠOk":2464,"ĠBox":2465,"submit":2466,"ĠPR":2467,"]:":2468,"map":2469,"ments":2470,"Ġcho":2471,"[]":2472,"ĠPython":2473,"Ġbool":2474,"ĠMont":2475,"ĠCam":2476,"ĠOption":2477,"')":2478,"à¦¾:":2479,"Ġnurse":2480,"Ġuser":2481,"api":2482,"collect":2483,"ĠJavaScript":2484,"ln":2485,"ĠHad":2486,"ĠRea":2487,"status":2488,"Ġstatus":2489,"efault":2490,"ĠType":2491,"])":2492,"Ġlost":2493,"product":2494,"Click":2495,"config":2496,"Ġfs":2497,"Ġdare":2498,"Ġdep":2499,"Ġ/>":2500,"ĠString":2501,"Ġ);":2502,"input":2503,"Ġbur":2504,"Ġconfig":2505,"ponent":2506,"ĠJuliet":2507,"');":2508,"('":2509,"._":2510,"Default":2511,"Error":2512,"Sum":2513,"User":2514,"Users":2515,"true":2516,"Ġcold":2517,"entS":2518,"ĠRust":2519,"Ġ{}":2520,"Ġstrange":2521,"Ġdeser":2522,"Ġtyping":2523,"profile":2524,"Ġinterface":2525,"prevent":2526,"HTTP":2527,"Profile":2528,"ĠReact":2529,"(&":2530,"(`":2531,"({":2532,")];":2533,">)":2534,">{":2535,"ApiResponse":2536,"Config":2537,"Change":2538,"Dict":2539,"Serialize":2540,"`);":2541,"dyn":2542,"max":2543,"target":2544,"vocab":2545,"}>":2546,"}</":2547,"}`);":2548,"Ġ)}":2549,"Ġaio":2550,"Ġtoml":2551,"ĠApiResponse":2552,"Ġgrow":2553,"ĠSerialize":2554,"Ġitems":2555,"Ġdebug":2556,"ĠonSubmit":2557,"ĠonClick":2558,"ĠonChange":2559,"ĠPromise":2560,"ĠDict":2561,"ifford":2562,"Ġ({":2563,"ĠToken":2564,"Ġ})":2565,"Ġ});":2566,"Ġcomponent":2567,"ERD":2568,"():":2569,"ĠquickSort":2570,"ĠhandleSubmit":2571,"ignior":2572,"INCE":2573,"ĠClifford":2574,"Ġears":2575,"Edit":2576,"={(":2577,"={()":2578,"ĠfetchUsers":2579,"Ġ#[":2580,"ĠclassName":2581,")}>":2582,"Ġ&[":2583,"Ġserde":2584,"ClientS":2585,"(|&&":2586,"shape":2587,"contents":2588,"value":2589,"2048":2590,"handleSubmit":2591,"Ġprintln":2592,"Ġpatterns":2593,"64000":2594,"Loader":2595,"Ġ${":2596,"Self":2597,"Debug":2598,"izerConfig":2599,"!(\"":2600,"ĠDataLoader":2601,"ĠUserProfile":2602,"ĠPRINCE":2603,"[]>>":2604,"ĠOptional":2605,"ĠTypeScript":2606,"('/":2607,"Ġ{}\",":2608,"preventDefault":2609,"Ġaiohttp":2610,"ĠTokenizerConfig":2611,"ClientSession":2612,"und":2613,"Ġà¦¸à¦®à¦¸":2614,"à¦¥à¦¨":2615,"ĠRi":2616,"up":2617,"Ġbu":2618,"Ġà¦¬à¦¸":2619,"ross":2620,"à¦¨à¦¸à¦Ļ":2621,"ĠGre":2622,"Ġask":2623,"ĠOne":2624,"ĠCor":2625,"Ġwat":2626,"ours":2627,"Ġtimes":2628,"Ġà¦Ĩà¦¤":2629,"ĠMI":2630,"ĠBol":2631,"ains":2632,"à¦°à¦Ĺ":2633,"ĠTell":2634,"enty":2635,"Ġsuff":2636,"Ġbelieve":2637,"ceed":2638,"ingbroke":2639,"Ġthyself":2640,"Ġpluck":2641,"Ġliege":2642,"Ġwoe":2643,"ĠBolingbroke":2644,"Ġ,":2645,"à¦¸à¦¦":2646,"ash":2647,"à¦¸à¦ķ":2648,"ĠWh":2649,"Ġag":2650,"Ġà¦°à¦¬":2651,"ift":2652,"à¦®à¦¯":2653,"ĠHa":2654,"Ġà¦ķà¦¬":2655,"Ġair":2656,"Ġsil":2657,"Ġpoint":2658,"ĠSome":2659,"Ġloss":2660,"Ġage":2661,"ĠAway":2662,"Ġheir":2663,"ĠSignior":2664,"ĠWhose":2665,"ĠShould":2666,"Ġspirit":2667,"Ġà¦¦à¦ķ":2668,"outh":2669,"ĠLike":2670,"ner":2671,"aid":2672,"Ġinstru":2673,"mer":2674,"oint":2675,"Ġcry":2676,"Ġhard":2677,"Ġà¦¸à¦¡":2678,"à¦²à¦Ĺ":2679,"ced":2680,"Ġbat":2681,"Ġdevil":2682,"Ġpast":2683,"Ġdesire":2684,"Ġfly":2685,"Ġlearn":2686,"Ġtrust":2687,"Ġjustice":2688,"Ġfriar":2689,"Ġhaste":2690,"Ġentreat":2691,"Ġground":2692,"ĠFarewell":2693,"Ġà§§à§®":2694,"à¦ĩà¦«":2695,"Ġ\"":2696,"ucking":2697,"ĠCon":2698,"Ġà¦īà¦ł":2699,"à§¨à§«":2700,"Ġà§§à§©":2701,"à¦ľà¦¶":2702,"aud":2703,"ined":2704,"Ġfound":2705,"ĠSen":2706,"Ġvis":2707,"Ġdisp":2708,"Ġservice":2709,"Ġbold":2710,"night":2711,"Ġord":2712,"ĠFrance":2713,"Ġmur":2714,"ĠPray":2715,"Ġang":2716,"Ġà¦ķà¦¯":2717,"Ġnear":2718,"Ġremember":2719,"mio":2720,"Ġtoward":2721,"Ġbetw":2722,"Ġslain":2723,"Ġstraight":2724,"Ġquick":2725,"Ġtit":2726,"ting":2727,"à¦¯à¦¤":2728,"ĠMess":2729,"ution":2730,"els":2731,"LE":2732,"Ġstrong":2733,"Ġbeauty":2734,"oman":2735,"ĠGl":2736,"ixt":2737,"à¦ĩà¦¬":2738,"Ġalone":2739,"ĠAU":2740,"ĠMessenger":2741,"IZ":2742,"Ġwear":2743,"Ġmarried":2744,"ĠFL":2745,"FID":2746,"Ġcurse":2747,"ĠThese":2748,"ORIZ":2749,"Ġworthy":2750,"ĠAUFID":2751,"ĠFLORIZ":2752,"ĠAUFIDIUS":2753,"ĠFLORIZEL":2754,"Ġà¦īà¦²":2755,"à¦ªà¦¦":2756,"à¦¹à¦²":2757,"inks":2758,"à¦¨à¦¦":2759,"à¦°à¦Ń":2760,"Ġinf":2761,"Ġthoughts":2762,"Ġà¦¬à¦¯":2763,"à¦¦à¦¶":2764,"Ġà¦ıà¦ª":2765,"à¦łà¦¨":2766,"ured":2767,"ning":2768,"ĠSee":2769,"job":2770,"à§§à§«":2771,"à§§à§¯":2772,"Ġtouch":2773,"ION":2774,"Ġfast":2775,"TON":2776,"Ġà¦¬à¦¹":2777,"Ġwoo":2778,"ĠClaud":2779,"Ġfit":2780,"Ġready":2781,"adam":2782,"Ġbrought":2783,"Ġrevenge":2784,"Ġposs":2785,"Ġexec":2786,"Ġgrant":2787,"Ġenemy":2788,"Ġgeneral":2789,"ĠClaudio":2790,"ĠÂ©":2791,"à§İà¦ķ":2792,"ĠPr":2793,"Ġpost":2794,"ible":2795,"à¦ľà¦°":2796,"à§ĭ,":2797,"âĢĮ":2798,"Ġhours":2799,"ract":2800,"!'":2801,"gs":2802,"Ġpar":2803,"Ġfur":2804,"Ġà¦Ĩà¦¸à¦¨":2805,"à¦¿)":2806,"à¦¦à¦ª":2807,"sue":2808,"Ġnob":2809,"ERS":2810,"Ġprof":2811,"hee":2812,"Ġyouth":2813,"Ġà¦ıà¦ķà¦ľà¦¨":2814,"Ġknows":2815,"Ġcharge":2816,"ĠGentleman":2817,"Ġlose":2818,"aunt":2819,"Ġquar":2820,"Ġduty":2821,"Ġitself":2822,"Ġcanst":2823,"ĠSenator":2824,"king":2825,"hal":2826,"Ġà¦ĩà¦®":2827,"be":2828,"Ġà¦ªà¦¤":2829,"Ġread":2830,"AS":2831,"rew":2832,"Ġdr":2833,"Ġà§§à§¬":2834,"ua":2835,"ĠMaster":2836,"ched":2837,"EB":2838,"ship":2839,"à¦ĸà¦²":2840,"Ġmorn":2841,"Ġspeed":2842,"Ġdist":2843,"ĠBec":2844,"riage":2845,"ĠAgainst":2846,"illo":2847,"Ġdesp":2848,"ĠMARC":2849,"Ġstreng":2850,"ouces":2851,"ithee":2852,"ĠSEB":2853,"ĠMadam":2854,"Ġtwenty":2855,"Ġstands":2856,"ĠShepherd":2857,"ASTIAN":2858,"ĠMontague":2859,"ĠGlouces":2860,"ĠMARCIUS":2861,"ĠSEBASTIAN":2862,"Ġà¦¸à¦¤":2863,"Ġà¦®à¦Ļ":2864,"à§ĩ:":2865,"Ġà¦ĩà¦¯":2866,"Ġà¦¨à¦¬":2867,"op":2868,"ump":2869,"Ġfore":2870,"Ġà¦ªà¦¥":2871,"à¦ķà¦®":2872,"Ġhell":2873,"Ġcut":2874,"olk":2875,"Ġmin":2876,"cept":2877,"OW":2878,"Ġdiv":2879,"Ġhalf":2880,"Ġfield":2881,"pare":2882,"Ġcounsel":2883,"fection":2884,"Ġresol":2885,"Ġbehold":2886,"Ġcond":2887,"Ġjud":2888,"Ġfearful":2889,"Ġmock":2890,"ĠCamillo":2891,"pl":2892,"à¦ľà¦¸":2893,"Ġà§¨à§ª":2894,"Ġcr":2895,"ives":2896,"à¦·à¦¤":2897,"Ġà¦Ńà¦°":2898,"ted":2899,"alm":2900,"Ġà¦¸à¦¬à¦ļ":2901,"Ġà¦¶à¦¤":2902,"à¦łà¦ķ":2903,"Ġà¦ĺà¦Ł":2904,"Ġà¦ľà¦°":2905,"Ġshort":2906,"ols":2907,"Ġdam":2908,"Ġfeel":2909,"Ġblowjob":2910,"Ġinc":2911,"Ġbound":2912,"Ġye":2913,"Ġmarriage":2914,"ĠTill":2915,"ĠBucking":2916,"Ġeach":2917,"Ġknown":2918,"DEL":2919,"Ġwret":2920,"Ġbos":2921,"ĠBION":2922,"Ġhearts":2923,"Ġhonest":2924,"ĠHastings":2925,"ĠGloucester":2926,"ĠBuckingham":2927,"DELLO":2928,"Ġbosom":2929,"ĠBIONDELLO":2930,"alth":2931,"of":2932,"ortal":2933,"à¦¨à¦®":2934,"à¦°à¦ªà¦¤":2935,"ones":2936,"Ġwomen":2937,"rah":2938,"à¦°à¦ĵ":2939,"ĠDe":2940,"Ġà¦Ĩà¦ľà¦ķ":2941,"the":2942,"Ġà¦Ĩà¦ĩ":2943,"Ġà¦¶à¦¨":2944,"à§Ģà¥¤":2945,"Ġten":2946,"Ġà§§à§Ń":2947,"Ġwhi":2948,"Ġdraw":2949,"ench":2950,"Ġsuit":2951,"Ġwonder":2952,"Ġrun":2953,"Ġsomething":2954,"Ġcompany":2955,"Ġguilt":2956,"Ġstrike":2957,"Ġattend":2958,"Ġmurder":2959,"folk":2960,"Ġtale":2961,"Ġwidow":2962,"Ġburn":2963,"Ġdish":2964,"ĠThus":2965,"ĠVols":2966,"ĠNorfolk":2967,"Ġharm":2968,"Ġserve":2969,"Ġhighness":2970,"Ġvoices":2971,"Ġà§©à§¦":2972,"Ġnext":2973,"à§§à§¦":2974,"Ġà¦Ĩà¦¹à¦®":2975,"à¦Ĺà¦²à¦¬":2976,"OP":2977,"Ġwatch":2978,"Ġwork":2979,"ĠBi":2980,"akes":2981,"ished":2982,"à§ĭà¦ģ":2983,"Ġà¦Ĩà¦¹à¦¤":2984,"Ġmus":2985,"Ġtrib":2986,"à§ĭà¦ĥ":2987,"ges":2988,"à¦¬à¦¹":2989,"ander":2990,"Ġchange":2991,"Ġsat":2992,"Tw":2993,"Ġloving":2994,"Ġside":2995,"Ġà¦ķà¦ª":2996,"Ġcor":2997,"ĠCA":2998,"Ġsing":2999,"à¦ıà¦°":3000,"most":3001,"Ġknew":3002,"Ġheavens":3003,"Ġstrength":3004,"ĠAUM":3005,"ERLE":3006,"Ġdidst":3007,"Ġgentlemen":3008,"ĠANTON":3009,"Ġconfess":3010,"ĠLucentio":3011,"ĠAUMERLE":3012,"ĠANTONIO":3013,"à¦ķà¦¨":3014,"à¦Ĺà¦¬à¦¨":3015,"ĠAr":3016,"lic":3017,"à¦ĺà¦Łà¦¨":3018,"mber":3019,"à¦¿?":3020,"Ġà¦¬à¦ķ":3021,"Ġà§¨à§¦à§§à§¬":3022,"à¦ĺà¦°":3023,"Ġà§¨à§«":3024,"Ġà¦ķà¦¤":3025,"Ġdisc":3026,"Ġact":3027,"Ġhot":3028,"Ġà¦ħà¦Ĺ":3029,"Ġlad":3030,"ĠCap":3031,"ZA":3032,"ĠPet":3033,"Ġpleasure":3034,"Ġenter":3035,"Ġwast":3036,"Ġà¦ıà¦ĸ":3037,"Ġcloud":3038,"Ġaff":3039,"Ġbrave":3040,"ĠBianc":3041,"hood":3042,"Ġsake":3043,"Ġstir":3044,"ĠLanc":3045,"ĠGON":3046,"ĠMarry":3047,"ethinks":3048,"Ġenemies":3049,"ZALO":3050,"ĠLancaster":3051,"ĠGONZALO":3052,"à¦Ľà¦¨":3053,"ĠSw":3054,"Ġà¦Ńà¦Ĺ":3055,"à¦ªà¦¥":3056,"irl":3057,"ally":3058,"ĠCh":3059,"Ġtits":3060,"Ġbit":3061,"Ġà¦ªà¦ķ":3062,"à¦¨à¦°":3063,"à¦ĩà¦°":3064,"Ġà¦ħà¦¶":3065,"Ġext":3066,"Ġà¦ĵà¦ĩ":3067,"ĠMost":3068,"arl":3069,"oose":3070,"Ġthanks":3071,"Ġsign":3072,"ils":3073,"Ġlead":3074,"à¦¿âĢĻ":3075,"Ġà§¨à§§":3076,"Ġgar":3077,"fid":3078,"Ġsk":3079,"Ġpie":3080,"Ġcoming":3081,"Ġtitle":3082,"Ġforg":3083,"ĠLady":3084,"ĠPom":3085,"iers":3086,"ĠHER":3087,"Ġcourse":3088,"Ġbreat":3089,"Ġseek":3090,"ĠUnt":3091,"Ġbegg":3092,"Ġdeliver":3093,"ĠBianca":3094,"Ġpale":3095,"Ġgates":3096,"Ġsouls":3097,"Ġwithal":3098,"Ġchee":3099,"ceived":3100,"Ġsuffer":3101,"Ġà¦¹à¦ķ":3102,"cks":3103,"à¦°à¦Ł":3104,"à¦·à¦®à¦¤":3105,"à¦Ĺà¦¨":3106,"Ġà¦Ĩà¦Ĺà¦¸":3107,"ots":3108,"ares":3109,"Ġlips":3110,"à¦ľà¦§":3111,"Ġprom":3112,"DIO":3113,"peak":3114,"Ġabs":3115,"Ġthemselves":3116,"claim":3117,"Ġbecome":3118,"Ġweak":3119,"Ġeither":3120,"Ġsick":3121,"oward":3122,"à¦¼à¦¾,":3123,"ĠCLIFF":3124,"Ġjest":3125,"Ġplain":3126,"Ġrich":3127,"AUDIO":3128,"ĠCLAUDIO":3129,"MIONE":3130,"Ġpatience":3131,"ĠRich":3132,"Ġorder":3133,"ĠPetru":3134,"ĠHERMIONE":3135,"ĠCLIFFORD":3136,"Ġbig":3137,"ĠPo":3138,"Ġsoft":3139,"Ġà¦ľà¦®":3140,"aking":3141,"Ġà¦ĩà¦¸":3142,"ses":3143,"à¦¾âĢĻ":3144,"Ġà¦Ĺà¦°à¦®":3145,"DA":3146,"Ġà§¨à§¨":3147,"Ġmouth":3148,"ions":3149,"eds":3150,"Ġblack":3151,"ĠJO":3152,"à¦¿:":3153,"Ġwall":3154,"irth":3155,"Ġcast":3156,"Ġac":3157,"à¦«à¦²":3158,"ĠCall":3159,"Ġreg":3160,"Ġissue":3161,"Ġev":3162,"Ġbreast":3163,"Ġà¦Ĩà¦«":3164,"arry":3165,"isf":3166,"ĠAu":3167,"ĠBeing":3168,"ĠMake":3169,"ĠTran":3170,"ĠSince":3171,"Ġven":3172,"Ġprop":3173,"Ġwise":3174,"ĠBes":3175,"Ġà¦ĵà¦ªà¦°":3176,"Ġcheer":3177,"Ġsame":3178,"ready":3179,"Ġforget":3180,"race":3181,"Ġforb":3182,"ĠLORD":3183,"Ġalong":3184,"Ġà¦Īà¦¦":3185,"Ġmerry":3186,"chio":3187,"ĠEL":3188,"Ġsworn":3189,"Ġworse":3190,"Ġtook":3191,"Ġpoison":3192,"Ġconsul":3193,"RANDA":3194,"twas":3195,"twere":3196,"Ġvirtue":3197,"ĠMIRANDA":3198,"Ġfurther":3199,"fidius":3200,"ĠPetruchio":3201,"ĠAufidius":3202,"ĠTranio":3203,"à¦Łà¦ĵà¦¯":3204,"Ġà¦®à¦ľ":3205,"à¦ļà¦¯":3206,"à¦ĩà¦ľ":3207,"Ġà§¨à§¦à§¦":3208,"à¦ªà¦¸":3209,"ler":3210,"Ġloves":3211,"à¦°à¦ľ":3212,"ix":3213,"SON":3214,"uff":3215,"Ġà¦ıà¦Ĺ":3216,"Ġbook":3217,"ats":3218,"Ġwed":3219,"Ġdire":3220,"à¦¦à¦²":3221,"Ġoffice":3222,"eep":3223,"Ġbad":3224,"Ġrec":3225,"lst":3226,"Ġmove":3227,"Ġmorning":3228,"HN":3229,"Ġwis":3230,"Ġemb":3231,"Ġalready":3232,"Ġfour":3233,"Ġgave":3234,"Ġliber":3235,"Ġrequest":3236,"Ġsur":3237,"ĠHereford":3238,"Ġbegin":3239,"Ġconsent":3240,"ĠAlas":3241,"Ġgiven":3242,"Ġdangerous":3243,"Ġbattle":3244,"ĠJOHN":3245,"iant":3246,"ging":3247,"Ġprot":3248,"ze":3249,"cher":3250,"à¦Ĺà¦£":3251,"ĠAb":3252,"ures":3253,"vo":3254,"Ġ!":3255,"Ġà¦¹à¦¸":3256,"Ġà¦Ĩà¦¹":3257,"Ġbab":3258,"Ġà¦ĺà¦°":3259,"Ġà¦Ńà¦¯":3260,"ĠYes":3261,"Ġà§¨à§©":3262,"Ġenc":3263,"Ġpay":3264,"fter":3265,"elcome":3266,"nk":3267,"oop":3268,"Ġgro":3269,"orge":3270,"Ġclose":3271,"icer":3272,"Ġà§¦à§§à§Ń":3273,"Ġbrow":3274,"mond":3275,"uous":3276,"used":3277,"rust":3278,"Ġgoes":3279,"Ġfoll":3280,"Ġtrou":3281,"Ġsucc":3282,"Ġsons":3283,"ĠSpeak":3284,"ĠBefore":3285,"Ġfeast":3286,"Ġquarrel":3287,"Ġsatisf":3288,"Ġfrown":3289,"ĠTower":3290,"anus":3291,"Ġneither":3292,"Ġfoe":3293,"iolanus":3294,"dden":3295,"Ġsoldiers":3296,"Ġwounds":3297,"Ġbetween":3298,"ĠRichmond":3299,"hem":3300,"ews":3301,"Ġhaving":3302,"à§§à§§":3303,"à¦¥à¦¬":3304,"Ġà¦īà§İ":3305,"Ġà¦¸à¦ļ":3306,"à§ĩà¦ģ":3307,"Ġpriv":3308,"Ġà¦¶à¦¹à¦°":3309,"lish":3310,"Ġ2018":3311,"rist":3312,"Ġà¦¯à¦ĸà¦¨":3313,"aris":3314,"Ġà¦¤à¦ĸà¦¨":3315,"à¦Ĩà¦®":3316,"Ġà¦Ĩà¦ªà¦¡":3317,"we":3318,"ĠX":3319,"ĠWelcome":3320,"Ġund":3321,"à§¨à§ª":3322,"Ġdro":3323,"NT":3324,"à¦¬à¦¯":3325,"owers":3326,"Ġviol":3327,"Ġbless":3328,"rest":3329,"ĠAp":3330,"awd":3331,"Ġcase":3332,"Ġfav":3333,"Ġwater":3334,"ĠMust":3335,"Ġvict":3336,"Ġmal":3337,"Ġbride":3338,"Ġest":3339,"Ġdread":3340,"Ġred":3341,"aret":3342,"Ġspeech":3343,"ĠMarg":3344,"Ġbrief":3345,"Ġsigh":3346,"Ġthri":3347,"Ġoften":3348,"ĠSuch":3349,"Ġthence":3350,"Ġpresence":3351,"TESBY":3352,"Ġservant":3353,"ĠUnless":3354,"ĠBecause":3355,"ĠCATESBY":3356,"à¦°à¦«":3357,"à§®à§®":3358,"à¦Ĩà¦ĩ":3359,"ĠÂ»":3360,"ona":3361,"Ġà¦ħà¦¬à¦¶":3362,"ger":3363,"Ġà¦¶à¦¹":3364,"à¦ĩà¦®":3365,"à§§à§®":3366,"ĠPre":3367,"à¦¾!":3368,"Ġà¦Ĩà¦²à¦®":3369,"Ġà¦§à¦¨":3370,"Ġà¦ķà¦¨":3371,"Ġà¦ķà¦ł":3372,"so":3373,"Ġà¦¤à¦²":3374,"vern":3375,"Ġpen":3376,"bl":3377,"Ġgot":3378,"light":3379,"à¦°à¦ķà¦²":3380,"irm":3381,"Ġvoice":3382,"à¦Ńà¦¬":3383,"Ġà¦Ĺà¦°":3384,"oof":3385,"Ġexc":3386,"ĠKeep":3387,"pes":3388,"cient":3389,"ondon":3390,"ĠLondon":3391,"Ġexp":3392,"Ġbow":3393,"Ġtown":3394,"ĠBoth":3395,"Ġloved":3396,"Ġble":3397,"Ġcap":3398,"ĠTheir":3399,"Ġwars":3400,"Ġcompl":3401,"Ġsense":3402,"ĠWhom":3403,"ILI":3404,"Ġmortal":3405,"ĠSaint":3406,"ĠBapt":3407,"Ġseems":3408,"Ġkings":3409,"Ġrespect":3410,"Ġflatter":3411,"Ġmighty":3412,"ĠGREY":3413,"Ġthrone":3414,"Ġdeny":3415,"Ġspoke":3416,"ĠCoriolanus":3417,"ĠMargaret":3418,"ĠBaptist":3419,"ated":3420,"Ġà¦ľà¦¬":3421,"Ġà¦ľà¦¨à¦ª":3422,"Ġà¦ªà¦¯":3423,"vious":3424,"Ġà¦īà¦ªà¦²à¦ķ":3425,"à§ĩâĢĻ":3426,"ired":3427,"Ġà¦īà¦ªà¦¸":3428,"à¦°à¦ĩ":3429,"ĠGe":3430,"Ġta":3431,"CA":3432,"bed":3433,"ĠIsab":3434,"Ġaction":3435,"IV":3436,"Ġmoon":3437,"aves":3438,"Ġbro":3439,"Ġdra":3440,"ends":3441,"Ġjo":3442,"Ġworship":3443,"Ġbuy":3444,"ided":3445,"Ġknock":3446,"Ġpret":3447,"ĠGeorge":3448,"ĠParis":3449,"Ġappear":3450,"Ġpromise":3451,"ĠEre":3452,"Ġsafe":3453,"IVERS":3454,"ught":3455,"ĠBIAN":3456,"ĠLest":3457,"ĠRIVERS":3458,"Ġsudden":3459,"Ġvow":3460,"Ġancient":3461,"Ġusur":3462,"Ġprayers":3463,"ainted":3464,"Ġprincely":3465,"Ġchamber":3466,"Ġdeeds":3467,"Ġdishon":3468,"Ġbitter":3469,"ILIA":3470,"ĠBaptista":3471,"ĠBIANCA":3472,"Ġà¦Ĺà¦¡":3473,"ĠBl":3474,"à¦¾à¦ĥ":3475,"Ġdog":3476,"Ġà¦§à¦°à¦¨":3477,"Ġà¦¸à¦¹à¦ľ":3478,"ourn":3479,"Ġmast":3480,"oun":3481,"oney":3482,"Ġà¦¬à¦²à¦Ľ":3483,"Ġcross":3484,"à¦Łà¦¬à¦²":3485,"à¦®à¦ļ":3486,"à¦¼à§į":3487,"now":3488,"resh":3489,"Ġcol":3490,"Ġbar":3491,"ries":3492,"umb":3493,"à¦²à¦ª":3494,"otion":3495,"stand":3496,"ĠDown":3497,"ĠStand":3498,"Ġà¦ķà¦ķ":3499,"Ġlim":3500,"nown":3501,"Ġreb":3502,"lesh":3503,"Ġflesh":3504,"Ġopp":3505,"urch":3506,"ĠRoman":3507,"Ġcreat":3508,"Ġheads":3509,"Ġrage":3510,"Ġwitness":3511,"Ġappro":3512,"BOW":3513,"Ġign":3514,"Ġbawd":3515,"Ġcoward":3516,"essed":3517,"ĠGAU":3518,"antage":3519,"Ġkingdom":3520,"Ġprepare":3521,"Ġscorn":3522,"Ġtriump":3523,"Ġvaliant":3524,"Ġpresently":3525,"Ġpatient":3526,"Ġlament":3527,"ĠELBOW":3528,"ĠGAUNT":3529,"Ġà¦ħà¦²":3530,"Ġà¦Ĳà¦ķ":3531,"à¦£à¦ķ":3532,"sp":3533,"Ġà¦¸à¦®à¦ķ":3534,"ĠAm":3535,"Ġà¦Ĩà¦¸à¦Ľ":3536,"cy":3537,"su":3538,"ines":3539,"als":3540,"ĠJo":3541,"Ġlab":3542,"Ġeat":3543,"Ġà¦ªà¦ł":3544,"Ġgall":3545,"à§ĩ-":3546,"ĠCa":3547,"sc":3548,"Ġoffer":3549,"ĠChrist":3550,"Ġslave":3551,"UR":3552,"Ġprin":3553,"Ġsecret":3554,"emn":3555,"aken":3556,"sh":3557,"ĠMerc":3558,"Ġvisit":3559,"Ġdark":3560,"Ġdrink":3561,"sper":3562,"Ġter":3563,"Ġleast":3564,"mand":3565,"ying":3566,"Ġbec":3567,"ĠMON":3568,"Ġwash":3569,"ĠHort":3570,"ĠThink":3571,"GUE":3572,"xford":3573,"à¦²à¦®":3574,"Ġlack":3575,"Ġpit":3576,"ĠTY":3577,"Ġforward":3578,"ĠOxford":3579,"Ġkins":3580,"Ġprithee":3581,"antag":3582,"Ġdefend":3583,"ensio":3584,"Ġfaults":3585,"TAGUE":3586,"Ġtribunes":3587,"ĠMONTAGUE":3588,"ĠHortensio":3589,"ĠAd":3590,"Ġà¦¶à¦ķ":3591,"Ġà¦¸à¦¦à¦°":3592,"Ġsmall":3593,"à¦ķà¦°à¦£":3594,"Ġinn":3595,"mail":3596,"inger":3597,"aked":3598,"Ġà¦ķà¦ĸà¦¨":3599,"à§ģâĢĻ":3600,"à§ģ:":3601,"ĠOff":3602,"ley":3603,"ural":3604,"empt":3605,"ĠEx":3606,"bit":3607,"Ġnay":3608,"Ġdest":3609,"Ġid":3610,"Ġà¦Ńà¦¬à¦¨":3611,"ĠKat":3612,"host":3613,"Ġà¦ıà¦¸à¦¬":3614,"Ġprov":3615,"24":3616,"Ġmid":3617,"ĠNorth":3618,"Ġins":3619,"ully":3620,"Ġben":3621,"Ġhide":3622,"ĠWhi":3623,"à¦ĩà¦Ń":3624,"Ġbeast":3625,"Ġpretty":3626,"Ġunw":3627,"harina":3628,"Ġfie":3629,"Ġthither":3630,"Ġocc":3631,"ĠHark":3632,"ĠDoth":3633,"pey":3634,"Ġalmost":3635,"Ġslaughter":3636,"umberland":3637,"ĠBohem":3638,"Ġchance":3639,"Ġsubjects":3640,"Ġdepart":3641,"Ġexecution":3642,"Ġdamn":3643,"ĠPompey":3644,"ĠKatharina":3645,"ĠNorthumberland":3646,"Ġà¦¬à¦²à¦¤":3647,"iew":3648,"à§§à§ª":3649,"à¦¿à¦ĥ":3650,"ĠBr":3651,"ĠPa":3652,"Ġà¦«à¦°":3653,"à¦¯à¦ĩ":3654,"à¦Ĩà¦°":3655,"Ġà¦¬à¦ĩ":3656,"AT":3657,"à¦īà¦¬":3658,"ames":3659,"à§§à§©":3660,"à¦®à¦ª":3661,"ls":3662,"iff":3663,"à§ģ,":3664,"Ġpain":3665,"à§ĭ:":3666,"ĠTw":3667,"Ġdu":3668,"ĠPaul":3669,"ament":3670,"à§§à§¬":3671,"ĠSweet":3672,"Ġfill":3673,"à¦§à¦¤":3674,"cience":3675,"Ġbirth":3676,"Ġà¦ıà¦ķà¦ĩ":3677,"each":3678,"rem":3679,"Ġfond":3680,"Ġform":3681,"Ġliving":3682,"Ġquickly":3683,"Ġbase":3684,"ĠPeace":3685,"Ġwrit":3686,"perate":3687,"ledge":3688,"ITA":3689,"hind":3690,"à¦¶à¦²":3691,"Ġeas":3692,"Ġmusic":3693,"ĠVIR":3694,"ĠHold":3695,"Ġtrump":3696,"Ġperform":3697,"Ġfavour":3698,"ĠVIRG":3699,"Ġtear":3700,"Ġwert":3701,"Ġcertain":3702,"ĠPERD":3703,"Ġgoodly":3704,"Ġproceed":3705,"Ġawhile":3706,"Ġhadst":3707,"Ġwhence":3708,"Ġoffence":3709,"Ġhearing":3710,"Ġgrie":3711,"Ġglad":3712,"Ġvirtuous":3713,"ĠBohemia":3714,"ĠVIRGILIA":3715,"ĠPERDITA":3716,"à¦¯à¦¦":3717,"Ġà¦¯à¦¤":3718,"à¦¾.":3719,"à§ĩ...":3720,"oss":3721,"à§¨à§¦":3722,"ny":3723,"à¦®à¦¶":3724,"Ġinnoc":3725,"joy":3726,"à¦¬à¦¦":3727,"Ġà¦¨à¦ľà¦°":3728,"Ġà¦ļà¦²à¦Ľ":3729,"Ġà¦Ĺà¦¬":3730,"Ġgirl":3731,"Ġà§§à§ªà§¨à§«":3732,"ustom":3733,"à¦¹à¦¬":3734,"iest":3735,"Ġwild":3736,"Ġfr":3737,"Ġur":3738,"vest":3739,"à¦ŀà¦ª":3740,"ding":3741,"ape":3742,"Ġcle":3743,"à¦¡à¦¨":3744,"ever":3745,"Ġshi":3746,"ĠYea":3747,"force":3748,"ĠEnglish":3749,"LY":3750,"Ġà¦Ĩà¦¬à¦¦":3751,"dge":3752,"orth":3753,"aring":3754,"Ġtor":3755,"Ġwalk":3756,"Ġinj":3757,"Ġworst":3758,"Ġpleas":3759,"astard":3760,"Ġgreater":3761,"ĠIsabel":3762,"Ġay":3763,"Ġshad":3764,"Ġblows":3765,"ĠStay":3766,"Ġchurch":3767,"Ġknee":3768,"Ġguilty":3769,"Ġmatch":3770,"Ġmild":3771,"isure":3772,"edant":3773,"ĠSLY":3774,"Ġforsw":3775,"feit":3776,"Ġquiet":3777,"Ġdisg":3778,"Ġaffection":3779,"Ġleisure":3780,"ĠMARIAN":3781,"Ġslew":3782,"Ġlawful":3783,"Ġtreason":3784,"Ġweeping":3785,"Ġsoldier":3786,"ician":3787,"Ġdeserved":3788,"Ġangry":3789,"ĠMARIANA":3790,"Ġà§¨à§¦à§§à§«":3791,"à¦Ĩà¦¨":3792,"Ġà¦®à¦¸":3793,"à¦¿.":3794,"Ġà¦¸à¦¹à¦ķ":3795,"Ġà¦ļà¦°":3796,"ual":3797,"Ġmod":3798,"Ġà¦®à¦°":3799,"Ġmed":3800,"Ġem":3801,"ons":3802,"ĠMen":3803,"à¦īà¦¨à¦²":3804,"à¦¤à¦°à¦£":3805,"Ġà§®à§®":3806,"Ġsho":3807,"arn":3808,"à¦¾)":3809,"ony":3810,"ĠOut":3811,"Ġshows":3812,"Ġsecond":3813,"Ġyear":3814,"Ġladies":3815,"ĠPad":3816,"à¦¸à¦Ń":3817,"ĠST":3818,"live":3819,"à¦¯à¦°":3820,"Ġfam":3821,"à§ĩ!":3822,"gue":3823,"ĠWatch":3824,"Ġneeds":3825,"Ġlist":3826,"awn":3827,"à¦ķà¦ķ":3828,"Ġcitiz":3829,"zen":3830,"Ġhur":3831,"Ġletter":3832,"osition":3833,"gmail":3834,"ĠMist":3835,"Ġcontin":3836,"ighb":3837,"Ġwon":3838,"Ġbehind":3839,"Ġletters":3840,"ended":3841,"Ġgovern":3842,"Ġmarch":3843,"ointed":3844,"Ġtrouble":3845,"Ġhap":3846,"Ġsole":3847,"Ġneck":3848,"Ġunk":3849,"Ġsentence":3850,"Ġencoun":3851,"Ġbecause":3852,"Ġfled":3853,"à¦¸à¦°à¦ķ":3854,"ĠWhile":3855,"Ġmeasure":3856,"Ġreign":3857,"ĠPAR":3858,"ĠGru":3859,"Ġdoom":3860,"Ġourselves":3861,"Ġshepherd":3862,"Ġwouldst":3863,"Ġspeaks":3864,"Ġkneel":3865,"Ġprisoner":3866,"Ġbanishment":3867,"ĠPlantag":3868,"ĠGremio":3869,"Ġclouds":3870,"Ġbreathe":3871,"Ġforbid":3872,"Ġliberty":3873,"Ġdishonour":3874,"Ġignor":3875,"ĠPadua":3876,"ĠPARIS":3877,"ĠGrumio":3878,"ĠPlantagen":3879,"ne":3880,"à¦ľà¦¨à¦ķ":3881,"Ġà¦°à¦ļà¦¨":3882,"à¦¨à¦²":3883,"à¦Ĩà¦²":3884,"Ġà¦Ĩà¦¸à¦²":3885,"à¦¼à§ĩ,":3886,"Ġà¦¤à¦¦à¦¨":3887,"angl":3888,"à¦Ĺà¦łà¦¨":3889,"Ġfuck":3890,"âĢĺ":3891,"Ġà¦ĩà¦īà¦°":3892,"ĠâĢ¦":3893,"à¦¾?":3894,"ban":3895,"Ġà¦¨à¦®":3896,"ider":3897,"à¦¨à¦Ĺà¦°":3898,"Ġà¦Ĩà¦°à¦¬":3899,"à§ĭ.":3900,"à¦¯à¦¸":3901,"iles":3902,"ung":3903,"ĠInt":3904,"ĠAnt":3905,"à¦ľà¦®":3906,"à¦ķà¦¯":3907,"à¦ĸà¦ķ":3908,"Ġfresh":3909,"à¦īà¦²":3910,"ators":3911,"Ġà§¨à§Ń":3912,"Ġgrand":3913,"ingly":3914,"Ġstor":3915,"Ġdrunk":3916,"dle":3917,"vel":3918,"ety":3919,"Ġref":3920,"Ġcru":3921,"Ġrough":3922,"acle":3923,"Ġlaid":3924,"Ġpet":3925,"Ġgolden":3926,"fully":3927,"Ġut":3928,"Ġfive":3929,"ĠToo":3930,"à¦ªà¦Ł":3931,"Ġabove":3932,":'":3933,"Ġsort":3934,"Ġheld":3935,"Ġnote":3936,"ĠHea":3937,"ĠFear":3938,"Ġchoose":3939,"Ġtemp":3940,"Ġvictory":3941,"Ġmorrow":3942,"Ġbones":3943,"Ġdry":3944,"Ġhund":3945,"ating":3946,"Ġoft":3947,"à¦ľà¦ķà¦¤":3948,"Ġaside":3949,"ĠGaunt":3950,"Ġseat":3951,"Ġlived":3952,"Ġnoise":3953,"Ġvain":3954,"Ġproclaim":3955,"Ġprosper":3956,"ĠPETER":3957,"Ġremain":3958,"Ġlonger":3959,"Ġwomb":3960,"Ġconscience":3961,"ĠSirrah":3962,"Ġappare":3963,"Ġobey":3964,"Ġdispatch":3965,"Ġcondemn":3966,"Ġpiece":3967,"Ġjoin":3968,"ĠPlantagenet":3969,"Ġhundred":3970,"chool":3971,"à¦¤à¦²":3972,"urs":3973,"à§¨à§¦à§§à§®":3974,"âĢĮà§į":3975,"Ġà§¨à§¬":3976,"Ġà¦ªà¦²":3977,"Ġà¦¸à¦ª":3978,"Ġhair":3979,"Ġà¦ĵà¦°":3980,"ĠMe":3981,"pr":3982,"ular":3983,"lock":3984,"iled":3985,"à¦ľà¦ķà¦¤à¦¤":3986,"ume":3987,"à§ĩâĢ¦":3988,"ww":3989,"à¦ĩà¦¡":3990,"Ġview":3991,"head":3992,"uthor":3993,"ude":3994,"à¦¸à¦Ł":3995,"à¦²à¦«":3996,"Ġfat":3997,"à¦·à¦®":3998,"201":3999,"gr":4000,"à¦¤à¦¦":4001,"ires":4002,"Ġglory":4003,"Ġà¦ıà¦¦":4004,"Ġà¦¦à¦°":4005,"Ġbell":4006,"à¦ĸà¦°":4007,"à§©à§¦":4008,"Ġà¦ıà¦¡":4009,"set":4010,"eem":4011,"Ġtent":4012,"Ġà¦Ĩà¦§":4013,"Ġlau":4014,"ĠPer":4015,"Ġdoing":4016,"Ġrob":4017,"ities":4018,"lease":4019,"posed":4020,"rent":4021,"ounds":4022,"ffect":4023,"Ġsus":4024,"Ġbend":4025,"!--":4026,"Ġconqu":4027,"Ġsaf":4028,"Ġpra":4029,"Ġknees":4030,"à¦¯à¦¯":4031,"Ġlust":4032,"vey":4033,"ĠHear":4034,"Ġeffect":4035,"Ġentertain":4036,"!!":4037,"bly":4038,"Ġsli":4039,"ĠCould":4040,"ART":4041,"Ġcounter":4042,"asion":4043,"Ġwarm":4044,"Ġthreat":4045,"Ġsac":4046,"Ġbears":4047,"Ġscar":4048,"Ġsuccess":4049,"ĠXI":4050,"aith":4051,"Ġsaint":4052,"Ġbroke":4053,"Ġfru":4054,"Ġfine":4055,"ĠDOR":4056,"Ġswift":4057,"Ġdesperate":4058,"Ġprecious":4059,"Ġforgot":4060,"WIS":4061,"inius":4062,"erle":4063,"Ġdrown":4064,"Ġlow":4065,"ĠARI":4066,"à§Ģ-":4067,"ceit":4068,"ĠCates":4069,"Ġrevere":4070,"Ġstain":4071,"Ġstood":4072,"Ġyourselves":4073,"ĠLART":4074,"ĠEarl":4075,"Ġblessed":4076,"Ġshed":4077,"Ġknowledge":4078,"ieu":4079,"Ġslander":4080,"ĠLEWIS":4081,"Ġpride":4082,"Ġwoes":4083,"Ġlands":4084,"Ġobed":4085,"Ġsteel":4086,"Ġtowards":4087,"Ġdespair":4088,"then":4089,"ĠCapul":4090,"ĠUnto":4091,"Ġvenge":4092,"Ġwisdom":4093,"Ġlabour":4094,"Ġkinsman":4095,"ĠWatchman":4096,"Ġcitizens":4097,"Ġencounter":4098,"ĠARIEL":4099,"ĠCatesby":4100,"ĠLARTIUS":4101,"Ġà¦°à¦¸":4102,"Ġà¦¶à¦¬":4103,"Ġ05":4104,"à¦¼?":4105,"à¦Łà¦«":4106,"Ġà¦ĩà¦°":4107,"hn":4108,"bd":4109,"à¦ķà¦Ń":4110,"ĠEn":4111,"Ġà¦īà¦ĩà¦ķ":4112,"à¦¤à¦¤":4113,"Ġà¦Ĺà¦łà¦¨":4114,"à¦¶à¦Ĺ":4115,"iful":4116,"à¦¶à¦°":4117,"Ġà¦ľà¦Ļ":4118,"ĠFri":4119,"à¦¼:":4120,"Ġenjoy":4121,"ĠâĹ":4122,"à¦¸à¦ļ":4123,"ĠDis":4124,"à¦īà¦¦":4125,"ations":4126,"Ġà¦ıà¦ĩà¦ļ":4127,"Ġwhite":4128,"ts":4129,"ĠVer":4130,"rence":4131,"Ġpun":4132,"ip":4133,"à¦¸à¦¤":4134,"ility":4135,"Ġstud":4136,"Ġhealth":4137,"Ġmoney":4138,"Ġcapt":4139,"ĠJohn":4140,"Ġauthor":4141,"Ġdance":4142,"estion":4143,"à¦¼à§Ĥ":4144,"Ġseal":4145,"med":4146,"vail":4147,"à¦°à¦ªà¦°":4148,"Ġpal":4149,"owb":4150,"Ġsour":4151,"Ġmount":4152,"Ġunderstand":4153,"oll":4154,"Ġeld":4155,"AMP":4156,"Ġguest":4157,"à¦ķà¦¸":4158,"Ġdied":4159,"à¦ıà¦²":4160,"eterm":4161,"Ġbastard":4162,"Ġsto":4163,"Ġplant":4164,"Ġremed":4165,"Ġarmy":4166,"Ġguess":4167,";'":4168,"iance":4169,"Ġalive":4170,"Ġmut":4171,"Ġmethinks":4172,"Ġfought":4173,"itors":4174,"Ġcorn":4175,"Ġdeterm":4176,"ĠAum":4177,"ĠSAMP":4178,"ĠCUR":4179,"ĠMowb":4180,"ĠPedant":4181,"Ġsever":4182,"Ġmanner":4183,"Ġquoth":4184,"eful":4185,"ĠWithin":4186,"Ġabro":4187,"Ġhonours":4188,"Ġcontr":4189,"Ġdeadly":4190,"Ġkept":4191,"Ġfew":4192,"Ġflowers":4193,"Ġstruck":4194,"Ġlordship":4195,"TIS":4196,"Ġwretched":4197,"Ġbeggar":4198,"Ġcheeks":4199,"Ġpromised":4200,"ĠKeeper":4201,"Ġmasters":4202,"ĠAumerle":4203,"ĠSAMPSON":4204,"ĠCURTIS":4205,"ĠMowbray":4206,"den":4207,"Ġà§¨à§¯":4208,"lect":4209,"ĠSc":4210,"à¦¨à¦ĵ":4211,"à¦ĸà¦¬":4212,"à¦īà¦¡":4213,"ppy":4214,"Ġà¦ħà¦¥à¦¬":4215,"irc":4216,"à¦ªà¦¡":4217,"Ġà¦®à¦¯":4218,"lix":4219,"Ġà¦ļà¦²à¦ļ":4220,"à¦ıà¦ĩ":4221,"à¦²à¦Ł":4222,"Ġà¦ªà¦¶":4223,"à¦ıà¦«":4224,"à¦Łà¦¸":4225,"à¦¢":4226,"à¦¯à¦¥":4227,"ĠLea":4228,"Ġaccount":4229,":--":4230,"roy":4231,"Ġstars":4232,"Ġsim":4233,"long":4234,"ĠEX":4235,"ease":4236,"ern":4237,"Ġgoing":4238,"reed":4239,"ĠPut":4240,"ites":4241,"ĠMine":4242,"amed":4243,"BU":4244,"Ġtry":4245,"ĠVin":4246,"'re":4247,"ounce":4248,"ĠLew":4249,"ONUS":4250,"Ġsummer":4251,"Ġcred":4252,"Ġdreams":4253,"Ġcruel":4254,"Ġteach":4255,"à¦¯à¦ķà¦°":4256,"orious":4257,"Ġà¦¨à¦¦":4258,"Ġdemand":4259,"Ġrot":4260,"Ġofficer":4261,"ĠLewis":4262,"Ġseven":4263,"Ġà§¨à§®":4264,"Ġneighb":4265,"à§©à§«":4266,"Ġearly":4267,"Ġgreet":4268,"ĠHeaven":4269,"GONUS":4270,"LEY":4271,"bury":4272,"mble":4273,"Ġaid":4274,"Ġcried":4275,"Ġgent":4276,"utio":4277,"ĠPardon":4278,"Ġliest":4279,"Ġshake":4280,"ĠEither":4281,"Ġherself":4282,"Ġwhether":4283,"Ġamong":4284,"Ġspent":4285,"Ġtruly":4286,"Ġbrothers":4287,"Ġhonourable":4288,"ĠANTI":4289,"Ġcalls":4290,"Ġmoved":4291,"ĠCitizens":4292,"Ġkindred":4293,"Ġguard":4294,"Ġvalour":4295,"Ġcharity":4296,"Ġfoolish":4297,"Ġsteal":4298,"Ġhumble":4299,"Ġjudge":4300,"Ġwretch":4301,"ĠPoor":4302,"Ġusurp":4303,"Ġtriumph":4304,"ĠMercutio":4305,"Ġscarce":4306,"BURY":4307,"ĠANTIGONUS":4308,"ĠHome":4309,"Ġà¦¨à¦Ĺ":4310,"à¦°à¦Ľ":4311,"ĠLo":4312,"à§ªà§¦":4313,"Ġà¦ĩà¦ŀ":4314,"Ġà¦¸à¦®à¦°":4315,"ĠFl":4316,")à¥¤":4317,"à¦²à¦¸":4318,"à¦ļà¦ķ":4319,"Ġà¦¯à¦¥":4320,"à§¨à§¦à§§à§Ń":4321,"Ġporn":4322,"go":4323,"xx":4324,"Ġadd":4325,"ĠâĹı":4326,"Ġà§¨à§¦à§§à§ª":4327,"ĠAB":4328,"ask":4329,"rees":4330,"Ġrid":4331,"Ġthro":4332,"à§ĩ.":4333,"Ġfart":4334,"à§¨à§¨":4335,"oon":4336,"ads":4337,"Ġparty":4338,"ĠBet":4339,"ĠMus":4340,"Ġà¦¡à¦²":4341,"Ġmonth":4342,"à¦²à¦Ń":4343,"Ġà¦ıà¦Ľ":4344,"Ġimag":4345,"lp":4346,"under":4347,"ĠLeave":4348,"RA":4349,"à¦°à¦Ĩà¦¨":4350,"ify":4351,"loads":4352,"ining":4353,"à§¨à§§":4354,"Ġyea":4355,"ways":4356,"house":4357,"leep":4358,"arted":4359,"asc":4360,"cover":4361,"Ġcustom":4362,"Ġcirc":4363,"ĠHarry":4364,"Ġforce":4365,"Ġdeg":4366,"Ġchast":4367,"Ġglass":4368,"Ġprivate":4369,"Ġlaugh":4370,"born":4371,"Ġpack":4372,"ĠNever":4373,"Ġminister":4374,"Ġbright":4375,"Ġthie":4376,"Ġbeha":4377,"ĠBid":4378,"ĠMade":4379,"ĠOnce":4380,"Ġwinter":4381,"gment":4382,"ued":4383,"Ġfaint":4384,"Ġdin":4385,"Ġstone":4386,"alous":4387,"Ġexce":4388,"Ġpriest":4389,"Ġcrave":4390,"ATC":4391,"Ġwail":4392,"Ġdwell":4393,"iment":4394,"Ġweary":4395,"Ġease":4396,"ĠFaith":4397,"ĠRATC":4398,"though":4399,"Ġanon":4400,"Ġfaire":4401,"Ġours":4402,"Ġblame":4403,"Ġthereof":4404,"Ġprovost":4405,"Ġenvy":4406,"Ġrise":4407,"Ġdism":4408,"mitted":4409,"Ġthinks":4410,"Ġwherefore":4411,"Ġothers":4412,"comes":4413,"Ġtrial":4414,"Ġkindness":4415,"Ġsubst":4416,"Ġfellows":4417,"Ġbids":4418,"Ġmiser":4419,"ĠAlack":4420,"ĠCominius":4421,"Ġcondition":4422,"ĠVolsces":4423,"Twas":4424,"Ġwalls":4425,"Ġsatisfied":4426,"Ġmalice":4427,"Ġidle":4428,"Ġbenef":4429,"orthy":4430,"Ġvengeance":4431,"Ġabroad":4432,"ĠRATCLIFF":4433,"Ġà¦®à¦¡":4434,"....":4435,"Ġà§«à§¦":4436,"ĠNext":4437,"ĠSp":4438,"aily":4439,"oobs":4440,"Ġà¦ªà¦°à¦¬à¦°":4441,"gg":4442,"à¦ıà¦¸à¦¸":4443,"à¦°à¦®à¦£":4444,"Ġprotect":4445,"Ġà¦ĺà¦¨":4446,"à¥¥":4447,"amp":4448,"à¦īà¦°":4449,"à§¦à§§à§Ń":4450,"à¦¾...":4451,"Ġschool":4452,"Ġà¦ĩà¦²":4453,"Ġà¦ªà¦£":4454,"à¦£à¦¤":4455,"Ġà¦īà¦ªà¦ķ":4456,"Ġà¦īà§İà¦¸à¦¬":4457,"à¦¹à¦¨":4458,"Ġà¦¦à¦¶":4459,"Ġà¦ħà¦Ļ":4460,"à¦§à¦°":4461,"icked":4462,"Ġà¦Ĩà¦¨à¦¨":4463,"Ġblind":4464,"Ġà¦ĵà¦¬":4465,"allow":4466,"ited":4467,"ĠLe":4468,"Ġsport":4469,"lay":4470,"Ġver":4471,"enes":4472,"à¦²à¦¦":4473,"ĠShow":4474,"ĠArt":4475,"Ġboot":4476,"vol":4477,"omas":4478,"ement":4479,"Ġroot":4480,"Ġà¦¸à¦¹à¦¯":4481,"ners":4482,"ĠTrue":4483,"ĠPost":4484,"orous":4485,"ĠInd":4486,"with":4487,"à¦ľà¦¬":4488,"ared":4489,"ĠUnder":4490,"osed":4491,"Ġflower":4492,"à¦Łà¦®":4493,"ĠAfter":4494,"ĠPlease":4495,"ĠDownloads":4496,"Ġmeat":4497,"ident":4498,"Ġacqu":4499,"eness":4500,"à¦ĩà¦¤":4501,"ĠBarn":4502,"Ġdeal":4503,"aper":4504,"Ġextrem":4505,"Ġwre":4506,"Ġwag":4507,"eding":4508,"ĠPeter":4509,"Ġgod":4510,"Ġunf":4511,"Ġtongues":4512,"rench":4513,"shal":4514,"ISH":4515,"Ġeasy":4516,"BAL":4517,"Ġbite":4518,"Ġfirm":4519,"vell":4520,"ĠRut":4521,"Ġconvey":4522,"rupt":4523,"ĠThomas":4524,"Ġvice":4525,"lieve":4526,"ioli":4527,"Ġquestion":4528,"Ġhonesty":4529,"Ġà¦Ĩà¦¸à¦¬":4530,"ailor":4531,"Ġchanged":4532,"Ġevil":4533,"Ġwench":4534,"Ġcorse":4535,"Ġdull":4536,"Ġlest":4537,"Ġgown":4538,"Ġbef":4539,"Ġincl":4540,"ĠHence":4541,"Ġreceived":4542,"ĠMant":4543,"ĠMethinks":4544,"Ġformer":4545,"ĠFie":4546,"Ġconcl":4547,"Ġvile":4548,"Ġshore":4549,"Ġshrew":4550,"Ġarri":4551,"ANLEY":4552,"Ġquite":4553,"Ġmayst":4554,"Ġfoes":4555,"ĠLords":4556,"Ġafford":4557,"Ġtyrant":4558,"Ġcover":4559,"Ġcounten":4560,"Ġhumour":4561,"Ġswords":4562,"Ġdeputy":4563,"ĠCorioli":4564,"Ġpossess":4565,"Ġjudgment":4566,"Ġprophe":4567,"Ġexcuse":4568,"ĠTYBAL":4569,"ĠWhilst":4570,"ĠPaulina":4571,"ĠSTANLEY":4572,"Ġfruit":4573,"ĠVincentio":4574,"ISHOP":4575,"ĠRutland":4576,"ĠMantua":4577,"ĠTYBALT":4578,"arden":4579,"Ġà¦ıà¦ķà¦¦":4580,"à¦°à¦¸à¦Ļ":4581,"Ġà§¨à§¦à§§à§©":4582,"Ġà¦ľà¦¡":4583,"Ġà¦ľà¦²":4584,"à§¦à§¨":4585,"à¦°à¦ĸ":4586,"à¦ľà¦²":4587,"Ġà¦¹à¦¨":4588,"Ġdouble":4589,"mon":4590,"ek":4591,"ered":4592,"Ġed":4593,"Ġà¦ĩà¦ļ":4594,"à¦°à¦°":4595,"Ġartic":4596,"à¦ľà¦ª":4597,"ept":4598,"à¦°à¦®à¦¨":4599,"Ġà¥¥":4600,"Ġboobs":4601,"AK":4602,"ĠLove":4603,"Ġind":4604,"à¦¼à¦¾à¥¤":4605,"Ġfinger":4606,"aff":4607,"à¦ªà¦²":4608,"à¦Łà¦ķà¦®":4609,"ĠTH":4610,"Ġà¦¨à¦Ĺà¦°":4611,"à§«à§¦":4612,"Ġà¦¸à¦«à¦°":4613,"Ġhol":4614,"ĠTut":4615,"Ġdoor":4616,"ĠPrince":4617,"ope":4618,"Ġ10":4619,"ĠSom":4620,"à¦ļà¦°":4621,"eed":4622,"chie":4623,"'?":4624,"low":4625,"Ġà¦Ĺà¦Ń":4626,"Ġran":4627,"lies":4628,"AND":4629,"llen":4630,"Ġgreen":4631,"ĠBrother":4632,"Ġtaken":4633,"Ġà¦ªà¦¬":4634,"Ġà¦ªà¦Ľà¦¨":4635,"Ġgift":4636,"Ġstop":4637,"ilia":4638,"Ġalways":4639,"Ġtwice":4640,"ĠStan":4641,"ĠDeath":4642,"Ġwicked":4643,"Ġcure":4644,"Ġthunder":4645,"rift":4646,"arer":4647,"arest":4648,"Ġunl":4649,"Ġspring":4650,"Ġleaves":4651,"Ġflat":4652,"azed":4653,"Ġchoice":4654,"Ġwhilst":4655,"Ġaffair":4656,"Ġbrows":4657,"rison":4658,"woman":4659,"Ġtread":4660,"Ġwither":4661,"Ġfain":4662,"Ġdust":4663,"à¦¦à¦£":4664,"Ġpains":4665,"Ġgrown":4666,"Ġgross":4667,"Ġghost":4668,"ĠWilt":4669,"Ġstab":4670,"idings":4671,"ENBURY":4672,"ĠDost":4673,"Ġnose":4674,"Ġbutcher":4675,"Ġnecess":4676,"Ġknave":4677,"Ġarg":4678,"Ġblest":4679,"cians":4680,"Ġsheep":4681,"Ġsirrah":4682,"Ġjoint":4683,"Ġtherein":4684,"ĠJove":4685,"Ġspake":4686,"OMAS":4687,"acher":4688,"ursed":4689,"Ġfiery":4690,"Ġprevent":4691,"Ġprevail":4692,"Ġperceive":4693,"Ġrepent":4694,"Ġtyran":4695,"ĠBRAK":4696,"Ġtraitors":4697,"twixt":4698,"Ġundert":4699,"Ġwrongs":4700,"Ġreasons":4701,"Ġsenate":4702,"Ġburied":4703,"Ġsilence":4704,"Ġdivine":4705,"ĠBesides":4706,"Ġembrace":4707,"Ġcreature":4708,"ĠCaius":4709,"Ġoccasion":4710,"ĠMistress":4711,"Ġsafety":4712,"Ġsacred":4713,"ĠCapulet":4714,"ĠFriar":4715,"ĠVerona":4716,"Ġremedy":4717,"ĠTHOMAS":4718,"ĠStanley":4719,"ĠBRAKENBURY":4720,"ĠHaving":4721,"ĠâĨ":4722,"à¦¸à¦®à¦¯":4723,"à¦ĩà¦¦":4724,"à¦¥à¦²":4725,"ades":4726,"à¦¶à¦Ł":4727,"à¦¹à¦ľ":4728,"à¦®à¦ľ":4729,"à¦¼à§ĩà¥¤":4730,"Ġà¦®à¦¸à¦ľ":4731,"Ġsex":4732,"Ġà¦«à¦ĸà¦°":4733,"ane":4734,"ked":4735,"Ġà¦Ĩà¦ļ":4736,"à¦¿!":4737,"à¦ĵà¦¤":4738,"Ġà¦īà¦ªà¦¦":4739,"angu":4740,"à¦Ĩà¦ĩà¦¨":4741,"à§ĩ)":4742,"à§¦à§Ń":4743,"à¦ªà¦£":4744,"Ġà¦¸à¦ł":4745,"à¦ıà¦¬":4746,"à¦Ĺà¦¡":4747,"ĠPrevious":4748,"nat":4749,"Ġà¦·":4750,"à¦°à¦ľà¦¨":4751,"à§¨à§©":4752,"oard":4753,"?'":4754,"Ġà¦¬à¦¦à¦²":4755,"shi":4756,"à¦Ĺà¦¬":4757,"à¦ĩà¦¹":4758,"Ġà¦ıà¦®à¦ª":4759,"hant":4760,"ĠSu":4761,"Ġà¦ľà¦¨à¦Ĺà¦£":4762,"hys":4763,"unts":4764,"orry":4765,"Ġlar":4766,"Ġinform":4767,"aste":4768,"mn":4769,"Ġshar":4770,"pin":4771,"ĠTurn":4772,"oly":4773,"à¦¥à¦ķ":4774,"Ġround":4775,"Ġes":4776,"Ġused":4777,"act":4778,"ped":4779,"à¦ķà¦ļ":4780,"Ġemp":4781,"ĠFr":4782,"Ġknight":4783,"Ġrock":4784,"Ġmaids":4785,"angla":4786,"Ġdec":4787,"ĠCapit":4788,"Ġbelly":4789,"icious":4790,"ĠWithout":4791,"Ġdrop":4792,"she":4793,"anch":4794,"ances":4795,"rows":4796,"Ġhollow":4797,"ONE":4798,"Ġdesign":4799,"Ġdelight":4800,"aol":4801,"Ġship":4802,"Ġlangu":4803,"Ġpract":4804,"Ġgarden":4805,"Ġeag":4806,"Ġallow":4807,"unning":4808,"aughters":4809,"STR":4810,"Ġtempt":4811,"ĠApoll":4812,"Ġempt":4813,"GOR":4814,"ealous":4815,"Ġavo":4816,"ĠSic":4817,"ĠHas":4818,"ĠOV":4819,"Ġloyal":4820,"ĠMyself":4821,"elve":4822,"Ġrude":4823,"Ġsmile":4824,"Ġdeserve":4825,"Ġrotten":4826,"mity":4827,"Ġsits":4828,"inous":4829,"Ġwent":4830,"Ġwings":4831,"Ġbark":4832,"erset":4833,"Ġfury":4834,"Ġcares":4835,"enius":4836,"edious":4837,"Ġrenown":4838,"Ġstones":4839,"Ġweeds":4840,"Ġdeceived":4841,"ĠDER":4842,"Ġloath":4843,"ardine":4844,"Ġfares":4845,"Ġshr":4846,"othing":4847,"Ġoracle":4848,"loved":4849,"Ġmayor":4850,"Ġimprison":4851,"Ġsail":4852,"Ġplot":4853,"Ġplague":4854,"Ġfright":4855,"Ġclaim":4856,"Ġwherein":4857,"Ġcommend":4858,"ĠWherein":4859,"Ġadieu":4860,"Ġprayer":4861,"Ġtroth":4862,"ĠGREGOR":4863,"Ġtreacher":4864,"Ġassist":4865,"Ġwanton":4866,"ERDONE":4867,"ĠMISTR":4868,"Ġanger":4869,"ĠPrithee":4870,"Ġcheek":4871,"Ġabsence":4872,"Ġviolent":4873,"Ġbroken":4874,"Ġdrawn":4875,"Ġtrumpets":4876,"ĠMenenius":4877,"Ġignorant":4878,"Ġutter":4879,"ĠIndeed":4880,"ĠBarnardine":4881,"Ġcountenance":4882,"ĠSomerset":4883,"ĠCapitol":4884,"Ġpractise":4885,"ĠOVERDONE":4886,"ĠDERBY":4887,"ĠGREGORY":4888,"ĠMISTRESS":4889,"Ġbabe":4890,"à¦¬à¦ĩ":4891,"Ġà¦ĺà¦£":4892,"à¦·à¦°":4893,"Ġà¦Ńà¦¬":4894,"Ġà¦«à¦°à¦®":4895,"à¦°à¦ķà¦®":4896,"Ġà¦ıà¦Ń":4897,"Ġà§¦à§¨":4898,"à¦¹à¦ķ":4899,"uss":4900,"à¦°à¦¦à¦°":4901,"Ġdaily":4902,"à¦°à¦¸à¦¨":4903,"Ġà¦¡à¦Ł":4904,"Ġà¦¦à¦°à¦ķ":4905,"rib":4906,"Ġà¦ļà¦¤":4907,"à¦£à¦¬":4908,"à§¦à§«":4909,"Ġhid":4910,"Ġpub":4911,"ember":4912,"run":4913,"Ġball":4914,"Ġà¦ĭ":4915,"à¦Łà¦²":4916,"Ġcam":4917,"à§¨à§Ń":4918,"à§Įà¦ģ":4919,"Ġà¦ıà¦°à¦ªà¦°":4920,"isa":4921,"Ġstock":4922,"Ġà§ªà§¦":4923,"hor":4924,"rand":4925,"Ġstar":4926,"dy":4927,"âĢĶ":4928,"ission":4929,"Ġ6":4930,"cha":4931,"Ġgives":4932,"à¦«à¦°":4933,"draw":4934,"Ġthroat":4935,"ene":4936,"à§©à§®":4937,"ĠThurs":4938,"ĠThursday":4939,"Ġ7":4940,"à¦¶à¦¤":4941,"à¦¶à¦¬":4942,"Ġdet":4943,"oke":4944,"Ġhit":4945,"Ġhung":4946,"ys":4947,"ione":4948,"ĠKnow":4949,"ĠMark":4950,"utes":4951,"à¦¨à¦Ĺ":4952,"chan":4953,"na":4954,"Ġperfect":4955,"Ġchief":4956,"content":4957,"à¦¬à¦§":4958,"Ġpin":4959,"othe":4960,"OND":4961,"pet":4962,"Ġsens":4963,"ester":4964,"ĠSOM":4965,"aze":4966,"ĠGrey":4967,"mione":4968,"ises":4969,"ĠGreat":4970,"ards":4971,"Ġcre":4972,"Ġstuff":4973,"Ġpair":4974,"semb":4975,"ĠThree":4976,"Ġearn":4977,"Ġow":4978,"Ġproper":4979,"ĠHermione":4980,"place":4981,"Ġloud":4982,"Ġpi":4983,"urance":4984,"Ġones":4985,"eeth":4986,"Ġpleased":4987,"XF":4988,"Ġstat":4989,"Ġamb":4990,"ĠInto":4991,"Ġsimple":4992,"pinion":4993,"MOND":4994,"eld":4995,"eous":4996,"Ġaim":4997,"Ġmotion":4998,"Ġwives":4999,"à¦¬à¦Ĺà¦ŀ":5000,"Ġcell":5001,"Ġdue":5002,"Ġnine":5003,"Ġnames":5004,"Ġpawn":5005,"Ġthrust":5006,"ĠCo":5007,"Ġdew":5008,"ĠVAL":5009,"Ġjealous":5010,"Ġquit":5011,"Ġwhole":5012,"Ġheav":5013,"Ġpassing":5014,"Ġcastle":5015,"Ġundone":5016,"Ġexpress":5017,"Ġstorm":5018,"Ġaffairs":5019,"ĠApollo":5020,"Ġtune":5021,"Ġtidings":5022,"Ġtedious":5023,"held":5024,"Ġaught":5025,"Ġsix":5026,"Ġwont":5027,"rehe":5028,"haps":5029,"onounce":5030,"Ġcries":5031,"esy":5032,"Ġpil":5033,"Ġgain":5034,"Ġbecomes":5035,"cend":5036,"Ġinfect":5037,"ldom":5038,"ĠCousin":5039,"Ġreceive":5040,"Ġasleep":5041,"ĠOXF":5042,"Ġdeposed":5043,"ĠPisa":5044,"Ġvantage":5045,"ERIA":5046,"Ġuns":5047,"Ġshouldst":5048,"Ġawake":5049,"Ġresign":5050,"Ġenvious":5051,"Ġrasc":5052,"Ġoutward":5053,"ĠRICHMOND":5054,"Ġoffend":5055,"Ġalas":5056,"Ġplead":5057,"Ġmeaning":5058,"Ġbegins":5059,"Ġruin":5060,"ethought":5061,"Ġbanished":5062,"Ġwoful":5063,"Ġdevise":5064,"Ġfollowers":5065,"Ġfools":5066,"Ġpersu":5067,"Ġhanging":5068,"Ġadvise":5069,"Ġrememb":5070,"Ġborne":5071,"Ġsupper":5072,"Ġcarry":5073,"Ġlamb":5074,"ĠRivers":5075,"Ġinstruct":5076,"Ġdisposition":5077,"Ġpossible":5078,"Ġnobles":5079,"ERSET":5080,"Ġdespite":5081,"Ġgarments":5082,"Ġfollows":5083,"Ġdreadful":5084,"Ġsighs":5085,"Ġthrive":5086,"Ġcolour":5087,"Ġprepared":5088,"ĠChristian":5089,"Ġdamned":5090,"Ġfatal":5091,"Ġauthority":5092,"Ġfarther":5093,"ĠMusician":5094,"Ġexcell":5095,"Ġbenefit":5096,"ĠSOMERSET":5097,"ĠVALERIA":5098,"ĠOXFORD":5099,"à¦ŀà¦¤":5100,"Ġà¦ļà¦²à¦¤":5101,"à¦ľà¦ķ":5102,"ilf":5103,"à¦¯à¦®à¦¨":5104,"Ġà¦ħà¦ŀ":5105,"Ġà¦Ĳà¦¤":5106,"à§įâĢĮ":5107,"Ġà¦ľà¦¨à¦ķ":5108,"à¦·à¦¨":5109,"à¦Ī":5110,"à§ĭ?":5111,"à¦²à¦²":5112,"à¦¦à¦¯":5113,"Ġ18":5114,"à§¦à§©":5115,"que":5116,"Ġà¦²à¦¡":5117,"à¦®à¦°à¦£":5118,"à§¦à§§":5119,"Ġinnocent":5120,"ĠTwo":5121,"à¦®à¦¹à¦¤":5122,"Ġbond":5123,"à¥¤âĢĻ":5124,"Ġtrans":5125,"à¦¸à¦¡":5126,"à¦¡à¦¸":5127,"ĠBoy":5128,"room":5129,"à§Ńà§§":5130,"à¦ķà¦¶":5131,"Ġca":5132,"Ġstep":5133,"Ġà¦ħà¦ľ":5134,"Ġtort":5135,"ills":5136,"à§¨à§®":5137,"Ġtop":5138,"iffe":5139,"Ġange":5140,"à§ªà§«":5141,"arch":5142,"à¦ĵà¦°":5143,"à¦¾),":5144,"à¦¸à¦ĵà¦¯":5145,"illing":5146,"à§ªà§®":5147,"SA":5148,"Ġà¦¬à¦²à¦¬":5149,"ron":5150,"Ġà¦¸à¦«à¦Łà¦ĵà¦¯":5151,"ib":5152,"Ġcrack":5153,"Ġpunish":5154,"iron":5155,"Ġband":5156,"à¦ļà¦Ł":5157,"Ġwait":5158,"apon":5159,"Ġbrook":5160,"Ġsong":5161,"à¦¯à¦«":5162,"Ġroom":5163,"Ġstore":5164,"usion":5165,"Ġdirect":5166,"ello":5167,"ancy":5168,"à§ģà¦ĥ":5169,"à¦£à¦¬à¦¯":5170,"Ġlegs":5171,"à¦¬à¦¹à¦¨":5172,"à¦¨à¦ªà¦¤":5173,"Ġsorry":5174,"Ġà¦Ľà¦¡":5175,"Ġsan":5176,"ĠVery":5177,"ĠHelp":5178,"loy":5179,"ĠOfficer":5180,"HY":5181,"yard":5182,"Ġphys":5183,"venture":5184,"after":5185,"Ġmat":5186,"Ġcal":5187,"Ġline":5188,"Ġshut":5189,"Ġwedding":5190,"à¦¨à¦Ń":5191,"Ġele":5192,"à¦£à¦Ĺà¦ŀ":5193,"ords":5194,"Ġvan":5195,"ellow":5196,"Ġtaste":5197,"à¦¸à¦«":5198,"Ġproof":5199,"Ġchair":5200,"Ġaccess":5201,"Ġclear":5202,"Ġpaper":5203,"Ġneg":5204,"Ġuntil":5205,"Ġsilver":5206,"Ġaccept":5207,"Ġcontinue":5208,"Ġwine":5209,"Ġflight":5210,"itude":5211,"Ġdaughters":5212,"ĠBion":5213,"Ġweight":5214,"Ġequ":5215,"Ġdelay":5216,"Ġseas":5217,"Ġspeci":5218,"Ġaffect":5219,"Ġparts":5220,"Ġkeeps":5221,"ounty":5222,"Ġpalace":5223,"Ġneighbour":5224,"Ġcircum":5225,"Ġempty":5226,"BRA":5227,"HOR":5228,"LIUS":5229,"dello":5230,"yond":5231,"Ġterror":5232,"Ġteeth":5233,"Ġmurderer":5234,"Ġwander":5235,"Ġcens":5236,"Ġcunning":5237,"Ġlend":5238,"Ġowe":5239,"ĠTailor":5240,"atsw":5241,"Ġgage":5242,"Ġbew":5243,"Ġbeheld":5244,"ĠBUS":5245,"ĠBona":5246,"ĠMAMIL":5247,"ĠMOW":5248,"ĠMOP":5249,"urst":5250,"Ġweapon":5251,"Ġlip":5252,"Ġconj":5253,"Ġlod":5254,"ouses":5255,"ETER":5256,"Ġgoodness":5257,"Ġsway":5258,"Ġkingly":5259,"Ġunha":5260,"Ġunnat":5261,"Ġspend":5262,"imely":5263,"Ġrash":5264,"Ġdisd":5265,"Ġexile":5266,"Ġdesert":5267,"Ġgentlewoman":5268,"ĠBelieve":5269,"Ġtwelve":5270,"Ġcontract":5271,"Ġintend":5272,"ĠStill":5273,"Ġperil":5274,"Ġperish":5275,"Ġwrath":5276,"Ġlean":5277,"iteous":5278,"Ġwhither":5279,"orses":5280,"Ġaccuse":5281,"Ġprize":5282,"Ġpursu":5283,"Ġcourtesy":5284,"Ġhumbly":5285,"Ġcurst":5286,"Ġbelike":5287,"Ġadvantage":5288,"Ġspirits":5289,"Ġdenied":5290,"Ġdrum":5291,"Ġburthen":5292,"Ġbetwixt":5293,"Ġresolve":5294,"Ġresolved":5295,"ĠPolix":5296,"Ġprotest":5297,"Ġpenit":5298,"Ġpleasant":5299,"Ġshadow":5300,"Ġforsworn":5301,"Ġhurt":5302,"Ġsolemn":5303,"Ġpetition":5304,"Ġconquer":5305,"Ġthreaten":5306,"Ġseveral":5307,"Ġcontrary":5308,"ĠEXETER":5309,"ĠABHOR":5310,"Ġdinner":5311,"Ġmiserable":5312,"Ġsanct":5313,"ĠBiondello":5314,"BRAY":5315,"atswain":5316,"ĠBUSHY":5317,"ĠMAMILLIUS":5318,"ĠMOWBRAY":5319,"ĠMOPSA":5320,"ĠPolixenes":5321,"ĠABHORSON":5322,"à¦¼à§Ģ,":5323,"à§¦à§¯":5324,"Ġà§©à§§":5325,"à¦¨à¦¬à¦¬à¦¨":5326,"à¦ĩà¦Ĺ":5327,"à¦ıà¦ķ":5328,"icks":5329,"uary":5330,"irg":5331,"Ġfaces":5332,"Ġà§®à§®à§¦à§§à§Ń":5333,"à§ģ-":5334,"ĠRight":5335,"ĠPage":5336,"Ġà¦¦à¦®":5337,"Ġcock":5338,"zz":5339,"ote":5340,"Ġwww":5341,"gy":5342,"pping":5343,"Ġstory":5344,"à¦°à¦¬à¦¨":5345,"Ġà¦ªà¦¦à¦ķ":5346,"Ġà¦¸à¦¤à¦°":5347,"oot":5348,"à¦Ĺà¦ķ":5349,"Ġà¦ļà¦®":5350,"Ġnaked":5351,"Ġarticle":5352,"à§¨à§¬":5353,"à¦ĩà¦ª":5354,"Ġà¦ħà¦¡":5355,"Ġà¦ıà¦ĸà¦¨à¦ĵ":5356,"Ġ2017":5357,"te":5358,"à¦īà¦¸":5359,"à§ĩà¥¤âĢĻ":5360,"Ġpublic":5361,"à¦§à¦ķ":5362,"à¦Ĥ-":5363,"Ġadm":5364,"hop":5365,"à¦Ŀà¦¤":5366,"OS":5367,"à§§à§§à§":5368,"à¦²à¦Ľ":5369,"Ġnatural":5370,"Ġà¦ķà¦·":5371,"Ġà¦ıà¦«":5372,"ĠRep":5373,"rt":5374,"Ġà¦¡à¦Łà¦ķà¦®":5375,"Ġwhore":5376,"port":5377,"Ġmiss":5378,"à¦¼-":5379,"Ġà¦ĵà¦ł":5380,"erved":5381,"Ġà¦īà¦¦à¦¯":5382,"à¦ĸà¦Ľ":5383,"pass":5384,"Ġà¦°à¦¹":5385,"CH":5386,"Ġdag":5387,"Ġà§§à§¯à§¯":5388,"Ġà¦Ĩà¦īà¦Ł":5389,"pic":5390,"à¦ľà¦¤":5391,"ĠMarch":5392,"à¦¨à¦¡":5393,"Ġbot":5394,"Ġrose":5395,"Ġtable":5396,"ĠAR":5397,"umble":5398,"par":5399,"12":5400,"Ġà¦Ľà¦¯":5401,"Ġà¦ĩà¦¨à¦¸":5402,"Ġlarge":5403,"Ġcup":5404,"ency":5405,"cio":5406,"rate":5407,"Ġturns":5408,"Ġà§§à§¦à§¦":5409,"ĠOnly":5410,"Ġwaters":5411,"Ġprincess":5412,"Ġbas":5413,"Ġpure":5414,"ĠNap":5415,"ustice":5416,"Ġà¦Ĩà¦«à¦Ĺ":5417,"Ġà¦ļà¦®à§İà¦ķ":5418,"Ġfra":5419,"Ġrel":5420,"outs":5421,"Ġswallow":5422,"à¦¯à¦¤à¦®":5423,"ising":5424,"aries":5425,"uses":5426,"ĠNone":5427,"Ġends":5428,"Ġbud":5429,"Ġvent":5430,"Ġfail":5431,"Ġspr":5432,"Ġlooking":5433,"Ġcalled":5434,"Ġmarket":5435,"Ġcredit":5436,"clock":5437,"Ġwood":5438,"Ġdies":5439,"Ġopinion":5440,"Ġtomb":5441,"Ġgru":5442,"Ġmaking":5443,"Ġcomb":5444,"Ġslow":5445,"Ġways":5446,"Ġsharp":5447,"Ġemploy":5448,"Ġlanguage":5449,"rease":5450,"Ġfle":5451,"Ġreward":5452,"ĠFather":5453,"ĠFrench":5454,"Ġconduct":5455,"Ġunb":5456,"Ġintent":5457,"Ġpartic":5458,"Ġprey":5459,"Ġremains":5460,"ALTH":5461,"Ġsmo":5462,"Ġattempt":5463,"Ġadvance":5464,"ĠMayor":5465,"Ġtemper":5466,"Ġgovernment":5467,"vish":5468,"hearted":5469,"Ġsqu":5470,"Ġscept":5471,"Ġmourn":5472,"Ġwot":5473,"Ġwond":5474,"Ġwits":5475,"Ġfro":5476,"Ġfash":5477,"Ġcalm":5478,"Ġdign":5479,"Ġdares":5480,"Ġdurst":5481,"Ġyonder":5482,"Ġpainted":5483,"Ġpiteous":5484,"Ġhunt":5485,"Ġhorses":5486,"ĠAEd":5487,"sequ":5488,"Ġheed":5489,"Ġgate":5490,"Ġbeloved":5491,"Ġbeyond":5492,"utation":5493,"ĠBear":5494,"ĠBISHOP":5495,"ĠBALTH":5496,"Ġmend":5497,"ĠMight":5498,"Ġstoop":5499,"Ġweigh":5500,"ourish":5501,"Ġdebt":5502,"ĠPERC":5503,"Ġseest":5504,"ĠNothing":5505,"igence":5506,"Ġpronounce":5507,"cian":5508,"Ġamen":5509,"Ġhatred":5510,"Ġhereafter":5511,"Ġtheirs":5512,"Ġquench":5513,"Ġspare":5514,"Ġhopes":5515,"Ġseeing":5516,"à§©à§¯":5517,"Ġdiss":5518,"Ġdiscover":5519,"Ġdiscontent":5520,"Ġexpect":5521,"ĠMarshal":5522,"Ġfairly":5523,"Ġado":5524,"lesome":5525,"Ġperpet":5526,"Ġfee":5527,"Ġhark":5528,"Ġcrowns":5529,"Ġcourage":5530,"Ġendure":5531,"Ġneedful":5532,"Ġjoys":5533,"Ġjoyful":5534,"Ġservices":5535,"Ġmistake":5536,"Ġfortunes":5537,"Ġbodies":5538,"Ġhappiness":5539,"Ġmisery":5540,"Ġtremb":5541,"Ġchide":5542,"Ġassurance":5543,"Ġcurses":5544,"leness":5545,"Ġcommanded":5546,"Ġsenators":5547,"Ġsometime":5548,"Ġsometimes":5549,"Ġwounded":5550,"Ġspoken":5551,"Ġinstrument":5552,"Ġcursed":5553,"ASAR":5554,"Ġshortly":5555,"Ġwhiles":5556,"ĠBeseech":5557,"Ġgroan":5558,"Ġfolly":5559,"Ġcomplain":5560,"Ġcolours":5561,"Ġprinces":5562,"Ġduked":5563,"Ġgriev":5564,"Ġapparel":5565,"Ġobedience":5566,"Ġwreck":5567,"Ġundertake":5568,"Ġremembrance":5569,"Ġexcellent":5570,"Ġunnatural":5571,"picion":5572,"ĠARCH":5573,"ĠBALTHASAR":5574,"ĠPERCY":5575,"Ġdukedom":5576,"Ġà¦ĩà¦¬":5577,"à¦®à¦Ĺ":5578,"Ġà¦Ĩà¦ĩà¦¸":5579,"Ġà¦ħà¦¦":5580,"Ġ8":5581,"à§Ģ:":5582,"à¦¿...":5583,"à§¦à§®":5584,"à¦®à¦§":5585,"à§ģà¥¤":5586,"à¦®à¦¹":5587,"ĠTit":5588,"ĠâĢĶ":5589,"à¦²à¦ľ":5590,"à¦¬à¦°à¦£":5591,"à¦¨à¦¬à¦¨":5592,"Ġ9":5593,"ĠUnc":5594,"ĠLay":5595,"à¦ľà¦Ł":5596,"Ġà¦Ĩà¦¸à¦¤":5597,"ĠSet":5598,"Ġinstruction":5599,"Ġà¦¨à¦¨":5600,"Ġ::":5601,"Ġvirg":5602,"Ġà¦¹à¦Ł":5603,"Ġà§¦à§®":5604,"à¦¤à¦¬à¦¤":5605,"ĠPlay":5606,"ita":5607,"Ġà¦ĭà¦£":5608,"Ġbare":5609,"oe":5610,"Ġdi":5611,"Ġà¦īà¦¡":5612,"à¦īà¦ķ":5613,"ants":5614,"Ġà§¦à§©":5615,"à¦Ĥ,":5616,"Ġà¦®à¦ŀ":5617,"âĢį":5618,"Ġsky":5619,"à¦°à¦¸à¦Ń":5620,"Ġà¦¦à¦«":5621,"ourage":5622,"ified":5623,"Ġhost":5624,"Ġà¦ĸà¦°à¦ļ":5625,"Ġtrick":5626,"Ġthird":5627,"à¦¥à¦Ĺ":5628,"Ġà¦ıà¦¯":5629,"Ġstol":5630,"sing":5631,"âĢĵ":5632,"Ġà¦ľà¦¨à¦¸":5633,"ĠEl":5634,"ĠJack":5635,"fer":5636,"à§ĭ-":5637,"Ġà¦²à¦¨":5638,"à¦Ľà¦¡":5639,"à§¦à§ª":5640,"ination":5641,"atic":5642,"ĠCal":5643,"Ġà§§à§§à§":5644,"omp":5645,"Ġà¦°à¦ķà¦®":5646,"ĠRos":5647,"Ġmag":5648,"Ġwants":5649,"do":5650,"lar":5651,"Ġtut":5652,"Ġjourn":5653,"afe":5654,"ĠRem":5655,"ĠYoung":5656,"whe":5657,"ĠSon":5658,"Ġà¦ļà¦°à¦®":5659,"Ġsins":5660,"ube":5661,"ĠGet":5662,"Ġalter":5663,"Ġscene":5664,"à¦·à¦ķà¦¦":5665,"Ġgrey":5666,"Ġtest":5667,"arts":5668,"ument":5669,"Ġà¦ķà¦®à¦ª":5670,"noon":5671,"Ġhaz":5672,"Ġà¦¸à¦®à¦¨":5673,"OSS":5674,"cer":5675,"what":5676,"hest":5677,"Ġmile":5678,"Ġits":5679,"ĠLong":5680,"ĠRet":5681,"Ġleads":5682,"Ġmill":5683,"à¦ķà¦¶à¦¨":5684,"arent":5685,"Ġfeed":5686,"?--":5687,"Ġodd":5688,"Ġrealm":5689,"Ġeast":5690,"Ġblock":5691,"Ġimm":5692,"Ġwrite":5693,"Ġdegree":5694,"Ġtap":5695,"Ġod":5696,"Ġglo":5697,"Ġimposs":5698,"ression":5699,"Ġinstant":5700,"Ġprofess":5701,"Ġcaptain":5702,"CAS":5703,"rous":5704,"Ġled":5705,"Ġpowers":5706,"uted":5707,"aded":5708,"ĠFour":5709,"ĠDear":5710,"Ġbrings":5711,"olute":5712,"Ġsav":5713,"Ġfathers":5714,"Ġring":5715,"ĠSold":5716,"Ġrogue":5717,"Ġfriendly":5718,"tled":5719,"Ġtrade":5720,"Ġrepair":5721,"Ġserves":5722,"Ġbrain":5723,"Ġpassion":5724,"Ġresolution":5725,"Ġincrease":5726,"Ġvenom":5727,"Ġdrops":5728,"Ġoppos":5729,"Ġterms":5730,"ĠExeter":5731,"Ġunknown":5732,"Ġthief":5733,"Ġparticular":5734,"Ġsmooth":5735,"FOL":5736,"bow":5737,"same":5738,"wise":5739,"Ġsink":5740,"Ġmaint":5741,"à¦ķà¦ľà¦¨":5742,"isper":5743,"ishop":5744,"Ġfame":5745,"Ġflies":5746,"Ġcease":5747,"ences":5748,"Ġnought":5749,"Ġhouses":5750,"ĠAmen":5751,"ĠWidow":5752,"ĠWorthy":5753,"Ġmere":5754,"Ġmeant":5755,"Ġrepe":5756,"Ġisle":5757,"Ġisland":5758,"Ġweather":5759,"Ġkin":5760,"idence":5761,"ĠROSS":5762,"Ġseize":5763,"ĠDorse":5764,"Ġconce":5765,"ĠThr":5766,"ĠThose":5767,"Ġvault":5768,"Ġcomest":5769,"Ġknife":5770,"Ġshun":5771,"Ġmanners":5772,"Ġblush":5773,"Ġhateful":5774,"Ġqual":5775,"Ġworn":5776,"Ġspite":5777,"Ġenmity":5778,"Ġbeth":5779,"Ġintell":5780,"Ġslay":5781,"Ġadvers":5782,"strous":5783,"Ġscope":5784,"Ġarmour":5785,"Ġuntimely":5786,"Ġvex":5787,"Ġconsider":5788,"Ġrule":5789,"Ġslept":5790,"Ġaccord":5791,"Ġcompan":5792,"Ġcompass":5793,"Ġpurcha":5794,"Ġapprehe":5795,"Ġglorious":5796,"Ġpassage":5797,"ĠBoatswain":5798,"Ġmaiden":5799,"uteous":5800,"Ġseeming":5801,"Ġboar":5802,"Ġstrew":5803,"ĠNORFOL":5804,"ĠGentlemen":5805,"Ġfreely":5806,"Ġwinds":5807,"Ġcontented":5808,"Ġdrums":5809,"Ġmonstrous":5810,"ĠLucio":5811,"Ġcholer":5812,"Ġdeserves":5813,"Ġgrows":5814,"ĠWhither":5815,"Ġgranted":5816,"ĠVolsce":5817,"Ġabsent":5818,"Ġprivile":5819,"Ġrespected":5820,"Ġapproach":5821,"Ġframe":5822,"Ġtorment":5823,"Ġprosperous":5824,"Ġsuspicion":5825,"Ġpraise":5826,"Ġcounterfeit":5827,"ĠDORCAS":5828,"Ġreverend":5829,"Ġbehalf":5830,"Ġtreacherous":5831,"Ġcamest":5832,"chance":5833,"Ġearnest":5834,"Ġdisdain":5835,"Ġdagger":5836,"ĠNaples":5837,"Ġsceptre":5838,"Ġodds":5839,"ĠDorset":5840,"ĠNORFOLK":5841,"à§Ģ?":5842,"à¦°à¦ĵà¦¯":5843,"urb":5844,"Ġago":5845,"à¦¨à¦¹":5846,"ĠCont":5847,"Ġfucked":5848,"10":5849,"ĠNews":5850,"Ġà¦ļà¦²à¦®":5851,"Ġà¦Ĩà¦ĵà¦¤":5852,"Ġà¦Ĩà¦¡":5853,"kin":5854,"à¦¡à¦²":5855,"Ġsuck":5856,"Ġà¦Ĩà¦¹à¦®à¦¦":5857,"à§¦à§¦à§¦":5858,"Ġà¦īà§İà¦¸":5859,"à§¨à§¯":5860,"Ġà§¦à§§":5861,"Ġà¦ªà¦ŀ":5862,"Ġà¦ıà¦ķà¦¬":5863,"à§«à§«":5864,"Ġà¦¯à¦¶":5865,"11":5866,"just":5867,"à¦¼à¦¾-":5868,"à¦¾âĢ¦":5869,"Ġà¦ļà¦ķ":5870,"ah":5871,"time":5872,"Ġà¦Ĺà¦¤à¦ķ":5873,"Ġà¦ªà¦°à¦°":5874,"Ġà¦Ĩà¦®à¦¦":5875,"à¦ħà¦¨":5876,"ĠBra":5877,"à§©à§Ń":5878,"à¦°à¦¥à¦®à¦¬":5879,"Ġà¦īà§İà¦ª":5880,"ker":5881,"Ġà¦ħà¦®":5882,"Ġà¦ĩà¦¸à¦°":5883,"ĠStri":5884,"Ġbabes":5885,"ald":5886,"NS":5887,"Ġ12":5888,"à¦¨à¦ª":5889,"à¦®à¦¨à¦¸":5890,"Ġà¦Ĺà¦£à¦®":5891,"ales":5892,"à¦Łà¦Ł":5893,"Ġà¦¹à¦ł":5894,"Ġà¦°à¦®à¦ľ":5895,"à¦ľà¦Ń":5896,"Ġà¦ĸà¦¨":5897,"ĠRom":5898,"Ġà¦Ĩà¦ĩà¦¨à¦ľ":5899,"à¦ĩà¦¨à¦¬":5900,"iny":5901,"à¦ĵà¦¨":5902,"ĠComm":5903,"law":5904,"Ġà§¨à§¦à§§à§¨":5905,"Ġmor":5906,"Ġà¦ķà¦²à¦ķ":5907,"Ġà¦®à¦¦":5908,"Ġà¦¨à¦ĵ":5909,"ĠBer":5910,"Ġclam":5911,"Ġà¦¸à¦«à¦²":5912,"à¦Ńà¦¯":5913,"Ġstreets":5914,"ĠSave":5915,"ĠThanks":5916,"Ġgiving":5917,"ĠBen":5918,"ĠPat":5919,"ĠAbout":5920,"Ġà¦°à¦¶":5921,"elt":5922,"Ġà¦«à¦Ł":5923,"ĠSupp":5924,"Ġvirgin":5925,"ĠCame":5926,"Ġdestroy":5927,"GH":5928,"ĠFuck":5929,"Ġà¦ĵà¦ľà¦¨":5930,"Ġjew":5931,"af":5932,"Ġchat":5933,"Ġdress":5934,"rain":5935,"Ġà¦¬à¦Ľà¦°à¦ĸ":5936,"aline":5937,"Ġwa":5938,"Ġlat":5939,"à¦Ĺà¦ľ":5940,"Ġlun":5941,"ĠGhost":5942,"Ġsham":5943,"arlet":5944,"ĠSm":5945,"ĠItal":5946,"à¦¾à¦ĥ)":5947,"Ġfamous":5948,"Ġbird":5949,"ĠYe":5950,"Ġboots":5951,"Ġbuild":5952,"pul":5953,"Ġfig":5954,"Ġà¦¬à¦Ĺ":5955,"ĠRat":5956,"Ġlovely":5957,"Ġ11":5958,"Ġnorth":5959,"Ġcharact":5960,"Ġsilent":5961,"Ġrecord":5962,"Ġstudy":5963,"Ġelder":5964,"RR":5965,"reland":5966,"erve":5967,"ĠIreland":5968,"Ġdig":5969,"Ġthorn":5970,"à¦¡à¦¬":5971,"ĠHunts":5972,"Ġrevol":5973,"ruly":5974,"Ġafternoon":5975,"Ġsupposed":5976,"spir":5977,"Ġlusty":5978,"NSO":5979,"Ġable":5980,"Ġsouth":5981,"Ġdying":5982,"Ġà¦Ĩà¦ķà¦°":5983,"à¦¹à¦«":5984,"iring":5985,"Ġwilling":5986,"liament":5987,"Ġconstant":5988,"Ġenforce":5989,"Ġtells":5990,"Ġgreatest":5991,"ĠGREEN":5992,"Ġwitch":5993,"Ġputs":5994,"Ġcurrent":5995,"Ġmessenger":5996,"Ġesc":5997,"Ġavoid":5998,"Ġspecial":5999,"Ġjourney":6000,"God":6001,"SET":6002,"fret":6003,"Ġing":6004,"Ġtame":6005,"Ġtaught":6006,"Ġtide":6007,"Ġalike":6008,"Ġwort":6009,"Ġbury":6010,"Ġfal":6011,"Ġfurn":6012,"Ġcatch":6013,"Ġlark":6014,"Ġpurse":6015,"Ġparent":6016,"ĠALO":6017,"Ġbeard":6018,"ĠBring":6019,"Ġmelt":6020,"Ġrede":6021,"Ġrecom":6022,"Ġstamp":6023,"Ġwept":6024,"Ġwealth":6025,"ricians":6026,"ĠFERD":6027,"Ġseason":6028,"INAND":6029,"Ġlion":6030,"raced":6031,"Ġconceit":6032,"Ġwillingly":6033,"Ġvows":6034,"Ġcommitted":6035,"Ġamazed":6036,"Ġswell":6037,"Ġunless":6038,"Ġmuster":6039,"Ġspur":6040,"Ġshoulder":6041,"Ġruth":6042,"Ġdisper":6043,"Ġaboard":6044,"Ġabhor":6045,"Ġroar":6046,"Ġwhereof":6047,"Ġcommission":6048,"Ġwarlike":6049,"Ġfears":6050,"Ġhasty":6051,"Ġadver":6052,"Ġperj":6053,"Ġperforce":6054,"Ġwrought":6055,"Ġpress":6056,"Ġbearing":6057,"Ġraise":6058,"Ġwhisper":6059,"Ġbegun":6060,"Ġpeers":6061,"Ġveins":6062,"Ġaccused":6063,"Ġgrieve":6064,"Ġkindly":6065,"Ġsmiles":6066,"Ġcounty":6067,"Ġfinds":6068,"cliff":6069,"Ġbraw":6070,"Ġcharged":6071,"Ġholds":6072,"Ġassured":6073,"Ġsoundly":6074,"Ġsends":6075,"Ġrevenged":6076,"Ġhanged":6077,"Ġadvice":6078,"icians":6079,"Ġdarest":6080,"Ġinstruments":6081,"Ġhardly":6082,"ĠConspir":6083,"Ġparliament":6084,"Ġnobly":6085,"Ġsingle":6086,"Ġaffli":6087,"Ġgarland":6088,"Ġpieces":6089,"ĠPomfret":6090,"ĠUntil":6091,"Ġforbear":6092,"Ġgroans":6093,"Ġestate":6094,"Ġthrice":6095,"Ġrebell":6096,"ĠTYRR":6097,"Ġurged":6098,"Ġaffections":6099,"Ġhaply":6100,"ĠDORSET":6101,"Ġgently":6102,"Ġprotector":6103,"Ġarrived":6104,"ĠFroth":6105,"aoler":6106,"ĠSicilia":6107,"Ġimprisonment":6108,"Ġrascal":6109,"Ġcircumst":6110,"Ġsanctuary":6111,"ĠAEdile":6112,"Ġperpetual":6113,"Ġgrievous":6114,"ĠTitus":6115,"ĠRosaline":6116,"ĠSoldier":6117,"Ġmaintain":6118,"Ġbethink":6119,"ĠRomans":6120,"ĠRatcliff":6121,"ĠHuntsman":6122,"Ġworthi":6123,"ĠALONSO":6124,"ĠFERDINAND":6125,"ĠTYRREL":6126,"Ġà¦īà¦ķ":6127,"à§¦à§¬":6128,"Ġà¦Ĩà¦¦à¦°":6129,"ðŁ":6130,"news":6131,"ric":6132,"con":6133,"à¦Ĩà¦ª":6134,"à¦ĺà¦¨":6135,"ties":6136,"Ġ19":6137,"Ġà¦ĩà¦īà¦ª":6138,"à¦¾]":6139,"Th":6140,"à¦¬à¦ľ":6141,"omen":6142,"Ġà¦ªà¦¦à¦¤":6143,"Ġ--":6144,"à¦¥à¦®à¦¨":6145,"eat":6146,"ĠAcc":6147,"ical":6148,"ĠNat":6149,"ĠLau":6150,"à¦¦à¦Ł":6151,"Ġà¦Īà¦¶":6152,"iving":6153,"Ġà§¦à§«":6154,"à¦ĵà¦²":6155,"à§ªà§©":6156,"Ġ13":6157,"gu":6158,"gar":6159,"à¦ĩà¦ī":6160,"ĠUp":6161,"Ġdicks":6162,"ages":6163,"Ġà¦ĩà¦®à¦°":6164,"Ġfeet":6165,"ĠTr":6166,"à§¨à§¦à§¦":6167,"Ġà¦®à¦¤à¦¬":6168,"Ġà¦¹à¦¯à¦°à¦¤":6169,"ĠMin":6170,"Ġhorn":6171,"pse":6172,"Ġfish":6173,"à¦¡à¦®":6174,"Ġ15":6175,"à¦¼!":6176,"à¦¸à¦Ļ":6177,"Ġà¦¤à¦¤":6178,"Ġà§§à§ªà§¨à§ª":6179,"Ġà¦ıà¦ķà¦®":6180,"Ġdiffe":6181,"ĠFo":6182,"Ġstret":6183,"à¥¤âĢĿ":6184,"à§ªà§ª":6185,"Ġà§©à§«":6186,"à¦·à¦ľ":6187,"ĠSal":6188,"Ġà¦Ĩà¦ĺ":6189,"Ġà§¦à§¯":6190,"nal":6191,"Ġpound":6192,"Ġà¦¸à¦°à¦¬à¦°":6193,"ians":6194,"rey":6195,"ulate":6196,"ference":6197,"ĠIm":6198,"Ġà¦Ĩà¦Ļ":6199,"Ġà¦ļà¦¨":6200,"à¦¤à¦ª":6201,"ĠBus":6202,"let":6203,"Ġà¦¬à¦¸à¦¬":6204,"Ġà¦¨à¦ķà¦²":6205,"Ġstro":6206,"ĠTar":6207,"more":6208,"ĠMil":6209,"ĠWr":6210,"à¦°à¦¸à¦¹":6211,"ierce":6212,"Ġagree":6213,"enna":6214,"ative":6215,"ĠVi":6216,"ĠConf":6217,"Ġer":6218,"Ġpu":6219,"harge":6220,"Ġaunt":6221,"Ġmel":6222,"ivil":6223,"Ġboys":6224,"Ġcat":6225,"Porn":6226,"Ġsal":6227,"Ġmir":6228,"Ġmult":6229,"roll":6230,"Ġbooks":6231,"iate":6232,"esar":6233,"Ġnail":6234,"Ġpot":6235,"ĠPri":6236,"pend":6237,"ested":6238,"Ġune":6239,"Ġchase":6240,"Ġmouths":6241,"fall":6242,"Ġtall":6243,"à¦¦à¦¦":6244,"ourse":6245,"ĠGu":6246,"ĠDraw":6247,"ĠCons":6248,"ĠAnti":6249,"Ġsnow":6250,"itation":6251,"Ġrece":6252,"Ġsell":6253,"Ġimage":6254,"LIS":6255,"eless":6256,"aces":6257,"Ġnative":6258,"Ġentertainment":6259,"father":6260,"oved":6261,"upt":6262,"Ġcaught":6263,"Ġdri":6264,"Ġà¦¦à¦£":6265,"Ġà¦ĩà¦«à¦¤":6266,"Ġresist":6267,"Ġfeeling":6268,"vior":6269,"Ġapt":6270,"Ġfood":6271,"Ġdim":6272,"vet":6273,"Ġmyster":6274,"uten":6275,"eder":6276,"ĠMarian":6277,"Ġfires":6278,"Ġslaves":6279,"Ġprick":6280,"iety":6281,"Ġinterc":6282,"Ġexchange":6283,"dig":6284,"mory":6285,"Ġsire":6286,"Ġwide":6287,"Ġbade":6288,"erce":6289,"Ġhor":6290,"Ġhabit":6291,"ĠCond":6292,"alus":6293,"Ġdepend":6294,"Ġsees":6295,"Ġconference":6296,"ignt":6297,"Ġcomple":6298,"Ġsaying":6299,"Ġclim":6300,"ĠQu":6301,"Ġstanding":6302,"Ġflood":6303,"ĠProceed":6304,"Ġsovereignt":6305,"ouchs":6306,"faced":6307,"Ġrecon":6308,"Ġbeasts":6309,"shire":6310,"Ġequal":6311,"Ġimpossible":6312,"ĠMilan":6313,"Ġcomplex":6314,"Ġsovereignty":6315,";--":6316,"groom":6317,"rrel":6318,"Ġtarry":6319,"Ġtask":6320,"Ġsalt":6321,"Ġwing":6322,"Ġwhip":6323,"Ġwaking":6324,"erby":6325,"isbury":6326,"Ġfrow":6327,"Ġfancy":6328,"Ġcher":6329,"Ġcere":6330,"Ġdow":6331,"essel":6332,"Ġlent":6333,"Ġlength":6334,"Ġà¦ªà¦Ł":6335,"Ġyond":6336,"Ġyoke":6337,"Ġoak":6338,"Ġhie":6339,"semble":6340,"etite":6341,"Ġbelow":6342,"Ġinqu":6343,"ĠSix":6344,"ĠCur":6345,"Ġreck":6346,"Ġrejo":6347,"ĠMakes":6348,"Ġsting":6349,"Ġstout":6350,"Ġstroke":6351,"Ġfors":6352,"Ġforced":6353,"Ġforfeit":6354,"ooping":6355,"Ġdeceit":6356,"ĠRather":6357,"Ġsore":6358,"Ġsooth":6359,"ĠDerby":6360,"ruction":6361,"Ġsue":6362,"Ġalliance":6363,"Ġvessel":6364,"Ġknaves":6365,"akest":6366,"Ġmanif":6367,"Ġblunt":6368,"Ġung":6369,"Ġunjust":6370,"Ġsets":6371,"Ġdefence":6372,"Ġsple":6373,"Ġgraves":6374,"ably":6375,"Ġnewly":6376,"Ġwholesome":6377,"Ġoffended":6378,"Ġdisple":6379,"Ġexerc":6380,"Ġabide":6381,"ĠNoble":6382,"Ġalack":6383,"Ġalthough":6384,"Ġdesires":6385,"Ġdescend":6386,"forth":6387,"forced":6388,"Ġbetray":6389,"Ġbetimes":6390,"Ġtwain":6391,"Ġcontempt":6392,"Ġparting":6393,"Ġpartly":6394,"Ġprett":6395,"Ġwrink":6396,"ullus":6397,"Ġrare":6398,"Ġraised":6399,"Ġremorse":6400,"Ġbegu":6401,"Ġhousehold":6402,"Ġrust":6403,"Ġruled":6404,"osing":6405,"Ġaccus":6406,"Ġaccident":6407,"ĠTyrrel":6408,"Ġcommons":6409,"Ġpowerful":6410,"Ġsmell":6411,"clam":6412,"Ġhelm":6413,"Ġbrace":6414,"Ġappetite":6415,"Ġmistrust":6416,"Ġbesides":6417,"Ġdevotion":6418,"Ġtreasure":6419,"Ġtremble":6420,"Ġpatricians":6421,"Ġweeps":6422,"Ġassure":6423,"Ġfalsehood":6424,"Ġvirtues":6425,"Ġsecure":6426,"Ġcraft":6427,"Ġmerit":6428,"Ġoaths":6429,"Ġfaithful":6430,"ĠCannot":6431,"Ġsurely":6432,"Ġpoints":6433,"Ġpossession":6434,"Ġprofit":6435,"Ġbeholding":6436,"Twere":6437,"Ġcorre":6438,"Ġwaste":6439,"Ġforgive":6440,"Ġbreathed":6441,"Ġweakness":6442,"Ġsickness":6443,"Ġregal":6444,"Ġregard":6445,"Ġdirection":6446,"Ġbridegroom":6447,"soever":6448,"Ġcomplaint":6449,"Ġbarren":6450,"ĠCaesar":6451,"Ġpitch":6452,"Ġtrumpet":6453,"Ġshield":6454,"Ġforswear":6455,"Ġdisgrace":6456,"Ġunkind":6457,"Ġtempest":6458,"Ġapparent":6459,"grim":6460,"Ġsuspect":6461,"Ġreverence":6462,"Ġobedient":6463,"Ġstopp":6464,"Ġdetermined":6465,"Ġfairer":6466,"Ġfairest":6467,"Ġsubstit":6468,"Ġholp":6469,"Ġstabb":6470,"Ġtyranny":6471,"ancholy":6472,"Ġrenowned":6473,"Ġballad":6474,"Ġpilgrim":6475,"Ġunhappy":6476,"Ġpenitent":6477,"Ġfashion":6478,"Ġdignity":6479,"ĠFourth":6480,"Ġaccording":6481,"Ġrebellion":6482,"ĠSalisbury":6483,"ĠVienna":6484,"Ġmelancholy":6485,"utenant":6486,"Ġreconci":6487,"Ġfroward":6488,"Ġà¦¯à¦¨":6489,"à¦¬à¦¬à¦°":6490,"tom":6491,"ories":6492,"Ġà¦ħà¦¬à¦°":6493,"à¦¨à¦ļ":6494,"Ġ14":6495,"à¦ķà¦Ľ":6496,"à¦£à¦¨":6497,"Ġ06":6498,"Ġà¦Ĺà¦¨":6499,"à§©à§©":6500,"à¦¥à¦°":6501,"Ġmom":6502,"à§ĢâĢĻ":6503,"Ġà¦¬à¦ī":6504,"à¦²à¦Ļ":6505,"à¦ķà¦ª":6506,"à¦¤à¦ľ":6507,"Ġà¦īà¦ĩà¦¨":6508,"Ġbutt":6509,"à¦¹à¦°à¦£":6510,"Ġà§Ńà§¦":6511,"à¦²à¦°":6512,"hin":6513,"Ġbrown":6514,"à§¨à§¦à§§à§¬":6515,"ĠRa":6516,"à¦¸à¦²à¦®":6517,"Ġà¦¦à¦¶à¦®":6518,"Ġà¦¹à¦ľ":6519,"à¦²à¦Ĺà¦ŀ":6520,"uc":6521,"ized":6522,"Ġspy":6523,"à¦Ńà¦°":6524,"fold":6525,"Ġà¦¨à¦ĵà¦Ĺ":6526,"ĠHappy":6527,"some":6528,"nes":6529,"à¦®à¦Ĺà¦ŀ":6530,"IT":6531,"ĠHo":6532,"ĠSoft":6533,"Ġà¦²à¦Ĺ":6534,"Ġrights":6535,"Ġsy":6536,"Ġfem":6537,"à¦¸à¦°à¦£":6538,"teen":6539,"à¦²à¦¶":6540,"à¦ĩà¦®à¦¸":6541,"itt":6542,"ĠTime":6543,"Ġà¦¤à¦®":6544,"Ġà¦ĵà¦¸à¦®":6545,"Ġà§¦à§¬":6546,"à¦¦à¦®":6547,"Ġà¦¦à¦ĸà¦²":6548,"Ġà¦ĩà¦¬à¦¨":6549,"Ġtakes":6550,"à¦ĩà¦¸à¦¬":6551,"à¦«à¦¸":6552,"ĠAD":6553,"Ġà¦ħà¦Ł":6554,"à¦¸à¦¸":6555,"Ġsuper":6556,"irty":6557,"ĠVal":6558,"Ġtorture":6559,"à§«à§¬":6560,"à§§à§¦à§¦à§¦":6561,"irect":6562,"licy":6563,"lu":6564,"Ġ20":6565,"bb":6566,"iam":6567,"net":6568,"à¦¾/":6569,"ases":6570,"Ġ24":6571,"Ġà¦īà¦łà¦²":6572,"à¦ĩà¦¦à¦¹":6573,"à§©à§¬":6574,"à¦Ĩà¦ªà¦¨":6575,"Ġà§¦à§Ń":6576,"pper":6577,"Ġtim":6578,"âĢ¦âĢ¦":6579,"Â®":6580,"cies":6581,"Ġ03":6582,"à¦°à¦Ĺà¦ŀ":6583,"ĠAf":6584,"aning":6585,"Ġà¦ļà¦²à¦¬":6586,"Ġà¥¤à¥¤":6587,"ĠAw":6588,"Ġà¦Ĩà¦Ł":6589,"ingers":6590,"à¦Ľà¦¬":6591,"asp":6592,"ĠCle":6593,"Ġwithdraw":6594,"Ġ07":6595,"maid":6596,"wife":6597,"xe":6598,"Ġà¦ĩà¦ķà¦¬":6599,"Ġà¦¨à¦·":6600,"Ġeng":6601,"gn":6602,"othes":6603,"Ġwindows":6604,"à¦¨à¦¶":6605,"Ġà¦ĩà¦īà¦Ł":6606,"à¦¦à¦¤":6607,"bation":6608,"tic":6609,"illy":6610,"Ġà¦§à¦°à¦£":6611,"Ġpolicy":6612,"uts":6613,"Ġ16":6614,"Ġthick":6615,"Ġinv":6616,"isting":6617,"Ġà¦Ĩà¦¬à¦¹":6618,"ĠBetter":6619,"bod":6620,"Ġbon":6621,"ĠSound":6622,"ĠCry":6623,"ample":6624,"Ġlover":6625,"Ġclothes":6626,"ased":6627,"mong":6628,"sell":6629,"Ġdeb":6630,"Ġvol":6631,"Ġà¦Ĩà¦®à¦²":6632,"Ġyounger":6633,"à¦ħà¦ªà¦°":6634,"ipe":6635,"Ġyes":6636,"ĠLie":6637,"à¦Ńà¦¬à¦¤":6638,"Ġspit":6639,"Ġextre":6640,"ĠFollow":6641,"eg":6642,"Ġwid":6643,"Ġlap":6644,"Ġstumble":6645,"ĠFort":6646,"ushes":6647,"ĠVen":6648,"Ġstranger":6649,"Ġmeeting":6650,"Ġslip":6651,"wit":6652,"Ġtail":6653,"Ġà¦ķà¦£":6654,"Ġpierce":6655,"à§Ģ)":6656,"ĠHim":6657,"Ġfact":6658,"lier":6659,"Ġspect":6660,"Ġadventure":6661,"oked":6662,"Ġstrokes":6663,"ĠADR":6664,"girl":6665,"tles":6666,"Ġachie":6667,"Ġwest":6668,"Ġbir":6669,"erves":6670,"Ġdecl":6671,"ĠEach":6672,"andal":6673,"Ġmanage":6674,"Ġunp":6675,"Ġabused":6676,"Ġleague":6677,"Ġrain":6678,"Ġremove":6679,"Ġvel":6680,"Ġhuman":6681,"Ġcraves":6682,"Ġeagle":6683,"ĠItaly":6684,"ĠMariana":6685,"Ġze":6686,"Ġmood":6687,"Ġwakes":6688,"Ġtoil":6689,"ĠWIL":6690,"Ġmemory":6691,"Ġride":6692,"Ġfierce":6693,"Ġwhit":6694,"Ġremoved":6695,"Ġharsh":6696,"pier":6697,"Ġsubtle":6698,"ĠCLE":6699,"ĠWilliam":6700,"Ġconfirm":6701,"Ġobject":6702,"Ġcounc":6703,"Ġburst":6704,"Ġcorrupt":6705,"Ġbigger":6706,"Ġpleasing":6707,"ĠReturn":6708,"Ġopposite":6709,"Ġmystery":6710,"ĠADRIAN":6711,".--":6712,"Ay":6713,"UGH":6714,"bear":6715,"cary":6716,"cceed":6717,"dita":6718,"Ġiron":6719,"Ġtres":6720,"Ġtaunt":6721,"Ġaxe":6722,"inct":6723,"Ġmirth":6724,"Ġwake":6725,"Ġwink":6726,"onation":6727,"Ġbuck":6728,"itable":6729,"Ġcost":6730,"Ġcivil":6731,"Ġnap":6732,"Ġped":6733,"Ġpause":6734,"Ġthread":6735,"Ġthirty":6736,"Ġope":6737,"ĠTush":6738,"ĠTullus":6739,"Ġtoad":6740,"Ġtooth":6741,"omach":6742,"Ġgaze":6743,"Ġbeam":6744,"Ġbeget":6745,"Ġbelong":6746,"Ġinfection":6747,"imble":6748,"ĠSomet":6749,"ĠHail":6750,"ĠCounty":6751,"Ġreap":6752,"ĠMany":6753,"illain":6754,"herit":6755,"ĠLart":6756,"Ġdeck":6757,"Ġdearest":6758,"aments":6759,"ĠFRO":6760,"Ġseldom":6761,"Ġsepul":6762,"Ġlift":6763,"Ġliken":6764,"Ġsuitor":6765,"Ġsullen":6766,"Ġsucceed":6767,"Ġlovest":6768,"Ġfawn":6769,"Ġknot":6770,"Ġshri":6771,"Ġretire":6772,"Ġjot":6773,"Ġhated":6774,"LOUGH":6775,"Ġswain":6776,"Ġbran":6777,"Ġunst":6778,"Ġproclam":6779,"âĢĻà¥¤":6780,"ĠWhether":6781,"Ġselfsame":6782,"Ġimpat":6783,"OMENES":6784,"Ġdeaths":6785,"Ġheartily":6786,"Ġripe":6787,"Ġmarks":6788,"Ġdescent":6789,"utting":6790,"ĠBehold":6791,"Ġwarri":6792,"Ġgreatness":6793,"Ġbred":6794,"Ġheavenly":6795,"Ġsweeter":6796,"Ġperhaps":6797,"Ġwriting":6798,"ĠAnon":6799,"Ġscold":6800,"Ġrail":6801,"Ġfeather":6802,"Ġrepose":6803,"Ġbegan":6804,"Ġgrat":6805,"Ġserved":6806,"Ġkeeper":6807,"Ġaccursed":6808,"Ġcommonwe":6809,"Ġyoungest":6810,"Ġcoff":6811,"Ġdearly":6812,"Ġminds":6813,"Ġappointed":6814,"Ġmischance":6815,"Ġsorrows":6816,"Ġlesser":6817,"Ġuncles":6818,"Ġsteeds":6819,"Ġgriefs":6820,"Ġcurt":6821,"Ġcareless":6822,"Ġcountrymen":6823,"Ġhangs":6824,"Ġbeauteous":6825,"ĠDidst":6826,"Ġyielded":6827,"Ġappeal":6828,"Ġsupply":6829,"Ġmonument":6830,"Ġsights":6831,"Ġgrowing":6832,"Ġsuffici":6833,"Ġheirs":6834,"Ġtrusty":6835,"Ġvisage":6836,"Ġstronger":6837,"Ġinfant":6838,"Ġexecuted":6839,"Ġforeign":6840,"Ġincen":6841,"Ġabsolute":6842,"Ġplainly":6843,"Ġproport":6844,"Ġfourteen":6845,"Ġsatisfy":6846,"Ġfrowns":6847,"Ġestim":6848,"Ġredress":6849,"Ġservants":6850,"Ġblem":6851,"Ġtriumphant":6852,"ĠAmong":6853,"Ġgallant":6854,"Ġoccup":6855,"Ġexecutioner":6856,"Ġinjur":6857,"Ġshadows":6858,"Ġdisgu":6859,"Ġmodest":6860,"Ġmodesty":6861,"Ġignorance":6862,"banished":6863,"Ġrefuse":6864,"eeming":6865,"ĠPerdita":6866,"Ġdetermine":6867,"ĠBetw":6868,"Ġchaste":6869,"Ġdismal":6870,"Ġacquaint":6871,"Ġextremity":6872,"Ġwager":6873,"Ġshrewd":6874,"Ġprophet":6875,"Ġedge":6876,"Ġflatte":6877,"Ġshroud":6878,"othecary":6879,"Ġneglect":6880,"Ġwondrous":6881,"Ġtrembling":6882,"ĠUncle":6883,"Ġrepeal":6884,"Ġconceal":6885,"ĠThrough":6886,"Ġadversaries":6887,"Ġpurchase":6888,"Ġprivilege":6889,"ĠCommend":6890,"Ġredeem":6891,"ĠConspirator":6892,"ĠBushy":6893,"ouchsafe":6894,"Ġdowry":6895,"Ġexercise":6896,"ĠWILLOUGH":6897,"ĠCLEOMENES":6898,"Ġtrespass":6899,"ĠLartius":6900,"ĠFROTH":6901,"Ġsepulch":6902,"Ġflatterer":6903,"ĠWILLOUGHBY":6904,"à¦ĸà¦¸":6905,"à¦¤à¦Ń":6906,"Ġà§§à§¯à§Ń":6907,"Ġà¦¨à¦¡":6908,"Ġà¦ĵà¦¸":6909,"Ġà¦Ĩà¦ĩà¦ª":6910,"Ġà§¬à§¦":6911,"à§¯à§¯":6912,"hamed":6913,"ips":6914,"Ġà§¦à§ª":6915,"Ġà¦īà¦Ńà¦¯":6916,"Ġà¦Ŀà¦¡":6917,"Ġmonster":6918,"à¦¥à¦¤":6919,"Ġà¦Ĩà¦²à¦®à¦Ĺ":6920,"19":6921,"à¦¨à¦ĩ":6922,"stars":6923,"à¦Ĺà¦¦":6924,"bangla":6925,"Ġà¦¦à¦¯":6926,"âĢįà§į":6927,"à¦ıà¦ĩà¦ļ":6928,"Ġale":6929,"ĠGr":6930,"à¦ľà¦Ĺ":6931,"à¦¨à¦ľà¦¨":6932,"ĠðŁ":6933,"à¦®à¦¡":6934,"ril":6935,"Ġà§©à§¨":6936,"Ġà¦°à¦Ļ":6937,"à¦Ńà¦ķ":6938,"ann":6939,"nel":6940,"à¦¬à¦®":6941,"//":6942,"à¦¡à¦ª":6943,"à¦ľà¦Ĺà¦ŀ":6944,"eb":6945,"à¦ĥ)":6946,"à¦¯à¦Ĺ":6947,"Ġ26":6948,"Ġà¦¸à¦ŀ":6949,"Ġlez":6950,"ĠBre":6951,"à§İà¦¸à¦ķ":6952,"ision":6953,"à¦Łà¦¤":6954,"Ġà¦ıà¦°à¦¶":6955,".)":6956,"ta":6957,"à¦ªà¦®":6958,"à¦°à¦Ļ":6959,"Ġdild":6960,"Ġà¦¶à¦«":6961,"Ġà¦Ĺà¦£à¦¤à¦¨":6962,"Ġpee":6963,"Ġà§©à§¬":6964,"ĠWed":6965,"Ġpornstars":6966,"à¦¿âĢ¦":6967,"omes":6968,"Ġà¦ķà¦¤à¦Ł":6969,"à¦¼à¦ĥ":6970,"ĠSur":6971,"17":6972,"ĠFucked":6973,"ilth":6974,"Ġxxx":6975,"ĠApp":6976,"à¦ļà¦¨à¦ķ":6977,"Ġ;":6978,"à¦Łà¦°à¦¸":6979,"Ġangel":6980,"à¦°à¦ļà¦£":6981,"Ġstretch":6982,"ĠAtt":6983,"Ġnet":6984,"Ġï":6985,"oops":6986,"acles":6987,"Ġah":6988,"à¦ļà¦¤":6989,"Ġmonths":6990,"ables":6991,"ĠGreen":6992,"Ġmil":6993,"Ġpage":6994,"à¦Łà¦¬":6995,"idin":6996,"Ġ17":6997,"Ġà§¦à§§à§®":6998,"ĠDoes":6999,"à¦¼à¦Ĥ":7000,"ĠImp":7001,"EP":7002,"urg":7003,"ĠOld":7004,"ola":7005,"mas":7006,"ering":7007,"ital":7008,"à§«à§¨":7009,"Ġabuse":7010,"Ġbottom":7011,"sey":7012,"ĠPart":7013,"Ġbeaut":7014,"Ġà¦Ĩà¦ĩà¦¡":7015,"Ġluck":7016,"ĠOh":7017,"à¦£à¦Ń":7018,"ushing":7019,"aming":7020,"bert":7021,"ĠQue":7022,"Ġcontro":7023,"Ġà¦¸à¦¬à¦ķ":7024,"Ġprice":7025,"bio":7026,"Ġfant":7027,"Ġthumb":7028,"Ġdece":7029,"Ġshare":7030,"Ġà¦ªà¦°à¦®":7031,"ĠKn":7032,"icers":7033,"ĠJes":7034,"Ġà¦Ĩà¦¶à¦°":7035,"cue":7036,"à¦¿/":7037,"vered":7038,"ĠCast":7039,"action":7040,"Ġcum":7041,"Ġà¦¦à¦°à¦ľ":7042,"ĠSit":7043,"Ġsuns":7044,"à§ªà§Ń":7045,"orough":7046,"ĠWife":7047,"ĠSend":7048,"hern":7049,"ĠPur":7050,"ĠFind":7051,"à§ĩà¥¤âĢĿ":7052,"Ġsleeping":7053,"Ġwritten":7054,"ders":7055,"ratch":7056,"inate":7057,"Ġpaid":7058,"Ġà¦®à¦°à¦¦":7059,"ĠFair":7060,"Ġlets":7061,"ĠâĢ¢":7062,"à§©à§¨":7063,"ĠAnne":7064,"Ġreply":7065,"Ġrestra":7066,"Ġbank":7067,"rank":7068,"Ġminute":7069,"ghan":7070,"master":7071,"Ġtou":7072,"onst":7073,"Ġhom":7074,"Ġhoney":7075,"Ġheat":7076,"Ġgodd":7077,"eping":7078,"Ġsweat":7079,"Ġofficers":7080,"Ġfix":7081,"Ġbacks":7082,"Ġdrag":7083,"Ġsteps":7084,"ĠStrike":7085,"Ġmoral":7086,"Ġcharacter":7087,"eved":7088,"iar":7089,"nken":7090,"Ġtig":7091,"Ġbill":7092,"Ġfard":7093,"ĠWit":7094,"ĠHang":7095,"ĠPerc":7096,"INE":7097,"pear":7098,"ARN":7099,"ĠJustice":7100,"iced":7101,"ansom":7102,"Ġdrunken":7103,"Ġbehavior":7104,"llenge":7105,"ĠQueen":7106,"sues":7107,"sop":7108,"Ġbore":7109,"Ġcrow":7110,"Ġdate":7111,"Ġdower":7112,"Ġyon":7113,"Ġtomorrow":7114,"Ġheels":7115,"owl":7116,"Ġink":7117,"ĠMaking":7118,"Ġstraw":7119,"Ġforty":7120,"keley":7121,"ouring":7122,"Ġà¦°à¦¹à¦¸":7123,"ĠGree":7124,"raid":7125,"Ġshapes":7126,"Ġsup":7127,"Ġà¦²à¦ľ":7128,"Ġhers":7129,"Ġarrest":7130,"Ġprime":7131,"Ġblast":7132,"iege":7133,"Ġorn":7134,"Ġspl":7135,"Ġadmit":7136,"Ġchildish":7137,"Ġconsort":7138,"Ġchallenge":7139,"Ġcheap":7140,"Ġcharm":7141,"Ġwolf":7142,"duce":7143,"Ġstrive":7144,"Ġactions":7145,"Ġpraises":7146,"Ġunfold":7147,"Ġhungry":7148,"Ġsenses":7149,"Ġjewel":7150,"ĠFortune":7151,"core":7152,"fellow":7153,"hrew":7154,"lves":7155,"nicious":7156,"pardon":7157,"sire":7158,"uish":7159,"vive":7160,"vied":7161,"Ġeter":7162,"Ġtro":7163,"Ġtren":7164,"Ġsings":7165,"Ġsought":7166,"oubt":7167,"Ġmour":7168,"Ġmethought":7169,"Ġwore":7170,"Ġward":7171,"Ġwaves":7172,"Ġbag":7173,"Ġborrow":7174,"Ġbait":7175,"erity":7176,"Ġfret":7177,"Ġfreed":7178,"Ġcait":7179,"Ġnest":7180,"Ġnumb":7181,"Ġnupt":7182,"Ġlur":7183,"Ġleng":7184,"Ġlower":7185,"Ġlying":7186,"Ġpear":7187,"Ġpace":7188,"Ġputting":7189,"Ġthin":7190,"Ġthirst":7191,"Ġhig":7192,"Ġhind":7193,"Ġhire":7194,"Ġheap":7195,"Ġgid":7196,"ĠWoe":7197,"Ġbere":7198,"Ġhare":7199,"Ġhaught":7200,"ĠBARN":7201,"Ġnoted":7202,"ĠMethought":7203,"Ġstale":7204,"Ġstern":7205,"Ġstomach":7206,"rible":7207,"ĠLici":7208,"Ġdeaf":7209,"ĠGrace":7210,"ĠRUT":7211,"Ġlivery":7212,"Ġliking":7213,"rage":7214,"Ġconceive":7215,"ĠEly":7216,"ĠEsc":7217,"Ġdove":7218,"Ġdogs":7219,"Ġdozen":7220,"Ġwills":7221,"Ġsuits":7222,"ilence":7223,"Ġneat":7224,"Ġanointed":7225,"ĠVau":7226,"ĠVillain":7227,"Ġshallow":7228,"lied":7229,"Ġshook":7230,"Ġshines":7231,"Ġshrift":7232,"Ġgoods":7233,"Ġamiss":7234,"Ġsirs":7235,"Ġthereby":7236,"ARDINE":7237,"Ġswore":7238,"unate":7239,"Ġunm":7240,"Ġunse":7241,"Ġunfe":7242,"Ġà§¨à§¦à§§à§§":7243,"Ġworm":7244,"Ġgrain":7245,"Ġlikely":7246,"Ġsacri":7247,"Ġmadness":7248,"Ġplaces":7249,"orney":7250,"Ġtrunk":7251,"Ġupright":7252,"Ġsomewhat":7253,"Ġoffices":7254,"Ġdisease":7255,"harged":7256,"Ġlooked":7257,"Ġthinking":7258,"Ġtelling":7259,"Ġalms":7260,"Ġwhereon":7261,"agues":7262,"ĠWherefore":7263,"ĠWhereto":7264,"AMUS":7265,"Ġfearing":7266,"Ġbreed":7267,"Ġbread":7268,"ocate":7269,"Ġparted":7270,"Ġpernicious":7271,"Ġtroops":7272,"ĠAnother":7273,"Ġscatter":7274,"ontes":7275,"Ġmoves":7276,"ainty":7277,"Ġrapier":7278,"Ġflow":7279,"Ġflint":7280,"Ġflourish":7281,"angling":7282,"Ġgraced":7283,"Ġreputation":7284,"ercing":7285,"ĠProve":7286,"Ġtrif":7287,"Ġserp":7288,"Ġbestow":7289,"pense":7290,"Ġforthwith":7291,"twill":7292,"Ġlaws":7293,"Ġlightning":7294,"Ġroyalty":7295,"Ġhappily":7296,"Ġmisfort":7297,"ĠShore":7298,"ĠAlthough":7299,"Ġcourteous":7300,"Ġcounsell":7301,"Ġboast":7302,"Ġcareful":7303,"Ġwanting":7304,"Ġbreathing":7305,"Ġadvised":7306,"ĠDido":7307,"Ġgrew":7308,"Ġyields":7309,"Ġcarried":7310,"Ġmonarch":7311,"Ġspoil":7312,"Ġsooner":7313,"Ġmetal":7314,"IDAMUS":7315,"Ġsadness":7316,"ĠCambio":7317,"ĠHadst":7318,"Ġages":7319,"Ġwooing":7320,"Ġexecute":7321,"Ġnobility":7322,"Ġcram":7323,"Ġsuitors":7324,"Ġburns":7325,"Ġburnt":7326,"Ġburning":7327,"Ġcoronation":7328,"Ġdiscourse":7329,"Ġliberal":7330,"Ġsuccession":7331,"Ġviolence":7332,"Ġblessing":7333,"Ġbleeding":7334,"Ġcaps":7335,"Ġsenseless":7336,"Ġbitterly":7337,"umbling":7338,"Ġlimit":7339,"Ġlimbs":7340,"Ġrebels":7341,"Ġpitiful":7342,"Ġmidnight":7343,"ĠWhiles":7344,"Ġurge":7345,"Ġtorch":7346,"Ġinjury":7347,"Ġchurchyard":7348,"Ġmeddle":7349,"Ġgrandsire":7350,"headed":7351,"Ġsaints":7352,"Ġguests":7353,"Ġimagine":7354,"Ġdismiss":7355,"Ġsubstance":7356,"ĠLeontes":7357,"Ġbefall":7358,"Ġinclined":7359,"Ġaffords":7360,"Ġcovert":7361,"Ġrank":7362,"ĠWiltshire":7363,"Ġnecessity":7364,"Ġjoints":7365,"Ġprevented":7366,"Ġtyrann":7367,"ribunes":7368,"Ġstatue":7369,"Ġtransport":7370,"Ġbands":7371,"Ġcensure":7372,"Ġconjure":7373,"Ġthreatening":7374,"ĠARCHIDAMUS":7375,"ĠElbow":7376,"ĠRemember":7377,"Ġimmortal":7378,"Ġtapster":7379,"Ġintelligence":7380,"Ġcompanion":7381,"Ġapprehend":7382,"ĠBerkeley":7383,"Ġclamour":7384,"Ġescape":7385,"Ġruthless":7386,"Ġdispersed":7387,"Ġafflict":7388,"ĠLaurence":7389,"Ġcherish":7390,"Ġrejoice":7391,"Ġspleen":7392,"Ġprettiest":7393,"Ġbirds":7394,"Ġvelvet":7395,"Ġzeal":7396,"Ġlikeness":7397,"Ġproclamation":7398,"Ġwarriors":7399,"Ġcommonwealth":7400,"Ġproportion":7401,"Ġsepulchre":7402,"Ġpeevish":7403,"ĠSurrey":7404,"EPH":7405,"Ġfardel":7406,"Ġcaitiff":7407,"Ġnuptial":7408,"Ġgiddy":7409,"ĠBARNARDINE":7410,"ĠLicio":7411,"ĠRUTLAND":7412,"ĠEscalus":7413,"ĠVaughan":7414,"Ġsacrif":7415,"Ġà¦Ĩà¦¶à¦Ļ":7416,"erest":7417,"Ġà¦Ĩà¦ĩà¦¯":7418,"à¦īà¦¯":7419,"à¦ļà¦®":7420,"à¦ħà¦°":7421,"à¦°à¦Ĺà¦¤":7422,"à¦ªà¦·":7423,"Ġà¦ķà¦°à¦£":7424,"Ġà¦¸à¦®à¦¬":7425,"Ġà¦¨à¦°":7426,"à¦ĩà¦Ľ":7427,"ĠSus":7428,"Ġà§©à§Ń":7429,"Ġà¦Ĩà¦ļà¦°à¦£":7430,"à¦¨à¦ľ":7431,"acy":7432,"://":7433,"bad":7434,"Ġà¦Ĩà¦¬à¦²":7435,"à§¨à§¦à§§à§¨":7436,"ĠSy":7437,"Ġà¦¶à¦ª":7438,"Ġà¦īà¦ľ":7439,"2018":7440,"à¦®à¦Ł":7441,"Ġpm":7442,"Ġà¦ĵà¦·":7443,"Ġà§¦à§§à§¯":7444,"Ġà¦Ńà¦Ł":7445,"Ġgrou":7446,"Ġà§§à§ªà§ªà§¦":7447,"Ġà¦Ĩà¦¹à¦¬":7448,"Ġà¦¬à¦ĩà¦¯":7449,"à¦Ĺà¦Ľ":7450,"Ġà¦ıà¦ľ":7451,"Ġà§§à§¯à§®":7452,"Ġà¦·à¦¡":7453,"à¦Ľà¦¦":7454,"à¦¬à¦¤à¦¨":7455,"à§ªà§¯":7456,"Ġà§©à§®":7457,"Ġdom":7458,"Ġpor":7459,"Ġà¦ļà¦®à¦ķ":7460,"Ġà¦¦à¦®à¦¨":7461,"à¦¤à¦«":7462,"Ġà¦°à¦«":7463,"Ġ2016":7464,"Ġpant":7465,"à¥¤à¥¤":7466,"ĠSI":7467,"ĠâĨĴ":7468,"à§¨à§§à§§":7469,"Ġà¦Ĩà¦¨à¦¤":7470,"Ġwet":7471,"à¦®à¦ĺ":7472,"à¦ªà¦ª":7473,"ĠGets":7474,"Ġà¦ķà¦ĸà¦¨à¦ĵ":7475,"Ġà¦ľà¦¹":7476,"à§ĩà¦ĥ":7477,"Ġà¦ĵà¦Ń":7478,"des":7479,"à¦¼âĢĻ":7480,"à¦£à¦®":7481,"ĠLive":7482,"Ġà§ªà§«":7483,"Ġà¦ıà¦°à¦ķà¦®":7484,"à§¯à§¨à§«":7485,"à¦¤à¦¨à¦¤":7486,"unday":7487,"br":7488,"ĠAdd":7489,"ĠFull":7490,"Ġà§®à§©":7491,"ussy":7492,"à¦Ĩà¦®à¦°":7493,"shad":7494,"18":7495,"Ġcomment":7496,"Ġ02":7497,"07":7498,"OT":7499,"opy":7500,"à¦ķà¦Ĺ":7501,"à§§à§«à§§à§ª":7502,"Ġgap":7503,"Ġà¦īà¦ªà¦¨":7504,"à§ªà§¬":7505,"à¦¨à¦¸à¦¹":7506,"à§ªà§®à§§à§«":7507,"hinbangla":7508,"nesday":7509,"à¦°à¦·":7510,"upid":7511,"Ġà§®à§®à§¦à§§à§Ńà§§à§§":7512,"Ġà§®à§®à§¦à§§à§Ńà§§à§«à§§à§ª":7513,"à§¯à§¨à§«à§¨à§§à§§":7514,"shadhinbangla":7515,"Ġà§®à§®à§¦à§§à§Ńà§§à§«à§§à§ªà§ªà§®à§§à§«":7516,"Ġsau":7517,"Ġà¦ķà¦¬à¦°":7518,"**":7519,"Ġà¦ħà¦¥":7520,"Ġà¦ħà¦¬à¦¦":7521,"psex":7522,"à¦²à¦®à¦¨":7523,"à¦®à¦£à¦¬":7524,"ĠWednesday":7525,"cing":7526,"Ġà¦ıà¦¸à¦®à¦¯":7527,"Ġà¦Īà¦®":7528,"à¦¹à¦ķà¦°":7529,"Ġà¦ĵà¦ª":7530,"Ġà¦²à¦®":7531,"ache":7532,"look":7533,"Ġsn":7534,"Ġà¦¶à¦°à¦£":7535,"à¦¾'":7536,"Ġtied":7537,"ĠâĢĺâĢĺ":7538,"Ġà¦ľà¦Ł":7539,"à¦¯à¦Łà¦¨":7540,"Ġnice":7541,"perience":7542,"Ġà¦¹à¦ĩà¦¬":7543,"à§©à§§":7544,"Ġ04":7545,"Ġstolen":7546,"dal":7547,"à¦ķà¦¡":7548,"Ġà¦¬à¦ľ":7549,"Ġà¦¦à¦ª":7550,"ĠEm":7551,"à¦¼...":7552,"Ġà¦®à§İà¦¸":7553,"Ġcop":7554,"fuck":7555,"onus":7556,"ĠWomen":7557,"Ġaud":7558,"Ġcent":7559,"ĠName":7560,"ank":7561,"Ġgroupsex":7562,"15":7563,"à¦¬à¦ľà¦¨":7564,"à¦®à¦®":7565,"ater":7566,"order":7567,"Ġsed":7568,"Ġlock":7569,"chers":7570,"ĠAdv":7571,"Ġpict":7572,"Ġà¦¶à¦ªà¦¥":7573,"Ġload":7574,"lip":7575,"Ġsmother":7576,"lace":7577,"hen":7578,"ĠDian":7579,"Ġparties":7580,"à¦¬à¦²à¦®":7581,"Ġdildo":7582,"à¦ĸà¦¬à¦°":7583,"aged":7584,"13":7585,"lor":7586,"à¦īà¦®":7587,"zed":7588,"Ġfingers":7589,"cket":7590,"à¦°à¦¹à¦¨":7591,"AG":7592,"à¦¬à¦ļ":7593,"Ġcouple":7594,"14":7595,"itch":7596,"arm":7597,"ĠTen":7598,"uns":7599,"à¦·à¦£à¦ķ":7600,"Ġà¦Ĩà¦ĩà¦¨à¦®à¦¨":7601,"utch":7602,"edic":7603,"ĠSC":7604,"ĠBag":7605,"ĠCapt":7606,"riel":7607,"Ġspread":7608,"Ġtrim":7609,"angers":7610,"Ġà§¨à§¦à§¦à§¯":7611,"cate":7612,"foot":7613,"sen":7614,"Ġà¦ķà¦¨à¦¸":7615,"à¦ľà¦¦":7616,"ĠSub":7617,"adv":7618,"Ġlikes":7619,"igned":7620,"Ġpurple":7621,"wd":7622,"Ġlovers":7623,"aker":7624,"Ġblond":7625,"ĠWithdraw":7626,"Ġà¦ķà¦°à¦ª":7627,"Ġweek":7628,"ĠPers":7629,"rog":7630,"Ġà¦ĩà¦Ń":7631,"à§Ńà§Ń":7632,"ishes":7633,"ĠMis":7634,"Ġleg":7635,"aled":7636,"bw":7637,"reet":7638,"Ġpick":7639,"ĠFit":7640,"Ġalso":7641,"join":7642,"Ġeaten":7643,"Ġshop":7644,"Ġice":7645,"Ġbent":7646,"Ġfin":7647,"pel":7648,"lio":7649,"Ġextreme":7650,"ĠCaptain":7651,"BAN":7652,"ded":7653,"oes":7654,"hak":7655,"athe":7656,"ayed":7657,"ĠSaw":7658,"Ġstream":7659,"tering":7660,"Ġspot":7661,"ancing":7662,"mbers":7663,"Ġbuzz":7664,"blood":7665,"ĠRaven":7666,"iban":7667,"that":7668,"Ġbol":7669,"Ġpaint":7670,"ĠTrust":7671,"Ġwears":7672,"Ġdem":7673,"ĠThings":7674,"ĠVirt":7675,"Ġrate":7676,"ĠMars":7677,"Ġpartner":7678,"Ġkisses":7679,"Ġbeats":7680,"Ġgoddess":7681,"bey":7682,"kind":7683,"wing":7684,"here":7685,"Ġwax":7686,"Ġbru":7687,"Ġcook":7688,"Ġnar":7689,"Ġphi":7690,"Ġpush":7691,"à¦Łà¦ª":7692,"Ġrear":7693,"Ġhist":7694,"Ġlick":7695,"Ġsoci":7696,"ĠEver":7697,"ruption":7698,"ulls":7699,"Ġlect":7700,"Ġraven":7701,"Ġbusy":7702,"Ġà¦Īà¦°":7703,"Ġlately":7704,"Ġskill":7705,"ĠAppear":7706,"mediate":7707,"MOR":7708,"cure":7709,"got":7710,"roof":7711,"Ġought":7712,"Ġtree":7713,"Ġsilly":7714,"Ġwave":7715,"Ġwipe":7716,"Ġfres":7717,"Ġfelt":7718,"Ġtops":7719,"Ġheight":7720,"ĠWEST":7721,"imony":7722,"ĠSly":7723,"ĠBurg":7724,"Ġmew":7725,"Ġnotice":7726,"ĠHon":7727,"ĠCAR":7728,"Ġeight":7729,"alter":7730,"rich":7731,"ĠFalse":7732,"ĠGE":7733,"hire":7734,"ĠElse":7735,"ardy":7736,"ardener":7737,"liver":7738,"asters":7739,"iveness":7740,"umed":7741,"Ġproved":7742,"Ġransom":7743,"Ġexample":7744,"Ġarray":7745,"Ġafraid":7746,"Ġinte":7747,"Ġrag":7748,"Ġkeys":7749,"Ġaccom":7750,"Ġended":7751,"Ġhelps":7752,"Ġtrain":7753,"Ġstrict":7754,"Ġyouthful":7755,"ĠBecomes":7756,"Ġdivor":7757,"Ġprompt":7758,"Ġsatisfaction":7759,"Ġterm":7760,"Ġprovide":7761,"Ġmiddle":7762,"ATER":7763,"grity":7764,"Ġrobb":7765,"ĠDisp":7766,"Ġgifts":7767,"Ġowes":7768,"Ġsavage":7769,"Ġfigure":7770,"guard":7771,"ĠVenice":7772,"Ġfantast":7773,"WATER":7774,"ZWATER":7775,"give":7776,"oble":7777,"vided":7778,"which":7779,"Ġtack":7780,"Ġtired":7781,"Ġtakest":7782,"Ġaged":7783,"Ġsides":7784,"Ġslight":7785,"oured":7786,"iners":7787,"Ġmould":7788,"Ġwaked":7789,"reant":7790,"à¦²à¦ĵà¦¯":7791,"Ġbay":7792,"Ġbalm":7793,"isement":7794,"Ġfray":7795,"Ġfrank":7796,"Ġcab":7797,"Ġdrew":7798,"Ġlance":7799,"Ġpent":7800,"Ġpill":7801,"Ġpalm":7802,"Ġpomp":7803,"Ġomit":7804,"ĠToward":7805,"ĠTribunes":7806,"Ġhurl":7807,"athed":7808,"Ġhera":7809,"Ġgn":7810,"Ġgains":7811,"Ġgoose":7812,"ĠWels":7813,"Ġbeef":7814,"Ġhail":7815,"aying":7816,"ĠBAG":7817,"Ġmembers":7818,"ĠHie":7819,"Ġrend":7820,"Ġreach":7821,"Ġrevel":7822,"ĠMuch":7823,"Ġissu":7824,"Ġstick":7825,"urgh":7826,"Ġaspect":7827,"Ġashamed":7828,"Ġdepose":7829,"Ġdearer":7830,"ĠFive":7831,"ĠFIT":7832,"ĠGaoler":7833,"ĠGardener":7834,"Ġsevere":7835,"Ġseated":7836,"Ġseized":7837,"Ġlivest":7838,"Ġlions":7839,"Ġsoil":7840,"racious":7841,"Ġconsequ":7842,"Ġconcer":7843,"verty":7844,"ĠYield":7845,"Ġsupre":7846,"iliar":7847,"Ġalleg":7848,"ĠThine":7849,"Ġvast":7850,"Ġherd":7851,"Ġanch":7852,"ĠVouchsafe":7853,"Ġourself":7854,"igent":7855,"igonus":7856,"emper":7857,"ORGE":7858,"Ġshru":7859,"Ġblot":7860,"Ġamain":7861,"Ġamends":7862,"Ġambit":7863,"Ġamorous":7864,"Ġretired":7865,"Ġgoss":7866,"Ġknowing":7867,"iece":7868,"Ġswears":7869,"Ġbrat":7870,"ickle":7871,"Ġunre":7872,"Ġà§¨à§¦à§§à§¦":7873,"Ġconstable":7874,"losop":7875,"Ġprodig":7876,"LIBAN":7877,"olved":7878,"olks":7879,"Ġsettled":7880,"Ġhoar":7881,"Ġlikewise":7882,"Ġsaved":7883,"Ġpoverty":7884,"Ġrouse":7885,"Ġspeaking":7886,"Ġoutrage":7887,"à§ªà§§":7888,"Ġriches":7889,"Ġmarvel":7890,"Ġmarvell":7891,"Ġdisin":7892,"ELAND":7893,"Ġabund":7894,"Ġbetide":7895,"ĠWhereof":7896,"Ġfiend":7897,"idered":7898,"Ġprefer":7899,"Ġsweetly":7900,"Ġplebe":7901,"Ġtroop":7902,"Ġlewd":7903,"ROOP":7904,"Ġpresume":7905,"Ġpreserve":7906,"Ġscandal":7907,"Ġscratch":7908,"Ġworldly":7909,"Ġnights":7910,"Ġdownright":7911,"Ġrack":7912,"Ġfever":7913,"Ġconsp":7914,"Ġmightst":7915,"Ġstays":7916,"Ġrestore":7917,"Ġrue":7918,"Ġentrance":7919,"ĠProclaim":7920,"Ġtricks":7921,"ĠDesp":7922,"ĠShalt":7923,"Ġcompound":7924,"Ġcoat":7925,"Ġcozen":7926,"Ġpurge":7927,"Ġsmil":7928,"Ġcouldst":7929,"Ġhopeful":7930,"Ġearthly":7931,"Ġbidding":7932,"ventry":7933,"Ġhomely":7934,"Ġtravell":7935,"Ġbrains":7936,"Ġcheque":7937,"Ġconfound":7938,"shall":7939,"Ġlanded":7940,"Ġmisc":7941,"Ġholding":7942,"Ġapace":7943,"Ġfalls":7944,"Ġobsequ":7945,"Ġbridal":7946,"Ġcourtier":7947,"Ġsteed":7948,"Ġattain":7949,"Ġattorney":7950,"Ġthankful":7951,"Ġsounds":7952,"Ġsounded":7953,"ranch":7954,"Ġmerchant":7955,"Ġrevenges":7956,"ĠComes":7957,"ĠComfort":7958,"Ġvillains":7959,"Ġmerri":7960,"Ġwinters":7961,"ĠNeither":7962,"ĠCanst":7963,"Ġlambs":7964,"Ġbeaten":7965,"Ġchosen":7966,"undy":7967,"Ġdevilish":7968,"Ġlearned":7969,"Ġentreaties":7970,"Ġboldly":7971,"Ġboldness":7972,"Ġinfer":7973,"Ġparce":7974,"Ġnobleness":7975,"Ġprofane":7976,"Ġreadiness":7977,"Ġcrook":7978,"Ġmusicians":7979,"ĠCALIBAN":7980,"Ġcloudy":7981,"ĠSwear":7982,"Ġsignal":7983,"Ġsignify":7984,"Ġprophes":7985,"Ġwisely":7986,"Ġcheerly":7987,"ĠELY":7988,"ĠAbove":7989,"voke":7990,"volio":7991,"Ġfavours":7992,"Ġesteem":7993,"ĠPrepare":7994,"Ġexped":7995,"Ġbowels":7996,"Ġtowns":7997,"Ġflattering":7998,"Ġsuddenly":7999,"Ġusurping":8000,"ĠBlunt":8001,"Ġapprobation":8002,"Ġcowardly":8003,"Ġlamentable":8004,"spurgh":8005,"Ġdarkness":8006,"Ġkinsmen":8007,"ĠAdieu":8008,"Ġdestruction":8009,"Ġprovoked":8010,"Ġinsol":8011,"Ġdeparture":8012,"Ġfondly":8013,"Ġgrieves":8014,"Ġgrieved":8015,"Ġgladly":8016,"ossess":8017,"Ġships":8018,"Ġmildness":8019,"Ġtreasons":8020,"Ġshoes":8021,"ĠSTEPH":8022,"Ġlists":8023,"Ġtroubled":8024,"Ġsentenced":8025,"ĠAntigonus":8026,"Ġgrandam":8027,"Ġstorms":8028,"Ġpetty":8029,"Ġtemples":8030,"Ġcondemned":8031,"ĠPerhaps":8032,"Ġrobes":8033,"Ġconquest":8034,"Ġslipp":8035,"Ġeldest":8036,"Ġbastards":8037,"Ġstops":8038,"Ġmutinous":8039,"ĠEXTON":8040,"Ġneighbours":8041,"Ġgreeting":8042,"Ġamongst":8043,"Ġministers":8044,"Ġthieves":8045,"Ġacquainted":8046,"Ġconclud":8047,"Ġconclude":8048,"arers":8049,"Ġghostly":8050,"Ġdesigns":8051,"Ġtempted":8052,"Ġdetest":8053,"Ġpiercing":8054,"ĠCoventry":8055,"Ġheavier":8056,"Ġpersuade":8057,"ilful":8058,"Ġeleven":8059,"Ġvanity":8060,"Ġwandering":8061,"Ġweapons":8062,"Ġfrail":8063,"Ġfrost":8064,"Ġdiscontented":8065,"ĠCaliban":8066,"Ġhazard":8067,"Ġinstantly":8068,"ĠBenvolio":8069,"ĠPatience":8070,"Ġrevolt":8071,"Ġfalcon":8072,"Ġfurnish":8073,"Ġparents":8074,"Ġrecompense":8075,"Ġcircumstance":8076,"ĠNature":8077,"ĠMinola":8078,"Ġerrand":8079,"LISLE":8080,"Ġinterchange":8081,"Ġcomplexion":8082,"Ġceremon":8083,"ĠCurtis":8084,"Ġreckon":8085,"Ġaccusation":8086,"Ġunkindness":8087,"Ġsubstitute":8088,"Ġpilgrimage":8089,"Ġreconcile":8090,"Ġbeams":8091,"Ġsufficient":8092,"Ġestimation":8093,"Ġblemish":8094,"Ġoccupation":8095,"ĠJesu":8096,"onstant":8097,"Ġfreedom":8098,"Ġmisfortune":8099,"Ġtyrannous":8100,"ĠSIR":8101,"ĠSCROOP":8102,"ĠBagot":8103,"ĠPersu":8104,"ĠRavenspurgh":8105,"Ġnarrow":8106,"Ġphilosop":8107,"MORELAND":8108,"ĠWESTMORELAND":8109,"ĠBurgundy":8110,"ĠCARLISLE":8111,"ĠGEORGE":8112,"Ġintegrity":8113,"ĠTowards":8114,"Ġherald":8115,"ĠWelsh":8116,"ĠBAGOT":8117,"ĠFITZWATER":8118,"Ġallegiance":8119,"Ġambitious":8120,"ĠSTEPHEN":8121,"Ġphilosophy":8122,"Ġà¦Ńà¦¦":8123,"Ġà¦ķà¦®à¦¨":8124,"à§«à§¯":8125,"tied":8126,"à¦ĩà¦Łà¦Ł":8127,"ĠâĢº":8128,"à§¬à§¯":8129,"Ġà¦ħà¦¬à¦¹":8130,"het":8131,"Ġà¦¤à¦¹à¦¬":8132,"Ġcoll":8133,"book":8134,"Ġà¦Ĩà¦¸à¦°":8135,"ĠArch":8136,"à¦¥à¦¬à¦Ľà¦°":8137,"Ġà§ªà§®":8138,"à¦¬à¦¡":8139,"back":8140,"Ġà¦īà¦ªà¦¯":8141,"à¦ĩà¦«à¦¸":8142,"Ġà¦¤à¦«à¦¸":8143,"à§«à§Ń":8144,"02":8145,"Ġà¦ıà¦¸à¦ıà¦¸à¦¸":8146,"à¦®à¦Ľ":8147,"ays":8148,"à¦°à¦¦à¦²":8149,"door":8150,"post":8151,"Ġslide":8152,"à¦¬à¦£":8153,"à§Ģ!":8154,"ĠOver":8155,"à§ĩ;":8156,"à¦Łà¦«à¦°":8157,"ĠAc":8158,"à§«à§®":8159,"Ġà§ªà§¨":8160,"Ġà¦¸à¦¨à¦¦":8161,"Ġà¦ıà¦®à¦¨à¦ķ":8162,"Ġfu":8163,"cock":8164,"Ġà¦Ĩà¦¹à¦¸":8165,"Ġ08":8166,"ĠJu":8167,"Ġà§«à§®":8168,"Ġà¦ħà¦¥à¦ļ":8169,"05":8170,"??":8171,"otidin":8172,"boy":8173,"......":8174,"à¦¦à¦¬":8175,"po":8176,"Ġà¦¶à¦¯":8177,"à¦¬à¦¸à¦®à¦¯":8178,"à¦ķà¦Ĩà¦ª":8179,"Ġà¦Ńà¦ķ":8180,"à¦¶à¦¦":8181,"Ġà¦¹à¦°":8182,"à¦Ĩà¦¬":8183,"08":8184,"app":8185,"Ġà¦ĵà¦¦":8186,"ella":8187,"yle":8188,"work":8189,"à¦¶à¦®":8190,"à¦°à¦£à¦¯":8191,"à§©à§ª":8192,"ĠPorn":8193,"anglades":8194,"Ġà¦¸à¦¬à¦¸à¦®à¦¯":8195,"Ġà¦¨à¦°à¦¸":8196,"ĠChe":8197,"ideos":8198,"à¦¬à¦Ľ":8199,"à¦£à¦¦":8200,"ĠRel":8201,"Ġà¦ķà¦¨à¦«":8202,"04":8203,"gl":8204,"Ġgirls":8205,"Ġà¦ĥ":8206,"ĠBangla":8207,"Ġà¦Ĺà¦ł":8208,"à¦¿'":8209,"à¦¾;":8210,"Ġlinger":8211,"à¦ıà¦®à¦ª":8212,"Ġà¦Ĩà¦ĩà¦ıà¦¸":8213,"06":8214,"ĠSunday":8215,"ics":8216,"Ġà¦ĩà¦¶à¦¤":8217,"à§¬à§¬":8218,"Ġ!!":8219,"eens":8220,"à¦·à¦ķà¦°":8221,"Ġà¦¸à¦¸":8222,"ctor":8223,"Ġà¦īà¦ªà¦¹":8224,"Ġà¦Ĩà¦ªà¦²":8225,"Ġà¦Ĺà¦£à¦¹à¦¤":8226,"09":8227,"gle":8228,"Ġà¦°à¦ĩà¦²":8229,"à¦ĵà¦¸":8230,"Ġà¦ħà¦¯":8231,"ĠGives":8232,"à¦¾.)":8233,"»¿":8234,"inal":8235,"Ġà§Ńà§§":8236,"Ġà¦ıà¦ľà¦¨":8237,"à¦®à¦¸à¦®":8238,"Ġà§©à§¯":8239,"à¦Łà¦¦":8240,"à¦Łà¦¸à¦®":8241,"pped":8242,"à¦¨à¦¸à¦®":8243,"ĠDep":8244,"Ġ21":8245,"Ġcrying":8246,"Ġmas":8247,"Ġthrees":8248,"Ġà¦Ĩà¦ĩà¦«":8249,"Ġann":8250,"Ġà¦¦à¦²à¦Ł":8251,"Ġà¦¸à¦¦":8252,"Ġà§©à§©":8253,"Ġfeat":8254,"ĠTra":8255,"Ġà¦īà¦°":8256,"Ġ22":8257,"board":8258,"ex":8259,"gory":8260,"line":8261,"Ġblue":8262,"rat":8263,"ĠBest":8264,"Ġà¦ĵà¦ķ":8265,"âĢĻ-":8266,"Ġà¦Ĩà¦ĸ":8267,"Ġà¦Ĩà¦ŀ":8268,"Ġà¦®à¦®à¦¤":8269,"ongs":8270,"Ġ01":8271,"à¦¶à¦«":8272,"ĠSun":8273,"Ġà¦Ĩà¦²à¦¹":8274,"Ġtaking":8275,"Ġà¦¸à¦ľ":8276,"ĠHar":8277,"à¦¿à¦Ĥ,":8278,"à§¬à§®":8279,"Ġ>>":8280,"uring":8281,"ĠApril":8282,",,":8283,"Ġash":8284,"à¦Ńà¦¬à¦¨":8285,"Ġà¦Ĩà¦®à¦¨":8286,"inu":8287,"ĠWest":8288,"ĠMo":8289,"à¦ıà¦ķà¦Ł":8290,"Ġmilf":8291,"bo":8292,"Ġà¦īà¦®":8293,"Ġà¦ľà¦¨à¦¤":8294,"à§¨à§¦à§§à§«":8295,"Ġsupport":8296,"ĠIsabella":8297,"gov":8298,"Ġà¦ľà¦¨à¦¸à¦Ń":8299,"à¦ľà¦Ľ":8300,"ĠThank":8301,"Ġamaz":8302,"Ġpov":8303,"ĠDiv":8304,"Ġshot":8305,"eves":8306,"viron":8307,"Ġà¦¬à¦¦à¦°":8308,"à¦¶à¦ª":8309,"ĠBel":8310,"à¦¥à¦ª":8311,"Ġà¦«à¦¯":8312,"à¦°à¦¬à¦°":8313,"à¦¬à¦Ľà¦°":8314,"Ġbald":8315,"à¦¡à¦Ń":8316,"alks":8317,"Ġsearch":8318,"à¦ĵà¦ļ":8319,"ĠAnswer":8320,"Ġbrand":8321,"à¦¦à¦°à¦¬":8322,"ĠDel":8323,"Ġà¦¡à¦¬à¦²":8324,"à¦¤à¦ķà¦°à¦£":8325,"made":8326,"à¦Ĺà¦¤à¦®":8327,"amy":8328,"ĠDest":8329,"à§«à§§":8330,"à¦¼à¦¿,":8331,"Ġgetting":8332,"Ġminutes":8333,"Ġcrush":8334,"prise":8335,"Ġtutor":8336,"angladesh":8337,"Ġbul":8338,"chol":8339,"raft":8340,"ĠKind":8341,"oses":8342,"à§§à§¨à§§à§«":8343,"Ġbaby":8344,"ĠContent":8345,"Ġsand":8346,"Ġgame":8347,"Ġug":8348,"ĠFall":8349,"à¦ıà¦¨à¦¡":8350,"icial":8351,"Ġbreasts":8352,"Ġclean":8353,"gic":8354,"rish":8355,"Ġfan":8356,"ĠBold":8357,"ĠCart":8358,"Ġ25":8359,"Ġmodel":8360,"ĠLead":8361,"What":8362,"bot":8363,"cor":8364,"water":8365,"à¦¨à¦¶à¦¨":8366,"inent":8367,"ĠAriel":8368,"Ġinch":8369,"ules":8370,"Ġpop":8371,"à¦¿à¥¤âĢĻ":8372,"Ġkey":8373,"Ġà¦ħà¦ªà¦¬":8374,"Ġsubs":8375,"Ġdestiny":8376,"protidin":8377,"Ġcro":8378,"ĠTun":8379,"ĠTalk":8380,"Ġgam":8381,"icles":8382,"Ġspider":8383,"aped":8384,"à§¬à§¦":8385,"ugg":8386,"Ġà§®à§¦":8387,"Ġcrim":8388,"à§§à§¬à§©":8389,"Ġpopular":8390,"lain":8391,"ĠTur":8392,"Ġsteward":8393,"chief":8394,"Ġmilk":8395,"bour":8396,"wer":8397,"Ġir":8398,"Ġsixt":8399,"à¦¤à¦Ł":8400,"erp":8401,"ening":8402,"ĠTeach":8403,"ĠAff":8404,"à¦¶à¦¯":8405,"à§Ńà§¯":8406,"à¦¨à¦¬à¦¤":8407,"Ġmountain":8408,"ĠScot":8409,"Ġnails":8410,"Ġtie":8411,"Ġcool":8412,"Ġdar":8413,"ĠTouch":8414,"atri":8415,"ĠBound":8416,"Ġeff":8417,"ĠRed":8418,"Ġvul":8419,"Ġà§ªà§ª":8420,"Ġconfession":8421,"ĠAlban":8422,"Ġlearning":8423,"there":8424,"standing":8425,"Ġdrinking":8426,"lected":8427,"Ġglasses":8428,"ĠBreak":8429,"ually":8430,"Ġmask":8431,"Ġfif":8432,"Ġdot":8433,"Ġnamed":8434,"à§ĭà¦Ĥ":8435,"ĠTruly":8436,"ĠMur":8437,"iders":8438,"ĠNed":8439,"Ġbutter":8440,"anders":8441,"orthern":8442,"à§«à§ª":8443,"Ġsumm":8444,"Ġserious":8445,"Ġchamp":8446,"ĠReady":8447,"Ġwonderful":8448,"ĠBritt":8449,"ĠAnton":8450,"ĠFlor":8451,"ĠScotland":8452,"bric":8453,"cest":8454,"gues":8455,"last":8456,"wear":8457,"Ġack":8458,"Ġwol":8459,"Ġcord":8460,"Ġdrift":8461,"Ġyester":8462,"ĠTroy":8463,"Ġheel":8464,"Ġà¦ıà¦®à¦¬":8465,"Ġrein":8466,"Ġstiff":8467,"ĠLend":8468,"ĠLies":8469,"asant":8470,"ĠPem":8471,"ĠFell":8472,"Ġcommit":8473,"Ġbliss":8474,"Ġtheme":8475,"Ġbranch":8476,"unger":8477,"Ġplan":8478,"aved":8479,"Ġscore":8480,"Ġrum":8481,"Ġruns":8482,"Ġgrim":8483,"Ġcoast":8484,"Ġdoubl":8485,"Ġtalking":8486,"avour":8487,"mph":8488,"Ġwindow":8489,"Ġchanging":8490,"Ġclock":8491,"Ġappears":8492,"Ġtemple":8493,"ĠHapp":8494,"Ġdisturb":8495,"Ġcorruption":8496,"Ġsingular":8497,"Ġacts":8498,"Ġbowl":8499,"Ġsecrets":8500,"Ġdukes":8501,"Ġfront":8502,"Ġmedic":8503,"Ġbending":8504,"Ġloyalty":8505,"Ġpinch":8506,"Ġwaits":8507,"Ġsongbad":8508,"Ġventure":8509,"Ġadvanced":8510,"ĠAttend":8511,"Ġhistory":8512,"ĠAntonio":8513,"BISHOP":8514,"Hic":8515,"Zounds":8516,"done":8517,"horse":8518,"kest":8519,"lance":8520,"liness":8521,"my":8522,"rament":8523,"trees":8524,"uing":8525,"Ġtrow":8526,"Ġtorn":8527,"Ġtardy":8528,"Ġape":8529,"Ġafe":8530,"Ġsow":8531,"à¦¯à¦Ł":8532,"inies":8533,"inces":8534,"Ġmouse":8535,"Ġmates":8536,"Ġmurde":8537,"hage":8538,"Ġbail":8539,"Ġbows":8540,"Ġbounty":8541,"Ġfrant":8542,"Ġfount":8543,"Ġfift":8544,"Ġfolks":8545,"Ġcush":8546,"Ġcrows":8547,"Ġcords":8548,"Ġdine":8549,"Ġdug":8550,"Ġdried":8551,"Ġdash":8552,"Ġdined":8553,"Ġdumb":8554,"Ġdiest":8555,"Ġdancing":8556,"enches":8557,"Ġnigh":8558,"Ġnimble":8559,"Ġnorthern":8560,"Ġlace":8561,"Ġlute":8562,"Ġyare":8563,"Ġpow":8564,"Ġpest":8565,"Ġpup":8566,"arried":8567,"Ġthw":8568,"Ġthrown":8569,"ĠTew":8570,"Ġhill":8571,"Ġtoads":8572,"à¦ªà¦Ĺ":8573,"seth":8574,"Ġheinous":8575,"Ġgust":8576,"Ġgather":8577,"Ġgaunt":8578,"ĠWert":8579,"ĠWalter":8580,"Ġinward":8581,"Ġinvent":8582,"Ġhag":8583,"Ġhaunt":8584,"iments":8585,"ĠBishop":8586,"Ġmeed":8587,"Ġmeal":8588,"ĠCourage":8589,"ĠCupid":8590,"Ġresemb":8591,"Ġrevive":8592,"Ġstink":8593,"Ġstag":8594,"Ġstark":8595,"adventure":8596,"Ġforso":8597,"Ġevent":8598,"rician":8599,"Ġasp":8600,"Ġashes":8601,"Ġdeer":8602,"amity":8603,"Ġkites":8604,"ĠFoul":8605,"ĠFetch":8606,"roach":8607,"Ġlief":8608,"peach":8609,"peian":8610,"ĠNept":8611,"Ġshade":8612,"Ġconc":8613,"Ġdole":8614,"Ġnod":8615,"Ġnoon":8616,"ĠThrow":8617,"Ġvass":8618,"Ġvial":8619,"Ġvouch":8620,"Ġvarlet":8621,"Ġancest":8622,"ĠKent":8623,"Ġlodge":8624,"Ġloathed":8625,"Ġfaction":8626,"emption":8627,"lihood":8628,"ousins":8629,"Ġwhatsoever":8630,"Ġshown":8631,"Ġarise":8632,"Ġprat":8633,"Ġprate":8634,"Ġprating":8635,"ivant":8636,"Ġmanhood":8637,"Ġblown":8638,"Ġblaze":8639,"Ġblushing":8640,"ively":8641,"earer":8642,"Ġthereto":8643,"Ġswoon":8644,"Ġherein":8645,"Ġorator":8646,"uned":8647,"Ġunpro":8648,"Ġunlike":8649,"Ġunruly":8650,"urer":8651,"Ġworser":8652,"Ġworms":8653,"Ġimpeach":8654,"ĠJup":8655,"Ġdefy":8656,"Ġdefor":8657,"Ġmustard":8658,"Ġspark":8659,"Ġspurs":8660,"Ġgraces":8661,"Ġseeks":8662,"Ġshoulders":8663,"Ġlikelihood":8664,"Ġsap":8665,"Ġsack":8666,"Ġplaint":8667,"Ġenforced":8668,"Ġenrich":8669,"Ġranc":8670,"Ġrush":8671,"Ġroof":8672,"Ġrushes":8673,"Ġrig":8674,"Ġmarshal":8675,"Ġoffences":8676,"Ġdiso":8677,"Ġdissemb":8678,"Ġcler":8679,"Ġbrotherhood":8680,"Ġexceed":8681,"Ġexcept":8682,"Ġfox":8683,"Ġroses":8684,"Ġroaring":8685,"Ġalar":8686,"Ġaloud":8687,"Ġcommends":8688,"ulting":8689,"Ġà¦¸à¦°à¦ŀ":8690,"Ġintents":8691,"Ġleap":8692,"Ġleaving":8693,"Ġsweetest":8694,"Ġperd":8695,"Ġperfection":8696,"Ġwring":8697,"Ġlevel":8698,"awful":8699,"Ġotherwise":8700,"Ġmeaner":8701,"Ġmoe":8702,"Ġmoving":8703,"Ġmoiety":8704,"Ġnighting":8705,"Ġdownfall":8706,"Ġrace":8707,"Ġwhist":8708,"Ġmothers":8709,"Ġeverlast":8710,"Ġpeer":8711,"Ġfriendship":8712,"Ġveil":8713,"Ġconsidered":8714,"ksbury":8715,"Ġrests":8716,"Ġharl":8717,"Ġharvest":8718,"Ġharbour":8719,"Ġgrass":8720,"ĠProsper":8721,"Ġbestri":8722,"cheth":8723,"Ġaccomp":8724,"Ġhenceforth":8725,"Ġfaced":8726,"Ġcompare":8727,"Ġendured":8728,"Ġpursue":8729,"ĠThyself":8730,"Ġdearth":8731,"twould":8732,"isterous":8733,"Ġconfidence":8734,"Ġconfeder":8735,"Ġcharges":8736,"Ġà§¯à§©à§«":8737,"Ġlights":8738,"Ġbeside":8739,"Ġroyalties":8740,"Ġfully":8741,"Ġafterward":8742,"Ġwronged":8743,"Ġlasting":8744,"Ġapart":8745,"Ġthousands":8746,"Ġtrees":8747,"Ġpatron":8748,"Ġfallen":8749,"Ġfalling":8750,"Ġobsc":8751,"Ġstead":8752,"Ġsteep":8753,"Ġstrife":8754,"Ġhumility":8755,"Ġboisterous":8756,"Ġdelicate":8757,"Ġbelieved":8758,"Ġdoubtful":8759,"Ġrevenue":8760,"Ġhangman":8761,"Ġcommands":8762,"ĠCommand":8763,"Ġadvocate":8764,"Ġproudest":8765,"Ġchances":8766,"Ġbreaks":8767,"Ġcloak":8768,"Ġclosed":8769,"Ġyielding":8770,"Ġcrab":8771,"Ġcarries":8772,"Ġsitting":8773,"Ġrequire":8774,"Ġpersons":8775,"Ġlenity":8776,"Ġtenderness":8777,"Ġsadly":8778,"Ġreported":8779,"Ġchose":8780,"ĠMontagues":8781,"Ġburden":8782,"Ġgrowth":8783,"Ġasking":8784,"Ġwatery":8785,"Ġsilk":8786,"Ġbattles":8787,"Ġdevils":8788,"Ġentreaty":8789,"Ġmurders":8790,"Ġrevengeful":8791,"Ġquarter":8792,"Ġdram":8793,"Ġspeedy":8794,"Ġdistress":8795,"Ġdespised":8796,"Ġforehead":8797,"Ġbosoms":8798,"Ġguiltless":8799,"Ġattended":8800,"Ġmurderous":8801,"ĠVolscians":8802,"ĠVolscian":8803,"Ġharmony":8804,"Ġmusician":8805,"Twixt":8806,"Ġconfessor":8807,"Ġdischarge":8808,"Ġlads":8809,"Ġleaden":8810,"Ġbeggars":8811,"Ġsuffering":8812,"Ġsufferance":8813,"Ġevils":8814,"Ġwedded":8815,"Ġrecreant":8816,"Ġembass":8817,"Ġgroom":8818,"Ġtroubl":8819,"Ġfeasts":8820,"Ġundo":8821,"Ġredemption":8822,"Ġknocks":8823,"Ġsafely":8824,"Ġsafeguard":8825,"ĠStands":8826,"Ġoppression":8827,"Ġapproved":8828,"Ġignoble":8829,"Ġlamentation":8830,"Ġvisitation":8831,"Ġpitied":8832,"Ġsmallest":8833,"Ġprovided":8834,"Ġmidst":8835,"Ġmidwife":8836,"Ġinsinu":8837,"Ġunworthy":8838,"Ġunwilling":8839,"Ġdamnable":8840,"ĠTwice":8841,"Ġeasily":8842,"Ġproceedings":8843,"Ġinnocence":8844,"Ġframed":8845,"Ġinjustice":8846,"Ġmildly":8847,"Ġdisgraced":8848,"Ġfamiliar":8849,"ĠMistake":8850,"Ġreigns":8851,"Ġutmost":8852,"Ġtempor":8853,"Ġprosperity":8854,"Ġslily":8855,"Ġsacrament":8856,"Ġlowly":8857,"Ġslanderous":8858,"ĠCapulets":8859,"Ġplants":8860,"govern":8861,"ĠABRA":8862,"Ġimagination":8863,"Ġextremes":8864,"Ġconclusion":8865,"Ġprophecy":8866,"Ġunlook":8867,"Ġunluck":8868,"shearing":8869,"Ġeager":8870,"Ġavoided":8871,"Ġloathsome":8872,"Ġstocks":8873,"Ġchiefest":8874,"Ġsensible":8875,"Ġcrept":8876,"Ġstatutes":8877,"Ġaims":8878,"Ġpilot":8879,"Ġinfected":8880,"Ġcauses":8881,"Ġangels":8882,"Ġcracking":8883,"Ġcalamity":8884,"Ġlodged":8885,"Ġlodging":8886,"Ġpursuit":8887,"Ġconqueror":8888,"Ġwhoreson":8889,"Ġsprings":8890,"Ġfleet":8891,"Ġfrozen":8892,"ĠARCHBISHOP":8893,"Ġmagist":8894,"Ġcompassion":8895,"Ġmaidenhead":8896,"ĠSuppose":8897,"Ġlunatic":8898,"Ġswelling":8899,"Ġabhorr":8900,"Ġadverse":8901,"Ġperjured":8902,"Ġwhispering":8903,"ĠTarpeian":8904,"ĠConfess":8905,"Ġpuiss":8906,"Ġmultitude":8907,"ĠAntium":8908,"Ġclimate":8909,"Ġinquire":8910,"Ġmanifest":8911,"Ġdispleasure":8912,"Ġwrinkled":8913,"Ġcorrection":8914,"Ġmoment":8915,"Ġsuperf":8916,"ĠLieutenant":8917,"Ġmoody":8918,"Ġtaunts":8919,"Ġpedlar":8920,"ĠSometime":8921,"Ġbranches":8922,"Ġincensed":8923,"Ġflatterers":8924,"Ġtiger":8925,"Ġornaments":8926,"Ġeternal":8927,"Ġnumbers":8928,"Ġpearl":8929,"Ġhinder":8930,"Ġbereft":8931,"Ġunseen":8932,"Ġtrifles":8933,"Ġserpent":8934,"Ġcounsellor":8935,"ĠSycor":8936,"advised":8937,"ĠVirtue":8938,"Ġcabin":8939,"Ġconsequence":8940,"Ġconcerns":8941,"Ġmarvellous":8942,"Ġplebeians":8943,"Ġprophesy":8944,"Ġceremonious":8945,"Ġfulf":8946,"ĠCarthage":8947,"ĠTunis":8948,"Ġsixteen":8949,"ĠMurder":8950,"ĠBrittany":8951,"Ġacknow":8952,"ĠPembroke":8953,"Ġafeard":8954,"Ġmurdered":8955,"Ġfrantic":8956,"Ġfifteen":8957,"ĠTewksbury":8958,"Ġforsooth":8959,"ĠNeptune":8960,"ĠJupiter":8961,"ĠABRAHAM":8962,"ĠSycorax":8963,"owgirl":8964,"à¦ħà¦ª":8965,"25":8966,"à¦ĺà¦¦":8967,"Ġà¦ıà¦ķà¦¸à¦Ļ":8968,"Ġà¦¦à¦¶à¦ķ":8969,"à¦īà¦ĩà¦¯":8970,"ĠRo":8971,"à¦Ĺà¦Ĺ":8972,"à¦Ńà¦¨":8973,"uge":8974,"Ġà¦ľà¦Ĺà¦¨":8975,"à§Ńà§®":8976,"à¦²à¦ªà¦®":8977,"illed":8978,"à¦¬à¦Ń":8979,"à¦īà¦¶à¦¨":8980,"à¦ĩà¦²à¦Ł":8981,"à¦Ĩà¦ĩà¦¸":8982,"Ġà¦ıà¦ķà¦¦à¦®":8983,"protidinbd":8984,"Ġsongbadprotidinbd":8985,"\"à¥¤":8986,"à¦¼.":8987,"Ġà¦¬à¦¦":8988,"Ġà§ªà§©":8989,"à¦Ŀà¦¡":8990,"ĠâĢĿ":8991,"à¦°à¦£à¦¤":8992,"30":8993,"Ġbbw":8994,"Ġà§ªà§¬":8995,"Ġà¦ıà¦ĩà¦ļà¦¡":8996,"à¦ªà¦¬":8997,"Ġà¦ħà¦¸à¦®":8998,"Ġà¦«à¦ľà¦²":8999,"ĠYo":9000,"Ġà¦ıà¦ķà¦ķ":9001,"ĠJun":9002,"Ġcowgirl":9003,"Ġ23":9004,"Ġpussy":9005,"cember":9006,"rion":9007,"Ġhole":9008,"ĠâĨĳ":9009,"Ġlink":9010,"Ġà§©à§ª":9011,"à¦¬à¦Ł":9012,"Ġà¦ĩà¦¨à¦ķ":9013,"Ġà¦Ĺà¦£à¦ª":9014,"à¦¼âĢ¦":9015,"à¦ĵà¦¦":9016,"à¦ıà¦Ł":9017,"à§®à§®à§¦":9018,"Ġà¦°à¦®à¦¨":9019,"Ġà¦Łà¦ķ":9020,"Ġdoggy":9021,"03":9022,"à¦ªà¦¶":9023,"Ġblondes":9024,"Ġhd":9025,"Ġà¦Ĩà¦ªà¦¤":9026,"Ġà¦ļà¦¯":9027,"à¦¤à¦¯":9028,"à¦¶à¦ĸ":9029,"¿½":9030,"Ġjan":9031,"ĠJan":9032,"27":9033,"Ġav":9034,"à§ĭ!":9035,"Ġgets":9036,"ĠAss":9037,"à§ģ'":9038,"à§ĭâĢĻ":9039,"ĠYobt":9040,"ead":9041,"à¦¤à¦ļ":9042,"à¦¹à¦¯":9043,"Ġà¦²à¦Ļ":9044,"oulet":9045,"à¦ĵà¦¸à¦¹":9046,"Ġà¦ıà¦¸à¦ıà¦®":9047,"The":9048,"ivers":9049,"cribe":9050,"à¦¾(":9051,"à§ĩ'":9052,"Ġà¦ħà¦¬à¦¤à¦°à¦£":9053,"min":9054,"Ġtur":9055,"Ġà¦®à¦²":9056,"ĠDecember":9057,"à§§à§¦à§¦":9058,"ĠBan":9059,"ĠOpen":9060,"à¦īà¦ª":9061,"Â»":9062,"Ġbust":9063,"Ġà§ªà§Ń":9064,"Ġà¦ħà¦ªà¦¹à¦°à¦£":9065,"à¦£à¦«":9066,"55":9067,"por":9068,"Ġà§¬à§®":9069,"eptember":9070,"à¦¯à¦¬à¦¦":9071,"ĠTag":9072,"Ġà¦ħà¦¨à¦¨":9073,"ication":9074,"à§«à§©":9075,"Ġà¦Łà¦¸":9076,"Ġà¦ıà¦®à¦¨à¦Ł":9077,"Ġà§¯à§¦":9078,"à¦Īà¦¦":9079,"à¦¤à¦ĩ":9080,"Ġà¦¤à¦°à¦²":9081,"ĠâĢĻ":9082,"Ġmasturb":9083,"Xxx":9084,"à¦²à¦¨à¦ķ":9085,"Ġà§¦à§§à§Ńà§§à§¨":9086,"59":9087,"Ġà¦ķà¦¨à¦Ł":9088,"à¦Ĺà¦ł":9089,"à¦Ĳ":9090,"à¦®à¦Ļ":9091,"Ġà¦ľà¦Ĺà¦¤":9092,"inew":9093,"Ġà¦ıà¦ªà¦¸":9094,"Be":9095,"à¦¯à¦¹":9096,"lly":9097,"Ġgay":9098,"ik":9099,"tits":9100,"Ġà¦ķà¦«":9101,"Ġteen":9102,"Ġfre":9103,"à¦ĵà¦¬":9104,"Ġà§«à§«":9105,"Ġà§§à§¯à§Ńà§§":9106,"Ġà¦Ķ":9107,"à§į...":9108,"à§ªà§¨":9109,"Ġà§©à§¦à§¦":9110,"à¦¶à¦¸":9111,"23":9112,"à¦¯à§İ":9113,"Ġà¦Ĺà¦Ļ":9114,"âĢľ":9115,"Ġà§©à§©à§®":9116,"Ġà¦ıà¦ĩà¦ļà¦ıà¦¸à¦¸":9117,"Ġmuff":9118,"Ġà¦Ĩà¦ĩà¦Ł":9119,"ĠChat":9120,"hanews":9121,"Ġà¦ıà¦ķà¦°":9122,"à¦¼à¦¾à¦Ĥ":9123,"Ġà¦ĩà¦īà¦ıà¦¸":9124,"www":9125,"28":9126,"ato":9127,"Ġà¦ĩà¦Ļ":9128,"asy":9129,"ĠFree":9130,"à¦¾à¥¤âĢĻ":9131,"à¦®à¦£":9132,"Ġnon":9133,"ids":9134,"à§¬à§«":9135,"Ġ09":9136,"Ġfemale":9137,"Ġà¦Ĭ":9138,"à¦¹à¦¬à¦§":9139,"ĠSim":9140,"ĠDr":9141,"isher":9142,"Ġà¦ĩà¦¹":9143,"à¦«à¦Ł":9144,"36":9145,"ele":9146,"erd":9147,"ĠAg":9148,"ĠHoll":9149,"asing":9150,"press":9151,"Ġfet":9152,"style":9153,"à¦ĵà¦Ł":9154,"à¦¾à¦ģ,":9155,"Ġà§¬à§«":9156,"Ġà¦ħà¦¬à¦ķ":9157,"ĠDu":9158,"Ġà¦ħà¦ªà¦¸":9159,"ples":9160,"à¦¿à¦ģ":9161,"ete":9162,"Ġà§«à§¦à§¦":9163,"Ġà¦īà¦łà¦¤":9164,"2017":9165,"iqu":9166,"ph":9167,"Ġà¦®à¦ĩà¦¨":9168,"ĠBad":9169,"ĠCy":9170,"à¦¥à¦ªà¦¥":9171,"idd":9172,"ĠEr":9173,"love":9174,"ĠJer":9175,"Ġstrongly":9176,"Ġdoggystyle":9177,"Ġpuff":9178,"Ġà¦®à¦¶":9179,"ĠBack":9180,"ĠFe":9181,"à§¦à§§à§¯":9182,"Ġexperience":9183,"Ġâĸ":9184,"à¦¨à¦Ĺà¦ŀ":9185,"akant":9186,"eks":9187,"à¦ªà¦¯":9188,"ĠGrand":9189,"ĠIns":9190,"Ġbreaking":9191,"cast":9192,"à¦¨à¦ľà¦Ł":9193,"Ġtoy":9194,"Ġà¦¨à¦¥":9195,"Ġà¦īà§İà¦ķ":9196,"verse":9197,"ĠEM":9198,"abeth":9199,"ĠAny":9200,"ais":9201,"Ġà¦¸à§İ":9202,"ĠHigh":9203,"Ġstaff":9204,"Ġarch":9205,"Ġjade":9206,"ĠJust":9207,"acc":9208,"ming":9209,"à¦°à¦°à¦«":9210,"à¦²à¦ľà¦¬":9211,"adem":9212,"ĠGold":9213,"izabeth":9214,")-":9215,"miss":9216,"Ġà¦ıà¦ıà¦®":9217,"olit":9218,"Ġà¦ĺà¦¡":9219,"Ġà¦ķà¦®à¦ªà¦ķ":9220,"He":9221,"Ġà¦°à¦ª":9222,"asite":9223,"Ġà¦¸à¦®à¦Ŀ":9224,"ums":9225,"à¦°à¦§à¦°":9226,"Ġà§«à§Ń":9227,"Ġà¦ĩà¦¨à¦«":9228,"Ġ30":9229,"à¦·à¦ª":9230,"à¦ļà¦¶":9231,"key":9232,"iding":9233,"ĠDef":9234,"à¦Ĩà¦Ĺ":9235,"ĠAdvance":9236,"ĠHost":9237,"Ġà¦¸à¦¬à¦ľ":9238,"uckold":9239,"ĠProf":9240,"where":9241,"Ġlatest":9242,"cat":9243,"Ġà¦¸à¦°à¦¸":9244,"ĠCher":9245,"ado":9246,"ĠDirect":9247,"ĠEnd":9248,"ival":9249,"Ġexact":9250,"Ġà¦Ĩà¦ĩà¦¨à¦¶":9251,"à§§à§©à§§à§Ń":9252,"Ġugly":9253,"ĠIll":9254,"Ġder":9255,"Ġà¦ľà¦²à¦¬":9256,"ĠPA":9257,"ĠRen":9258,"Ġvi":9259,"hole":9260,"ressed":9261,"Ġobser":9262,"Ġ2015":9263,"Ġblessings":9264,"Ġdomin":9265,"Ġà§©à§©à§®à§¦":9266,"gers":9267,"Ġcard":9268,"Ġhttp":9269,"iel":9270,"Ġà§Ńà§«":9271,"Ġholid":9272,"Ġpicture":9273,"craft":9274,"isk":9275,"Ġnaught":9276,"à¦ªà¦ļ":9277,"ĠRun":9278,"ĠJud":9279,"ĠUr":9280,"ervation":9281,"avish":9282,"Ġphysic":9283,"Ġà§®à§©à§§à§¬à§©":9284,"Ġà§¯à§©à§«à§§à§©à§§à§Ń":9285,"Ġjanakant":9286,"Ġà§®à§©à§§à§¬à§©à§©à§«":9287,"Ġjanakanthanews":9288,"Ġton":9289,"Ġmum":9290,"à¦¶à¦ĩ":9291,"Ġhaw":9292,"Ġren":9293,"à¦ĸà¦¯":9294,"ĠPres":9295,"peci":9296,"thing":9297,"Ġshower":9298,"à¦Ŀà¦¬":9299,"Ġdevice":9300,"Ġthroats":9301,"Ġcreate":9302,"ĠWrite":9303,"bri":9304,"bble":9305,"grown":9306,"porn":9307,"side":9308,"upon":9309,"will":9310,"iner":9311,"hall":9312,"Ġcand":9313,"Ġcave":9314,"Ġdil":9315,"Ġdedic":9316,"Ġloose":9317,"Ġhy":9318,"ĠSin":9319,"estival":9320,"Ġsugg":9321,"Ġmale":9322,"ived":9323,"umps":9324,"Ġswim":9325,"covery":9326,"Ġstreet":9327,"Ġactor":9328,"Ġfills":9329,"Ġreceives":9330,"Ġrestraint":9331,"but":9332,"bles":9333,"iber":9334,"jud":9335,"pret":9336,"your":9337,"Ġfilth":9338,"eny":9339,"Ġoce":9340,"Ġgaz":9341,"etition":9342,"Ġbeads":9343,"ĠLam":9344,"asures":9345,"ĠPha":9346,"ĠPho":9347,"ĠFif":9348,"ĠRest":9349,"ĠEvery":9350,"athom":9351,"quet":9352,"Ġqueens":9353,"olve":9354,"à¦Ĩà¦ľ":9355,"Ġrode":9356,"Ġhighway":9357,"Ġbush":9358,"Ġappeared":9359,"Ġdenial":9360,"Ġprofession":9361,"Ġforest":9362,"ĠArm":9363,"Ġpays":9364,"ĠJoin":9365,"Ġchastity":9366,"estern":9367,"ĠSmile":9368,"gnant":9369,"dent":9370,"hur":9371,"hine":9372,"ipt":9373,"Ġtax":9374,"Ġschol":9375,"Ġmiles":9376,"Ġcuckold":9377,"Ġpounds":9378,"Ġhood":9379,"Ġà¦®à¦²à¦¦":9380,"Ġhall":9381,"Ġrecover":9382,"Ġdefect":9383,"ghts":9384,"ĠFill":9385,"ĠFly":9386,"ĠDor":9387,"Ġsued":9388,"Ġsung":9389,"Ġsugar":9390,"ateful":9391,"uments":9392,"Ġusing":9393,"ANI":9394,"ĠThoughts":9395,"Ġsweets":9396,"strong":9397,"aws":9398,"ailing":9399,"Ġchains":9400,"ancis":9401,"Ġhusbands":9402,"Ġkilled":9403,"Ġturned":9404,"Ġoverth":9405,"Ġfighting":9406,"ĠCommit":9407,"azon":9408,"Ġagreed":9409,"Ġdraws":9410,"Ġsigns":9411,"Ġpenny":9412,"Ġcreated":9413,"scape":9414,"Ġgrandfather":9415,"ĠFrancis":9416,"paration":9417,"Ġthorns":9418,"This":9419,"Ġmirror":9420,"Ġcumsh":9421,"Ġdragon":9422,"Ġlecture":9423,"poster":9424,"Ġbutterf":9425,"ĠPAGE":9426,"Ġtonight":9427,"bell":9428,"cus":9429,"good":9430,"gage":9431,"opher":9432,"ritor":9433,"Ġtink":9434,"Ġtreat":9435,"Ġsiege":9436,"ouches":9437,"Ġwestern":9438,"Ġbache":9439,"Ġlin":9440,"Ġpull":9441,"Ġhunger":9442,"Ġtoe":9443,"Ġtower":9444,"stone":9445,"Ġgape":9446,"ĠWales":9447,"ĠSuff":9448,"ĠHoly":9449,"ĠCold":9450,"Ġrent":9451,"adise":9452,"alty":9453,"Ġassemb":9454,"ĠLeft":9455,"ĠDare":9456,"Ġvig":9457,"Ġansw":9458,"ulous":9459,"ously":9460,"Ġshout":9461,"iven":9462,"cip":9463,"Ġwheel":9464,"Ġquake":9465,"Ġworshi":9466,"Ġimmediate":9467,"Ġimpression":9468,"Ġpoll":9469,"ĠUns":9470,"Ġridd":9471,"Ġrival":9472,"fulness":9473,"Ġrocks":9474,"Ġwarning":9475,"Ġslack":9476,"Ġmoan":9477,"Ġflame":9478,"Ġtried":9479,"ĠShame":9480,"Ġcoal":9481,"Ġapply":9482,"Ġconfusion":9483,"Ġsleepy":9484,"Ġcurious":9485,"Ġbox":9486,"Ġmatters":9487,"enerate":9488,"versy":9489,"ĠNeighb":9490,"Ġbeating":9491,"Ġpattern":9492,"Ġdeeply":9493,"Ġprofits":9494,"Ġcounsels":9495,"plish":9496,"Ġevents":9497,"Ġembra":9498,"Ġbleed":9499,"Ġlimits":9500,"ĠChristopher":9501,"ĠMercy":9502,"ĠTwenty":9503,"Ġshift":9504,"Ġgovernor":9505,"Ġunderstanding":9506,"Ġremedies":9507,"Ġdelights":9508,"ifferent":9509,"Ġrelig":9510,"Ġrewards":9511,"Ġdiadem":9512,"ĠElizabeth":9513,"Ġvolume":9514,"Ġcouncil":9515,"Ġsplit":9516,"Ġcentre":9517,"Ġdivorce":9518,"Ġwolves":9519,"Ġmedicine":9520,"Gain":9521,"REY":9522,"bearer":9523,"franch":9524,"kens":9525,"lter":9526,"phan":9527,"riment":9528,"Ġ@":9529,"Ġire":9530,"Ġtents":9531,"Ġtainted":9532,"Ġtamed":9533,"Ġtailor":9534,"Ġtumble":9535,"heard":9536,"Ġafore":9537,"Ġaug":9538,"Ġsith":9539,"Ġsinew":9540,"Ġmant":9541,"Ġwaken":9542,"Ġwilful":9543,"Ġwenches":9544,"habit":9545,"Ġbought":9546,"Ġbount":9547,"Ġbishop":9548,"à¦®à¦°à¦¤":9549,"erns":9550,"isome":9551,"Ġfits":9552,"Ġflock":9553,"Ġfestival":9554,"lling":9555,"Ġcrew":9556,"Ġcrest":9557,"Ġcousins":9558,"Ġdame":9559,"Ġdiet":9560,"Ġdrows":9561,"Ġdangers":9562,"Ġnourish":9563,"Ġlour":9564,"Ġlends":9565,"Ġpour":9566,"Ġpate":9567,"Ġpine":9568,"Ġpedant":9569,"Ġprun":9570,"arison":9571,"Ġthres":9572,"Ġobt":9573,"Ġtoken":9574,"strel":9575,"ĠAgain":9576,"seem":9577,"Ġheigh":9578,"Ġhedge":9579,"omenes":9580,"owick":9581,"Ġgait":9582,"Ġgaol":9583,"Ġgeld":9584,"Ġgaoler":9585,"ĠWorse":9586,"Ġbeet":9587,"Ġinve":9588,"Ġindu":9589,"Ġinherit":9590,"Ġhalt":9591,"ediment":9592,"ĠSUR":9593,"ĠBON":9594,"Ġmellow":9595,"Ġnotes":9596,"Ġnotorious":9597,"Ġnotwith":9598,"ĠHerc":9599,"ĠCarry":9600,"ĠCursed":9601,"Ġrender":9602,"ĠMasters":9603,"Ġstem":9604,"Ġstub":9605,"Ġstooping":9606,"Ġforn":9607,"Ġforces":9608,"entious":9609,"urvy":9610,"oofs":9611,"Ġweed":9612,"Ġweal":9613,"Ġelo":9614,"Ġebb":9615,"alo":9616,"alion":9617,"rief":9618,"rieve":9619,"herited":9620,"ĠObey":9621,"ĠLod":9622,"Ġdeceive":9623,"ĠGroom":9624,"Ġsear":9625,"Ġsequ":9626,"Ġliar":9627,"Ġliqu":9628,"Ġsolic":9629,"rails":9630,"raught":9631,"ĠDION":9632,"ĠDarest":9633,"ĠNATH":9634,"Ġconge":9635,"aining":9636,"terate":9637,"vering":9638,"thw":9639,"thrift":9640,"Ġdoct":9641,"Ġdoves":9642,"Ġdoors":9643,"Ġnoses":9644,"Ġsunder":9645,"Ġallies":9646,"Ġvine":9647,"Ġherbs":9648,"Ġanal":9649,"Ġantic":9650,"Ġloins":9651,"Ġlocks":9652,"izel":9653,"Ġknit":9654,"Ġarbit":9655,"antime":9656,"Ġblister":9657,"Ġblade":9658,"ĠWhate":9659,"Ġamend":9660,"Ġshelter":9661,"ending":9662,"Ġwasp":9663,"ĠForb":9664,"ĠForth":9665,"ĠForbear":9666,"Ġreturned":9667,"umes":9668,"umny":9669,"Ġjoc":9670,"ĠHector":9671,"Ġusurer":9672,"Ġhatch":9673,"Ġknowest":9674,"Ġcann":9675,"Ġcanker":9676,"Ġcanopy":9677,"areth":9678,"venient":9679,"Ġsayest":9680,"feits":9681,"echer":9682,"eches":9683,"Ġbrass":9684,"Ġorphan":9685,"allel":9686,"ptory":9687,"Ġquaint":9688,"Ġunple":9689,"Ġunsw":9690,"Ġunrest":9691,"Ġunborn":9692,"Ġprocure":9693,"ppet":9694,"Ġmusty":9695,"Ġsped":9696,"Ġspilt":9697,"Ġspices":9698,"Ġspiders":9699,"Ġgraft":9700,"Ġhop":9701,"Ġawry":9702,"Ġimpart":9703,"Ġimperial":9704,"Ġimpud":9705,"Ġimpediment":9706,"elting":9707,"Ġmadly":9708,"Ġmadest":9709,"Ġmadman":9710,"Ġplate":9711,"Ġresort":9712,"Ġrescue":9713,"Ġpox":9714,"Ġpocket":9715,"Ġens":9716,"Ġrhe":9717,"Ġrats":9718,"Ġrites":9719,"Ġrising":9720,"apable":9721,"Ġtruer":9722,"ĠInfer":9723,"Ġripen":9724,"Ġrivers":9725,"Ġmarr":9726,"Ġmarble":9727,"Ġmariners":9728,"Ġdissemble":9729,"Ġdisorder":9730,"à¦Ĩà¦¤":9731,"Ġclap":9732,"mities":9733,"Ġhears":9734,"aches":9735,"Ġexclaim":9736,"Ġabst":9737,"Ġabod":9738,"Ġfold":9739,"Ġfoil":9740,"Ġearl":9741,"Ġearldom":9742,"Ġlooker":9743,"Ġalto":9744,"Ġaloof":9745,"erving":9746,"ĠBelike":9747,"tised":9748,"Ġwarn":9749,"Ġcontri":9750,"Ġbreeding":9751,"Ġafoot":9752,"Ġintended":9753,"Ġadmitted":9754,"sses":9755,"Ġprec":9756,"Ġpreced":9757,"Ġprerog":9758,"Ġprays":9759,"Ġpledge":9760,"Ġperf":9761,"Ġpermit":9762,"Ġtrades":9763,"Ġnobleman":9764,"Ġwrangling":9765,"Ġlevy":9766,"Ġwayward":9767,"Ġheadstrong":9768,"Ġpreserved":9769,"Ġimportune":9770,"ĠSeize":9771,"Ġscour":9772,"Ġscru":9773,"Ġscape":9774,"Ġscarlet":9775,"Ġchival":9776,"Ġrages":9777,"Ġraging":9778,"Ġraiment":9779,"Ġfeeding":9780,"Ġarmed":9781,"Ġreplied":9782,"Ġreproof":9783,"Ġrepossess":9784,"Ġrepetition":9785,"Ġbegot":9786,"Ġperem":9787,"Ġlongest":9788,"Ġconsumed":9789,"Ġentire":9790,"Ġentrails":9791,"Ġlieutenant":9792,"Ġstrump":9793,"Ġchaf":9794,"picious":9795,"kenbury":9796,"Ġcomposition":9797,"Ġgulf":9798,"xton":9799,"Ġcoz":9800,"Ġcoals":9801,"Ġprivy":9802,"Ġsubdu":9803,"Ġcounted":9804,"Ġpeaceful":9805,"Ġelsewhere":9806,"Ġbackward":9807,"ethon":9808,"Ġneedle":9809,"Ġneedless":9810,"Ġladyship":9811,"nsion":9812,"Ġbraved":9813,"Ġbanquet":9814,"Ġminded":9815,"Ġappoint":9816,"Ġshowers":9817,"Ġchest":9818,"Ġconfer":9819,"Ġconfines":9820,"Ġwoeful":9821,"Ġcaused":9822,"Ġglories":9823,"Ġmistaking":9824,"Ġbodes":9825,"shapen":9826,"Ġlightly":9827,"Ġlightness":9828,"Ġnatures":9829,"Ġdevour":9830,"Ġunderne":9831,"Ġundergo":9832,"Ġpardons":9833,"Ġhappier":9834,"Ġfollowing":9835,"Ġfarm":9836,"Ġinterrupt":9837,"Ġobst":9838,"Ġbribe":9839,"à¦ħà¦Ń":9840,"Ġcomforts":9841,"Ġcomfortable":9842,"Ġsleeps":9843,"Ġassault":9844,"ĠHerald":9845,"Ġattent":9846,"Ġfalsely":9847,"Ġwelcomes":9848,"Ġboon":9849,"Ġdelivered":9850,"Ġfights":9851,"Ġvillany":9852,"holds":9853,"Ġprisoners":9854,"Ġmerciful":9855,"Ġdreamt":9856,"Ġcommanding":9857,"Ġchanges":9858,"Ġstrait":9859,"Ġsisterhood":9860,"Ġfouler":9861,"Ġmerriment":9862,"Ġappell":9863,"Ġsuppli":9864,"Ġsuppose":9865,"Ġrequired":9866,"Ġrequires":9867,"Ġtenderly":9868,"Ġfootman":9869,"Ġdeeper":9870,"Ġchop":9871,"Ġnursed":9872,"Ġdared":9873,"Ġcoldly":9874,"ĠGregory":9875,"Ġplucks":9876,"Ġairy":9877,"Ġsilken":9878,"Ġpastime":9879,"Ġinfring":9880,"Ġfasting":9881,"Ġfitted":9882,"Ġpossessed":9883,"Ġposterity":9884,"Ġnobler":9885,"Ġprofan":9886,"Ġdisting":9887,"Ġdistressed":9888,"Ġforet":9889,"Ġminstrel":9890,"Ġdivided":9891,"Ġdivines":9892,"Ġdivision":9893,"Ġresolute":9894,"Ġmocking":9895,"Ġmockery":9896,"Ġinconstant":9897,"thens":9898,"Ġwhipt":9899,"Ġharmless":9900,"Ġtribune":9901,"Ġtribute":9902,"Twill":9903,"ĠArise":9904,"Ġdiscords":9905,"Ġdischarged":9906,"Ġaffright":9907,"Ġstirs":9908,"Ġstirring":9909,"Ġskulls":9910,"Ġforgiveness":9911,"Ġbreathes":9912,"Ġregiment":9913,"ĠBeshrew":9914,"Ġcheerfully":9915,"Ġpoisonous":9916,"Ġdireful":9917,"Ġwisest":9918,"Ġembraced":9919,"Ġsurfeit":9920,"ĠAbhor":9921,"Ġclosely":9922,"Ġfollies":9923,"Ġsuccor":9924,"weigh":9925,"ĠApothecary":9926,"Ġmalign":9927,"blown":9928,"Ġbleeds":9929,"Ġcapital":9930,"Ġcaparison":9931,"Ġbroad":9932,"Ġchamberlain":9933,"Ġrebel":9934,"Ġrebuke":9935,"Ġcreatures":9936,"Ġwitnesses":9937,"Ġcowardice":9938,"Ġscorns":9939,"shining":9940,"Ġterrible":9941,"Ġterritor":9942,"Ġidly":9943,"Ġinsulting":9944,"Ġhideous":9945,"Ġbeastly":9946,"Ġfamish":9947,"Ġhurried":9948,"Ġsolely":9949,"Ġdrunkard":9950,"ĠMeasure":9951,"ĠMeantime":9952,"Ġsafer":9953,"Ġlustful":9954,"Ġthreats":9955,"ĠEnough":9956,"ĠVerily":9957,"Ġcaptive":9958,"Ġmounting":9959,"Ġmutiny":9960,"Ġcontrad":9961,"Ġdemands":9962,"Ġgreetings":9963,"Ġgentler":9964,"Ġtriumphs":9965,"Ġscarcely":9966,"ĠFlore":9967,"Ġfarthest":9968,"Ġdegrees":9969,"Ġchastisement":9970,"Ġfaintly":9971,"Ġdwells":9972,"Ġmiseries":9973,"Ġconditions":9974,"Ġschoolmaster":9975,"Ġbootless":9976,"Ġextremest":9977,"Ġfirmly":9978,"Ġbefal":9979,"Ġbefits":9980,"Ġinclination":9981,"Ġfruitful":9982,"ĠLovel":9983,"Ġindirect":9984,"Ġindifferent":9985,"Ġunlawful":9986,"Ġnecessary":9987,"Ġargos":9988,"Ġroundly":9989,"actors":9990,"Ġknightly":9991,"Ġknighthood":9992,"Ġdecay":9993,"Ġshrink":9994,"Ġfrighted":9995,"Ġtreachery":9996,"Ġassistance":9997,"Ġutterance":9998,"Ġstarve":9999,"Ġlouder":10000,"Ġambition":10001,"Ġjealousies":10002,"Ġrascals":10003,"Ġpersuasion":10004,"Ġphysician":10005,"Ġcalumny":10006,"Ġnegl":10007,"Ġweighty":10008,"Ġbeware":10009,"Ġpursued":10010,"Ġpenitence":10011,"Ġsolemnity":10012,"Ġpublicly":10013,"Ġadmir":10014,"ĠRepent":10015,"Ġbaseness":10016,"Ġbudge":10017,"Ġcombat":10018,"Ġwonders":10019,"Ġpronounced":10020,"Ġtrembles":10021,"ĠCalais":10022,"whel":10023,"Ġgreyh":10024,"Ġtestimony":10025,"Ġhazel":10026,"Ġmillions":10027,"Ġgloves":10028,"Ġmerely":10029,"Ġapprehension":10030,"Ġcholeric":10031,"ĠBrakenbury":10032,"ĠPatrician":10033,"Ġlungs":10034,"Ġwitchcraft":10035,"Ġingrate":10036,"Ġadvertised":10037,"Ġperjury":10038,"Ġbrawl":10039,"Ġbrawling":10040,"Ġcircumstances":10041,"Ġworthily":10042,"Ġdifference":10043,"ĠTarqu":10044,"Ġpuppet":10045,"ĠConsider":10046,"ĠAntiates":10047,"Ġhorror":10048,"Ġclimb":10049,"Ġwinged":10050,"ĠSixth":10051,"Ġforsake":10052,"Ġbeguile":10053,"Ġcorrect":10054,"Ġsyll":10055,"Ġtimeless":10056,"ĠAffection":10057,"ĠCleomenes":10058,"mongst":10059,"Ġdebase":10060,"Ġwidows":10061,"witted":10062,"Ġachieve":10063,"Ġachieved":10064,"Ġcouncils":10065,"Ġnapkin":10066,"Ġshriek":10067,"Ġimpatience":10068,"Ġimpatient":10069,"Ġscolding":10070,"Ġcurtain":10071,"ĠAmongst":10072,"Ġinjuries":10073,"Ġinjurious":10074,"Ġdisguised":10075,"ĠBetween":10076,"ĠBetwixt":10077,"ebus":10078,"Ġcontroversy":10079,"ĠKnock":10080,"Ġsunshine":10081,"ĠPursu":10082,"Ġbankrupt":10083,"Ġhomage":10084,"ĠPercy":10085,"ĠGreece":10086,"Ġconsorted":10087,"Ġmourning":10088,"Ġbaggage":10089,"Ġlengthen":10090,"Ġhigher":10091,"Ġhaughty":10092,"Ġunfeigned":10093,"Ġtransported":10094,"Ġsaucy":10095,"ĠEmilia":10096,"Ġsociety":10097,"ĠEvermore":10098,"Ġragged":10099,"ĠDispatch":10100,"Ġissued":10101,"Ġsupreme":10102,"Ġanchor":10103,"Ġconspir":10104,"Ġrestored":10105,"Ġsmiling":10106,"Ġmerrily":10107,"Ġinferior":10108,"Ġexpedition":10109,"Ġinsolence":10110,"Ġconcluded":10111,"Ġreckoning":10112,"ĠWelshmen":10113,"ĠOverdone":10114,"glass":10115,"ĠHarp":10116,"Ġashore":10117,"Ġamazement":10118,"Ġsands":10119,"Ġdarken":10120,"ĠTouching":10121,"Ġvulgar":10122,"ĠFlorizel":10123,"Ġcordial":10124,"Ġpestilence":10125,"Ġpupil":10126,"Ġvassal":10127,"Ġplaints":10128,"Ġrancour":10129,"Ġdisobed":10130,"Ġnightingale":10131,"Ġwhistle":10132,"Ġharlot":10133,"Ġtroublous":10134,"Ġpuissant":10135,"Ġacknowledge":10136,"iquity":10137,"ĠGrandam":10138,"ĠEMILIA":10139,"ĠRenown":10140,"ĠUrge":10141,"pecially":10142,"ĠPhaethon":10143,"ĠPhoebus":10144,"ĠFifth":10145,"Ġscholar":10146,"ĠDoricles":10147,"ANIEL":10148,"posterous":10149,"Ġbachelor":10150,"Gainst":10151,"Ġprunes":10152,"Ġobtain":10153,"ĠSURREY":10154,"ĠBONA":10155,"Ġnotwithstanding":10156,"ĠHercules":10157,"Ġeloqu":10158,"ĠLodowick":10159,"Ġsolicit":10160,"ĠNATHANIEL":10161,"Ġvineyard":10162,"Ġjocund":10163,"Ġaltogether":10164,"Ġprecedent":10165,"Ġprerogative":10166,"Ġperemptory":10167,"Ġstrumpet":10168,"Ġunderneath":10169,"Ġterritories":10170,"à¦¡à¦Łà¦ķà¦®":10171,"Ġà¦ħà¦¸à¦¹":10172,"âĢĿà¥¤":10173,"Ġà¦¨à¦ľ":10174,"à¦īà¦¤":10175,"Ġà¦¬à¦¸à¦¤":10176,"ĠDev":10177,"yah":10178,"à¦¹à¦¤à¦¦":10179,"Ġà§¨à§¦à§¦à§®":10180,"Ġsexy":10181,"Ġfemdom":10182,"ï¿½":10183,"ros":10184,"Ġà¦Īà¦ķ":10185,"Ġà¦Ĺà¦£à¦¸":10186,"Ġà¦ıà¦ĸà¦¨à¦ĩ":10187,"Ġbang":10188,"à¦²à¦¥":10189,"Ġinterest":10190,"Ġ27":10191,"22":10192,"mo":10193,"à¦ĩà¦ľà¦¨":10194,"Ġà¦ıà¦°à¦ĩ":10195,"Porno":10196,"Ġà¦ªà¦¨":10197,"à¦Ľà¦²":10198,"Ġà¦¬à¦¨à¦¬":10199,"ĠSunPorno":10200,"à¦Ĩà¦°à¦¸":10201,"ĠLat":10202,"Ġà§§à§ªà§©à§¯":10203,"à¦¦à¦«":10204,"à¦ļà¦¬":10205,"à¦¬à¦ķà¦ķ":10206,"45":10207,"à¦¬à¦Ļ":10208,"à¦§à¦Ł":10209,"ideo":10210,"lhet":10211,"Ġà¦īà¦ªà¦Ń":10212,"ĠCut":10213,"Ġà¦ıà¦ķà¦¥":10214,"à¦ħà¦¬":10215,"oking":10216,"Ġà¦Ĺà¦£à¦¤":10217,"oulette":10218,"Ġmasturbating":10219,"roulette":10220,"à¦¯à¦Ń":10221,"à¦¼)":10222,"itting":10223,"à¦ĸà¦ª":10224,"à¦°à¦¹à¦£à¦¯":10225,"Tube":10226,"à¦«à¦¨":10227,"à§®à§«":10228,"Ġà§¯à§¯":10229,"ĠTakes":10230,"Ġsmoking":10231,"Ġcele":10232,"Ġà¦¸à¦«à¦²à¦¤":10233,"Ġcumshots":10234,"ino":10235,"Ġ28":10236,"ĠDou":10237,"Ġà§ªà§§":10238,"ĠChatroulette":10239,"yahoo":10240,"İ¯":10241,"Ġles":10242,"Ġà¦¦à¦²à¦ķ":10243,"Ġà¦¡à¦ķ":10244,"!!!":10245,"à¦§à¦Ń":10246,"Ġà¦ĩà¦Ł":10247,"Ġà¦ĩà¦ª":10248,"Ġà¦īà¦łà¦¬":10249,"à¦°à¦¡":10250,"à¦²à¦ļ":10251,"email":10252,"ĠInf":10253,"ĠâĨĲ":10254,"ersha":10255,"à¦¦à¦°à¦¬à¦¨":10256,"ĠÂ·":10257,"Ġprotected":10258,"ĠArchives":10259,"Ġà¦Ĩà¦¤à¦Ļ":10260,"à¦¦à¦Ĺ":10261,"att":10262,"Ġà¦®à¦£":10263,"à¦£à¦°":10264,"Ġà¦ĩà¦ĵà¦°":10265,"ĠBea":10266,"Ġà¦§à¦¸":10267,"Ġà¦ªà¦°à¦ĵ":10268,"Ġà¦§à¦°à¦¤":10269,"à§¨à§¦à§§à§§":10270,"Ġà§¦à§§à§Ńà§§à§Ń":10271,"Ġï»¿":10272,"ĠHard":10273,"ĠâĢį":10274,"roid":10275,"à§§à§¯à§¯":10276,"Ġà¦Łà¦¯":10277,"à§İà¦ª":10278,"Ġà¦¨à¦Ĺà¦¦":10279,"Ġà¦¨à¦ĵà¦¯":10280,"rian":10281,"à¦Ńà¦Ł":10282,"à¦°à¦ļà¦²":10283,"Ġà¦Ĩà¦ķà¦¬à¦°":10284,"âĢİ":10285,"Ġà¦ľà¦¨à¦¬à¦²":10286,"à¦¦à¦¨à¦ķ":10287,"Ġà§¯à§§à§©":10288,"rick":10289,"Ġà¦²à¦¤":10290,"à¦ªà¦Łà¦ª":10291,"à¦¸à¦¹à¦ķ":10292,"Ġà¦ħà¦¬à¦¸à¦°":10293,"Com":10294,"bu":10295,"Ġà§¨à§¦à§§à§¯":10296,"à¦¼à¦¾:":10297,"Ġà¦ĩà¦ľ":10298,"Ġà¦ıà¦ķà¦¨":10299,"Ġà¦ħà¦¬à¦®":10300,"Ġà¦ĩà¦īà¦¸":10301,"44":10302,"ĠSeptember":10303,"Ġà¦ħà¦ªà¦¶à¦¨":10304,"à¦®à¦ĺà¦Ł":10305,"29":10306,"Ġte":10307,"à¦ĵà¦®":10308,"Ġà¦¸à¦®à¦®":10309,"à¦ħà¦¤":10310,"Ġà¦īà¦łà¦Ľ":10311,"26":10312,"33":10313,"ylhet":10314,"à¦¯à¦ĵ":10315,"Ġreserved":10316,"Ġà¦¬à¦°à¦ĸ":10317,"Ġà¦²à¦Ĺà¦ĩà¦¨":10318,"lam":10319,"ĠWor":10320,"Ġà¦ĵà¦²":10321,"Ġà¦®à¦¹à¦²":10322,"à¦ĩà¦ĵ":10323,"Ġrope":10324,"Ġà¦Ŀà¦°":10325,"Ġbondage":10326,"Ġà¦¦à¦¨":10327,"à¦īà¦ľà¦¬":10328,"ĠQuick":10329,"women":10330,"Ġà¦ķà¦¡":10331,"Ġà¦ıà¦¸à¦ıà¦®à¦ıà¦¸":10332,"58":10333,"à¦¾\"":10334,"à¦ļà¦¡":10335,"à¦ıà¦¸à¦ıà¦«":10336,"Ġcli":10337,"Ġà¦¶à¦Ļ":10338,"Ġà¦ĵà¦®à¦°":10339,"Ġà¦Ńà¦Ļ":10340,"à¦¯à¦¬à¦§":10341,"à¦ķà¦¥":10342,"Ġà¦¸à¦²":10343,"lex":10344,"Ġà¦ķà¦Ł":10345,"Ġà¦¨à¦ķ":10346,"à¦®à¦Ń":10347,"ĠPe":10348,"Ġ29":10349,"vies":10350,"Ġtoys":10351,"oln":10352,"Ġà¦ķà¦®à¦²":10353,"à¦ĩà¦Łà¦¸":10354,"à¦ªà¦ķà¦¥":10355,"Ġbd":10356,"Ġà§¦à§®à§¨à§§":10357,"ĠPlayer":10358,"/-":10359,"ago":10360,"Ġ***":10361,"Ġà§¨à§¦à§¦à§¦":10362,"à¦¬à¦¦à¦²":10363,"Ġà¦ļà¦¡":10364,"ĠEur":10365,"à¦īà¦ĩ":10366,"Ġà¦ħà¦¸à¦¤":10367,"à¦®à¦¬à¦Ļ":10368,"ĠAcqu":10369,"Ùİ":10370,"à§ĭ...":10371,"à¦¦à¦«à¦¤à¦°":10372,"à¦°à¦¥":10373,"Ġà¦ªà¦¤à¦¨":10374,"ĠOct":10375,"Ġà¦ªà¦°à¦ķ":10376,"à¦°à¦¹à¦°":10377,"retion":10378,"Ġà¦¬à¦¹à¦¨":10379,"Ġmature":10380,"It":10381,"off":10382,"Ġà¦Ĩà¦ľà¦¹":10383,"à§§à§¨à§¦à§«":10384,"Ġasked":10385,"Ġà¦¨à¦¬à¦¬à¦°":10386,"gia":10387,"mast":10388,"ob":10389,"à§ĩ),":10390,"à¦°à¦¦à¦¤":10391,"à¦¸à¦«à¦Ł":10392,"Ġà¦Ķà¦·":10393,"à¦¯à¦ľ":10394,"à§Ģ...":10395,"log":10396,"Ġà§ªà§¯":10397,"ĠXxx":10398,"21":10399,"Ġgear":10400,"Ġlesb":10401,"ceives":10402,"Ġà¦ıà¦ķà¦¸":10403,"Ġdiscretion":10404,"Ġà¦¬à¦Ł":10405,"ĠSad":10406,"Ġà¦ħà¦¬à¦²à¦®":10407,"Ġà¦Ĩà¦®à¦ľ":10408,"Ġà§¬à§¨":10409,"Ġà§¬à§¯":10410,"Ġà¦Ĩà¦ĩà¦¨à¦Ĺà¦¤":10411,"Ġencourage":10412,"ĠLatin":10413,"37":10414,"à¦¸à¦Ĺ":10415,"à¦ªà¦ļà¦°":10416,"Ġà¦Ĩà¦ĸà¦¤":10417,"ami":10418,"Ġà¦ĵà¦Ł":10419,"ĠDream":10420,"à¦ĺà¦£":10421,"ĠValent":10422,"Ġtea":10423,"Ġgang":10424,"57":10425,"bor":10426,"ille":10427,"ulation":10428,"abb":10429,"Ġ..":10430,"à¦¶à¦ķà¦¤":10431,"Ġà¦Ĩà¦¬à¦¶":10432,"Ġenjoys":10433,"Ġna":10434,"Ġweb":10435,"ension":10436,"Ġà§§à§¦à§¦à§¦":10437,"ĠGram":10438,"Ġfile":10439,"Ġgy":10440,"à¦¹à¦ķà¦¦":10441,"ĠFar":10442,"à¦īà¦¥":10443,"Ġà§«à§§":10444,"à¦Ĺà¦ľà¦ªà¦¤":10445,"dur":10446,"urity":10447,"Ġà¦īà¦¹":10448,"Ġà¦Ĩà¦¨à¦¸":10449,"ĠBlack":10450,"'!":10451,"erman":10452,"itche":10453,"Ġà¦ıà¦ķà¦¤":10454,"ĠTrans":10455,"à¦¤à¦¬à¦°":10456,"à¦¼;":10457,"Ġny":10458,"Ġà¦®à¦ķ":10459,"uto":10460,"ĠRoss":10461,"à¦°à¦¬à¦²":10462,"à§¬à§Ń":10463,"Ġinflu":10464,"Ġà¦ķà¦¨à¦Ń":10465,"mission":10466,"ÙĦ":10467,"à¦¯à¦Łà¦ķ":10468,"à¦²à¦ĸ":10469,"ese":10470,"à¦¼à§ĩâĢĻ":10471,"ĠBar":10472,"Ġkitche":10473,"âĢ¦.":10474,"à¦¿;":10475,"à¦ĩà¦¸à¦²":10476,"Ġel":10477,"Ġclub":10478,"Ġà§Ńà§¨":10479,"ĠComment":10480,"Ġhab":10481,"ĠSent":10482,"ĠOpp":10483,"Ġà¦ľà¦¨à¦ķà¦¨":10484,"Ġhoot":10485,"âĢ¦]":10486,"CI":10487,"My":10488,"ney":10489,"Ġfut":10490,"ĠTube":10491,"à¦ľà¦¡":10492,"Ġà¦«à¦¸à¦²":10493,"Ġà¦Ĩà¦¸à¦¸":10494,"35":10495,"bat":10496,"Ġmass":10497,"ĠSl":10498,"ĠBrand":10499,"ĠDhak":10500,"à¦¾à¥¤âĢĿ":10501,"ĠStep":10502,"ressing":10503,"Ġà¦ķà¦²à¦®":10504,"Ġplays":10505,"Ġeating":10506,"sec":10507,"ĠSi":10508,"Ġà¦¯à¦®":10509,"Ġram":10510,"Ġadult":10511,"ĠStaff":10512,"Ġà¦¬à¦°à¦Ĺ":10513,"uddy":10514,"à¦Ĩà¦ĩà¦ª":10515,"ĠCare":10516,"Ġà¦ĸà¦¸à¦¡":10517,"Ġà¦ıà¦ķà¦®à¦¤":10518,"ĠJames":10519,"Ġinstructions":10520,"met":10521,"mak":10522,"à¦ķà¦ĩ":10523,"Ġà¦¸à¦ļà¦²":10524,"ĠChi":10525,"ternal":10526,"à¦ĩà¦¨à¦®":10527,"Ġà§«à§ª":10528,"ĠProv":10529,"cription":10530,"ĠDeep":10531,"ĠEnviron":10532,"Ġlatin":10533,"dro":10534,"inance":10535,"Ġfen":10536,"Ġà¦¬à¦ĩà¦Ł":10537,"Ġpark":10538,"Ġà¦Ĩà¦Ń":10539,"Ġgames":10540,"ĠMan":10541,"Ġà¦Łà¦¨":10542,"Ġà§«à§¨":10543,"Ġ2013":10544,"ĠMusic":10545,"ĠAssist":10546,"aus":10547,"rim":10548,"xy":10549,"Ġutt":10550,"à¦²à¦¸à¦¹":10551,"Ġom":10552,"imon":10553,"ĠAndroid":10554,"Ġà¦ªà¦°à¦ªà¦°":10555,"ivity":10556,"à¦¦à¦ķà¦°à¦£":10557,"ĠAlone":10558,"Ġà¦¸à¦ķà¦²à¦ķ":10559,"Ġlezbo":10560,"Ġà¦Ķà¦·à¦§":10561,"dra":10562,"ris":10563,"Ġbis":10564,"Ġà¦¸à¦¶à¦¸":10565,"arks":10566,"à¦ªà¦Ĺà¦ŀ":10567,"ĠSA":10568,"Ġà¦ľà¦¨à¦Ĺ":10569,"Ġà¦īà¦ªà¦ªà¦¤":10570,"à§¬à§ª":10571,"Ġrub":10572,"ĠWhite":10573,"ĠDestroy":10574,"makers":10575,"hra":10576,"iable":10577,"school":10578,"Ġhook":10579,"Ġgorge":10580,"Ġà§·":10581,"ĠHal":10582,"Ġstart":10583,"ĠRuss":10584,"Ġconver":10585,"Ġunivers":10586,"Ġà¦īà¦ªà¦ķà¦°à¦£":10587,"ĠBeg":10588,"à¦¤à¦¬à¦¯":10589,"Ġà§¨à§«à§¦":10590,"Ġskin":10591,"Ġbeautiful":10592,"Ġcontrol":10593,"Ġà¦Ĭà¦°":10594,"can":10595,"dis":10596,"pter":10597,"Ġcy":10598,"Ġcas":10599,"Ġcav":10600,"ĠSleep":10601,"ĠBangladesh":10602,"ĠLess":10603,"ĠLast":10604,"ĠGirl":10605,"asted":10606,"icing":10607,"unch":10608,"Ġ[âĢ¦]":10609,"ffic":10610,"Ġstrip":10611,"2016":10612,"?âĢĿ":10613,"cas":10614,"cup":10615,"iction":10616,"las":10617,"song":10618,"Ġaust":10619,"ĠTend":10620,"anks":10621,"ĠBL":10622,"ĠLad":10623,"Ġken":10624,"ĠGall":10625,"pell":10626,"Ġà¦ªà¦°à¦ĩ":10627,"hos":10628,"ctions":10629,"ĠSeb":10630,"Ġmoans":10631,"Ġhandsome":10632,"Ġdelivery":10633,"Ġsecurity":10634,"à¦°à¦¹à¦£à¦ķ":10635,"pline":10636,"body":10637,"ĠKnows":10638,"à¦Ĳà¦¤":10639,"serv":10640,"test":10641,"Ø§":10642,"Ġmot":10643,"ldren":10644,"Ġà¦ħà¦·":10645,"ĠCarl":10646,"ĠPhi":10647,"ĠRef":10648,"ĠDro":10649,"ĠDick":10650,"ilver":10651,"Ġant":10652,"à¦¬à¦¨à¦¯":10653,"Ġdesired":10654,"Ġposts":10655,"ĠAdam":10656,"Ġviews":10657,"Ġpunishment":10658,"Ġsubscribe":10659,"ĠChildren":10660,"flix":10661,"link":10662,"ois":10663,"Ġiv":10664,"oned":10665,"Ġlane":10666,"Ġpoo":10667,"atory":10668,"ĠCot":10669,"ĠFound":10670,"ĠFool":10671,"ĠNight":10672,"alls":10673,"acks":10674,"ĠStop":10675,"ĠConst":10676,"Ġbigtits":10677,"Ġviolate":10678,"ĠBlind":10679,"à¦Īà¦¨":10680,"Ġbandy":10681,"Ġmagic":10682,"Ġjewels":10683,"Ġwaiting":10684,"ĠValer":10685,"Ġnymph":10686,"Ġfuture":10687,"We":10688,"acious":10689,"hill":10690,"lord":10691,"over":10692,"poses":10693,"tree":10694,"à¦¯à¦¸à¦®":10695,"inite":10696,"Ġdial":10697,"Ġhilt":10698,"Ġgle":10699,"à¦·à¦¸":10700,"ims":10701,"cho":10702,"child":10703,"ĠBase":10704,"ĠPit":10705,"ĠFur":10706,"using":10707,"this":10708,"emp":10709,"umn":10710,"iod":10711,"Ġunus":10712,"olour":10713,"Ġspace":10714,"Ġrip":10715,"Ġfairies":10716,"attery":10717,"Ġraw":10718,"iously":10719,"Ġchain":10720,"Ġpasses":10721,"covered":10722,"jects":10723,"à§İà¦¸à¦°":10724,"azy":10725,"Ġwearing":10726,"ĠBlood":10727,"Ġpainful":10728,"Ġstudied":10729,"Ġdetect":10730,"à¦¸à¦«à¦°à¦®":10731,"Ġshameless":10732,"ĠSmall":10733,"Ġbeauties":10734,"Ġpainting":10735,"Ġocean":10736,"ĠEurope":10737,"ĠHalf":10738,"ĠRussia":10739,"'--":10740,"Fore":10741,"Ty":10742,"UNT":10743,"cats":10744,"mary":10745,"thi":10746,"wh":10747,"inet":10748,"Ġwra":10749,"reement":10750,"hast":10751,"Ġbau":10752,"Ġbug":10753,"Ġbattery":10754,"Ġfli":10755,"Ġcot":10756,"Ġlain":10757,"Ġox":10758,"Ġupper":10759,"ĠMeet":10760,"ĠMount":10761,"Ġstuck":10762,"enting":10763,"ĠLittle":10764,"amine":10765,"ĠPil":10766,"people":10767,"quis":10768,"qual":10769,"liv":10770,"astian":10771,"ivious":10772,"Ġreturns":10773,"odity":10774,"Ġseeking":10775,"eling":10776,"à¦°à¦®à¦¹":10777,"Ġrib":10778,"à¦Ĩà¦īà¦Ł":10779,"bering":10780,"Ġabuses":10781,"Ġroy":10782,"agine":10783,"Ġà¦¢à¦²":10784,"Ġpregnant":10785,"Ġrap":10786,"Ġpeck":10787,"Ġcollect":10788,"Ġhappen":10789,"irting":10790,"Ġacting":10791,"Ġwishes":10792,"ĠAmazon":10793,"Ġshoot":10794,"Ġshock":10795,"ascivious":10796,"ĠRepair":10797,"Ġhostess":10798,"ĠAfric":10799,"Ġsummers":10800,"minster":10801,"Ġfilthy":10802,"Ġbutterfly":10803,"ĠSebastian":10804,"Good":10805,"avery":10806,"aving":10807,"bes":10808,"brain":10809,"dict":10810,"fend":10811,"fix":10812,"gom":10813,"mind":10814,"mmer":10815,"phos":10816,"rates":10817,"take":10818,"vity":10819,"zine":10820,"Ġtunes":10821,"Ġbone":10822,"Ġbind":10823,"Ġbiting":10824,"Ġbench":10825,"erth":10826,"Ġfate":10827,"Ġnuns":10828,"ĠTong":10829,"Ġhills":10830,"Ġtoss":10831,"stool":10832,"ĠAE":10833,"Ġhaven":10834,"ĠBret":10835,"Ġissues":10836,"ently":10837,"keep":10838,"Ġeg":10839,"ĠLuke":10840,"ĠLift":10841,"à¦Ńà¦®":10842,"ĠFellow":10843,"ĠDion":10844,"ĠNear":10845,"ifter":10846,"gems":10847,"Ġnov":10848,"ĠTogether":10849,"Ġnearer":10850,"Ġmap":10851,"hance":10852,"Ġfabric":10853,"igation":10854,"usters":10855,"Ġmans":10856,"bled":10857,"Ġusage":10858,"pted":10859,"Ġquest":10860,"Ġhandle":10861,"Ġimpre":10862,"assad":10863,"Ġrings":10864,"apes":10865,"iseases":10866,"Ġclothe":10867,"bery":10868,"Ġrod":10869,"Ġroad":10870,"ouls":10871,"ensive":10872,"Ġcalling":10873,"Ġpred":10874,"Ġpreparation":10875,"Ġleader":10876,"Ġpresses":10877,"ĠSeal":10878,"Ġscars":10879,"peror":10880,"peration":10881,"ffer":10882,"Ġconsume":10883,"Ġharder":10884,"Ġslender":10885,"Ġpurses":10886,"Ġpurposes":10887,"aching":10888,"Ġhelping":10889,"Ġtraffic":10890,"Ġbrazen":10891,"Ġopening":10892,"Ġlesson":10893,"ĠUnb":10894,"ĠComments":10895,"Ġkissing":10896,"ĠPlain":10897,"ĠPlace":10898,"ĠProud":10899,"Ġparadise":10900,"Ġdrinks":10901,"Ġdistrib":10902,"Ġdiscreet":10903,"Ġenterprise":10904,"Ġwasted":10905,"Ġbegging":10906,"Ġfourth":10907,"hematic":10908,"Ġestab":10909,"score":10910,"Ġbecame":10911,"Ġinjured":10912,"Ġeffects":10913,"Ġfruits":10914,"ĠEnforce":10915,"ĠShowing":10916,"Ġarticles":10917,"Ġambush":10918,"Ġheavily":10919,"Ġsongs":10920,"Ġdirectly":10921,"Ġelection":10922,"Ġrosemary":10923,"Ġrelation":10924,"Ġsprites":10925,"ĠSetting":10926,"ĠGuild":10927,"ĠCondition":10928,"Ġspectators":10929,"ĠSusan":10930,"Ġaccomplish":10931,"ĠWestminster":10932,"Ġchampion":10933,"ĠDukes":10934,"Ġworships":10935,"Ġimmediately":10936,"Ġembraces":10937,"ĠPhilip":10938,"ĠValeria":10939,"Ġunusual":10940,"gomery":10941,"hematics":10942,"?âĢĻ":10943,"Hear":10944,"Souls":10945,"Tell":10946,"bred":10947,"bham":10948,"cet":10949,"chard":10950,"cued":10951,"due":10952,"eress":10953,"favour":10954,"gher":10955,"gone":10956,"gled":10957,"greed":10958,"hoop":10959,"journ":10960,"lous":10961,"lorn":10962,"lings":10963,"lause":10964,"mony":10965,"nit":10966,"nut":10967,"oa":10968,"oided":10969,"pate":10970,"pence":10971,"piece":10972,"sick":10973,"sylhet":10974,"tsey":10975,"terest":10976,"wench":10977,"worth":10978,"warn":10979,"zwater":10980,"Ġtum":10981,"Ġtire":10982,"Ġtatter":10983,"Ġtides":10984,"Ġtales":10985,"Ġteeming":10986,"Ġtumbling":10987,"hear":10988,"Ġaqu":10989,"Ġaery":10990,"Ġaches":10991,"Ġsly":10992,"Ġsurn":10993,"inable":10994,"Ġming":10995,"Ġmow":10996,"Ġmart":10997,"Ġmute":10998,"Ġmuse":10999,"Ġware":11000,"Ġwaning":11001,"Ġwalks":11002,"reef":11003,"once":11004,"onour":11005,"Ġbate":11006,"Ġbide":11007,"Ġbaw":11008,"Ġbale":11009,"Ġbarr":11010,"Ġbier":11011,"Ġbash":11012,"Ġbills":11013,"nders":11014,"erate":11015,"erable":11016,"erwhel":11017,"isle":11018,"Ġfed":11019,"Ġfence":11020,"Ġfester":11021,"Ġfowl":11022,"Ġfickle":11023,"Ġfathom":11024,"ĠIrish":11025,"Ġced":11026,"Ġcert":11027,"Ġcleft":11028,"Ġcuff":11029,"Ġdun":11030,"Ġdaint":11031,"Ġdaring":11032,"Ġdastard":11033,"Ġdances":11034,"Ġduteous":11035,"Ġdainty":11036,"Ġdiseases":11037,"Ġnerves":11038,"Ġniece":11039,"Ġninet":11040,"Ġlame":11041,"Ġlass":11042,"Ġlaughter":11043,"Ġlecher":11044,"Ġlazy":11045,"Ġyard":11046,"Ġyew":11047,"Ġyellow":11048,"Ġpir":11049,"Ġpith":11050,"Ġpul":11051,"Ġpotion":11052,"Ġpines":11053,"Ġpals":11054,"Ġpiled":11055,"Ġthra":11056,"Ġthrew":11057,"Ġthorough":11058,"Ġthreef":11059,"Ġost":11060,"ĠTrem":11061,"ĠTiber":11062,"Ġhint":11063,"Ġhounds":11064,"atiate":11065,"stood":11066,"Ġhen":11067,"Ġhew":11068,"Ġheal":11069,"Ġgilt":11070,"Ġgild":11071,"Ġgiant":11072,"Ġginger":11073,"ĠWent":11074,"Ġbeho":11075,"Ġbecom":11076,"leven":11077,"lehill":11078,"cels":11079,"Ġinhabit":11080,"utus":11081,"utches":11082,"ĠSorrow":11083,"ĠSland":11084,"ĠSilence":11085,"ĠBore":11086,"ĠBreat":11087,"ĠBrist":11088,"ĠHap":11089,"ĠHallow":11090,"ĠCros":11091,"Ġrevers":11092,"Ġrelish":11093,"Ġrelease":11094,"Ġrevell":11095,"Ġrelieve":11096,"Ġrehear":11097,"ĠMab":11098,"ĠMere":11099,"Ġstage":11100,"Ġstint":11101,"Ġsteter":11102,"Ġstarts":11103,"Ġforms":11104,"Ġforlorn":11105,"urbs":11106,"Ġew":11107,"Ġegg":11108,"Ġascend":11109,"ĠLud":11110,"ĠLives":11111,"ashy":11112,"Ġkern":11113,"ĠPale":11114,"ĠFRAN":11115,"ĠGiven":11116,"ĠRago":11117,"Ġsevent":11118,"Ġsepar":11119,"usale":11120,"lysses":11121,"Ġliars":11122,"Ġsoar":11123,"Ġsober":11124,"Ġsolace":11125,"raign":11126,"ĠDight":11127,"ĠDie":11128,"ĠNine":11129,"Ġshamed":11130,"Ġcony":11131,"Ġconvent":11132,"Ġcondu":11133,"Ġconvers":11134,"ARL":11135,"verns":11136,"ĠYonder":11137,"ĠExton":11138,"ĠEARL":11139,"izard":11140,"geon":11141,"geia":11142,"thren":11143,"Ġdol":11144,"Ġdoit":11145,"Ġdoings":11146,"rung":11147,"ruised":11148,"Ġsues":11149,"Ġsuret":11150,"Ġsulp":11151,"Ġbutche":11152,"ĠTold":11153,"Ġnearest":11154,"Ġallay":11155,"ĠThither":11156,"Ġvest":11157,"Ġvap":11158,"Ġvices":11159,"haniel":11160,"Ġherds":11161,"arded":11162,"quess":11163,"quiet":11164,"ellows":11165,"Ġfails":11166,"Ġcompell":11167,"Ġknell":11168,"Ġknavery":11169,"eminate":11170,"liction":11171,"lices":11172,"Ġwhate":11173,"Ġshine":11174,"Ġshouts":11175,"Ġpry":11176,"Ġproofs":11177,"antial":11178,"Ġgoodman":11179,"resseth":11180,"Ġmanly":11181,"Ġmanacles":11182,"Ġmankind":11183,"Ġmangled":11184,"Ġblots":11185,"Ġblasp":11186,"cible":11187,"Ġwhet":11188,"Ġwheres":11189,"Ġwheels":11190,"Ġamity":11191,"Ġamended":11192,"Ġshepher":11193,"Ġsheets":11194,"eav":11195,"endom":11196,"Ġgoest":11197,"ĠForget":11198,"ĠForrest":11199,"ĠForgive":11200,"Ġjump":11201,"ĠHelen":11202,"Ġhatches":11203,"Ġswine":11204,"Ġswifter":11205,"ecess":11206,"Ġbrine":11207,"Ġbrittle":11208,"atagems":11209,"Ġorchard":11210,"pture":11211,"icide":11212,"Ġunity":11213,"Ġunman":11214,"Ġunaw":11215,"Ġunav":11216,"Ġunpre":11217,"Ġunsc":11218,"Ġunacc":11219,"Ġunthrift":11220,"Ġspell":11221,"Ġspear":11222,"Ġspeeches":11223,"loyal":11224,"locks":11225,"Ġprog":11226,"Ġprover":11227,"Ġproduce":11228,"Ġproffer":11229,"hyme":11230,"ĠWhence":11231,"Ġspurn":11232,"Ġsparing":11233,"Ġhoped":11234,"Ġawe":11235,"Ġawful":11236,"Ġimpose":11237,"Ġimposition":11238,"Ġsails":11239,"Ġplent":11240,"Ġresp":11241,"Ġresidence":11242,"Ġencom":11243,"Ġensue":11244,"Ġenroll":11245,"Ġenjoin":11246,"Ġenfranch":11247,"Ġrood":11248,"Ġrates":11249,"Ġà¦®à¦¨à¦¸":11250,"Ġoutst":11251,"Ġhowl":11252,"Ġtrudge":11253,"ĠUlysses":11254,"ĠWeep":11255,"Ġsomebody":11256,"Ġmarquess":11257,"Ġstrang":11258,"Ġstratagems":11259,"acket":11260,"Ġdisci":11261,"Ġdispro":11262,"Ġdishes":11263,"Ġdislike":11264,"Ġdisposed":11265,"Ġdiscovery":11266,"Ġdisloyal":11267,"Ġhearth":11268,"ackey":11269,"Ġexha":11270,"Ġexternal":11271,"Ġability":11272,"Ġfoaming":11273,"Ġdaylight":11274,"Ġrogues":11275,"Ġtellus":11276,"Ġwhereupon":11277,"agate":11278,"Ġdesc":11279,"Ġcommodity":11280,"à§Ńà§¨à§¬":11281,"ĠMariner":11282,"Ġwary":11283,"forward":11284,"aced":11285,"Ġcontem":11286,"Ġfearless":11287,"Ġfiends":11288,"Ġgreatly":11289,"Ġbrethren":11290,"Ġintends":11291,"ĠYourself":11292,"oughby":11293,"Ġpartake":11294,"Ġpartial":11295,"Ġslanders":11296,"Ġadul":11297,"Ġadorn":11298,"Ġadder":11299,"Ġpreposterous":11300,"ĠStir":11301,"Ġsweeten":11302,"Ġpert":11303,"Ġperused":11304,"Ġperchance":11305,"Ġperadventure":11306,"Ġperiod":11307,"Ġlevied":11308,"Ġpresum":11309,"Ġscra":11310,"Ġscare":11311,"Ġscouts":11312,"Ġmolehill":11313,"Ġnightly":11314,"Ġraze":11315,"Ġrarest":11316,"Ġrabble":11317,"Ġkeen":11318,"Ġremiss":11319,"Ġremote":11320,"Ġfees":11321,"Ġrightly":11322,"Ġflour":11323,"Ġflag":11324,"Ġflayed":11325,"ilty":11326,"pery":11327,"Ġrepaid":11328,"Ġreprieve":11329,"Ġpeasant":11330,"Ġlively":11331,"Ġlongs":11332,"Ġlonging":11333,"Ġvehe":11334,"Ġconserves":11335,"Ġmightily":11336,"comfort":11337,"ĠSirs":11338,"Ġresteth":11339,"Ġrestrain":11340,"Ġharms":11341,"Ġsummon":11342,"Ġcrowned":11343,"Ġcourses":11344,"Ġenters":11345,"Ġibat":11346,"ĠProdig":11347,"cried":11348,"Ġkeeping":11349,"Ġchaff":11350,"Ġhourly":11351,"Ġcomplices":11352,"Ġendow":11353,"Ġendeav":11354,"Ġcoats":11355,"Ġpricks":11356,"ieldy":11357,"Ġpurged":11358,"Ġpursues":11359,"Ġsuborn":11360,"Ġsubmission":11361,"Ġsubdue":11362,"Ġsuburbs":11363,"Ġsmiled":11364,"Ġsmelt":11365,"Ġtongueless":11366,"asonable":11367,"ĠWilloughby":11368,"Ġhush":11369,"Ġhopeless":11370,"Ġneedy":11371,"Ġhelms":11372,"Ġtraged":11373,"Ġtragic":11374,"Ġbragg":11375,"Ġapplause":11376,"Ġcheers":11377,"Ġconfined":11378,"Ġcharms":11379,"Ġcharters":11380,"Ġcharitable":11381,"Ġserving":11382,"Ġglister":11383,"Ġmistook":11384,"Ġfortnight":11385,"Ġfortunate":11386,"ĠRevol":11387,"Ġbringing":11388,"Ġpleaseth":11389,"Ġbeseem":11390,"Ġbesiege":11391,"Ġbeshrew":11392,"Ġthrong":11393,"Ġjustly":11394,"Ġjustify":11395,"Ġwrongfully":11396,"Ġplaced":11397,"Ġmischief":11398,"Ġapothecary":11399,"Ġeyeb":11400,"Ġtreble":11401,"Ġchid":11402,"Ġchides":11403,"Ġchron":11404,"Ġbusied":11405,"Ġfooling":11406,"Ġintercept":11407,"tock":11408,"Ġuncertain":11409,"Ġobdur":11410,"Ġobliv":11411,"Ġcourts":11412,"Ġstride":11413,"Ġstripes":11414,"Ġwomanish":11415,"ĠUnw":11416,"ĠUnha":11417,"icester":11418,"Ġturning":11419,"Ġhumane":11420,"Ġtalked":11421,"Ġoverheard":11422,"Ġinstance":11423,"Ġinstead":11424,"Ġattach":11425,"Ġseemed":11426,"Ġseemeth":11427,"Ġcurs":11428,"Ġcurbs":11429,"Ġwelcom":11430,"Ġwelkin":11431,"ĠWouldst":11432,"Ġstreak":11433,"Ġvillan":11434,"Ġcountryman":11435,"Ġsending":11436,"Ġdoubted":11437,"Ġdoubtless":11438,"Ġwishing":11439,"Ġreasonable":11440,"ĠRescue":11441,"Ġcommandment":11442,"Ġbreaths":11443,"Ġports":11444,"Ġportion":11445,"Ġwinding":11446,"Ġsenis":11447,"Ġremembe":11448,"Ġswearing":11449,"Ġtending":11450,"Ġstrain":11451,"Ġgreed":11452,"Ġgreets":11453,"Ġclog":11454,"Ġsupple":11455,"Ġtemperate":11456,"Ġcarrion":11457,"eyed":11458,"Ġrequite":11459,"Ġrequital":11460,"Ġspoils":11461,"Ġlamp":11462,"ĠJulius":11463,"Ġsoonest":11464,"Ġmete":11465,"ĠPluck":11466,"ĠPlashy":11467,"Ġfooting":11468,"Ġwarrants":11469,"tershire":11470,"Ġsaddle":11471,"Ġthroughly":11472,"Ġmarrying":11473,"Ġchoke":11474,"ĠMontgomery":11475,"Ġdepth":11476,"Ġburial":11477,"Ġcolder":11478,"Ġstrangely":11479,"Ġbuilt":11480,"Ġsuffice":11481,"Ġplucked":11482,"Ġagony":11483,"Ġagreement":11484,"Ġhardy":11485,"Ġbats":11486,"Ġentreated":11487,"ĠSenators":11488,"Ġvisor":11489,"Ġvisiting":11490,"Ġordain":11491,"Ġordinance":11492,"Ġanguish":11493,"Ġquicken":11494,"Ġtitles":11495,"ĠGlad":11496,"Ġinfirm":11497,"Ġinfancy":11498,"Ġinfamy":11499,"Ġinfinite":11500,"ĠSeeking":11501,"Ġwooers":11502,"Ġfitter":11503,"Ġfitting":11504,"Ġexecut":11505,"ĠPrinces":11506,"Ġposterns":11507,"Ġparle":11508,"Ġparch":11509,"Ġparasite":11510,"Ġparlous":11511,"Ġprofound":11512,"Ġquarre":11513,"Ġdroop":11514,"Ġdrooping":11515,"Ġspeedily":11516,"Ġdistinct":11517,"Ġdistemper":11518,"ĠBecome":11519,"Ġstrengthen":11520,"Ġforerun":11521,"Ġforefather":11522,"Ġdivide":11523,"Ġcrad":11524,"Ġcrimes":11525,"Ġcrutch":11526,"Ġcrutches":11527,"Ġshorten":11528,"Ġincur":11529,"Ġincapable":11530,"Ġwhipped":11531,"Ġwondering":11532,"Ġmurdering":11533,"Ġwatchful":11534,"Ġchangeling":11535,"Ġdiscred":11536,"Ġentering":11537,"Ġclouded":11538,"Ġstirru":11539,"ĠChurch":11540,"Ġbites":11541,"Ġsignories":11542,"Ġgarlic":11543,"Ġbeggary":11544,"Ġdeliverance":11545,"Ġsickly":11546,"Ġordering":11547,"Ġorderly":11548,"Ġsoften":11549,"Ġsoftly":11550,"Ġregion":11551,"Ġregreet":11552,"Ġevident":11553,"Ġcheerful":11554,"ĠLORDS":11555,"Ġconsuls":11556,"Ġrecount":11557,"Ġmoveables":11558,"Ġliberties":11559,"Ġsurm":11560,"Ġsurly":11561,"Ġsurpr":11562,"Ġsurvey":11563,"Ġbeginning":11564,"Ġconsented":11565,"ĠAbbot":11566,"Ġgrove":11567,"Ġfeasting":11568,"Ġfrowning":11569,"Ġdropp":11570,"Ġvictorious":11571,"Ġmalicious":11572,"Ġspeechless":11573,"Ġbriefly":11574,"Ġthrift":11575,"soe":11576,"Ġpenury":11577,"Ġgotten":11578,"Ġexpost":11579,"Ġcapable":11580,"Ġcomplete":11581,"Ġrespects":11582,"Ġbroils":11583,"Ġworshipful":11584,"ĠBlush":11585,"Ġbarb":11586,"Ġbargain":11587,"ĠStanding":11588,"Ġlimb":11589,"Ġopposed":11590,"Ġcreation":11591,"Ġapproaches":11592,"Ġbawdy":11593,"Ġpatiently":11594,"Ġlamentations":11595,"spo":11596,"Ġlaboured":11597,"scaped":11598,"ĠChristendom":11599,"ĠMercury":11600,"Ġdarkly":11601,"ĠThinking":11602,"Ġlacks":11603,"ĠExcept":11604,"Ġunwill":11605,"ĠBrought":11606,"Ġducats":11607,"Ġbirths":11608,"Ġfavourable":11609,"Ġcertainly":11610,"Ġproceeding":11611,"Ġinnocents":11612,"Ġinnocency":11613,"Ġwildly":11614,"Ġurging":11615,"ĠEnglishman":11616,"Ġtorches":11617,"Ġtorments":11618,"Ġpleasures":11619,"Ġmeditation":11620,"Ġemulation":11621,"Ġcontinued":11622,"Ġdooms":11623,"Ġrefuge":11624,"ĠMeaning":11625,"Ġpraised":11626,"Ġcountermand":11627,"Ġcounterpo":11628,"Ġswiftly":11629,"Ġdesperately":11630,"Ġdrowning":11631,"ĠEnjoy":11632,"Ġstudies":11633,"Ġauthorities":11634,"Ġelders":11635,"Ġbastardy":11636,"Ġstole":11637,"Ġmutinies":11638,"Ġcorners":11639,"Ġseverity":11640,"Ġwretchedness":11641,"Ġbeggarly":11642,"Ġsimp":11643,"longs":11644,"ĠHeavens":11645,"Ġgentry":11646,"Ġstealing":11647,"ĠLoved":11648,"Ġadded":11649,"Ġcustomary":11650,"Ġdegenerate":11651,"Ġprivately":11652,"Ġdwelling":11653,"ĠSpoke":11654,"Ġverge":11655,"Ġverity":11656,"Ġdealing":11657,"Ġwagon":11658,"Ġunfit":11659,"Ġshores":11660,"Ġarrival":11661,"Ġprophecies":11662,"Ġedict":11663,"Ġstabbed":11664,"Ġbutchers":11665,"Ġnecessities":11666,"Ġargument":11667,"Ġarguments":11668,"Ġjointure":11669,"Ġprevails":11670,"Ġembracements":11671,"Ġespecially":11672,"Ġdecree":11673,"Ġdecrees":11674,"Ġsailors":11675,"Ġplotted":11676,"Ġballads":11677,"Ġdetested":11678,"Ġcreeping":11679,"Ġpikes":11680,"Ġambassad":11681,"ĠCobham":11682,"Ġheaviness":11683,"Ġexpressly":11684,"rehend":11685,"Ġoffenders":11686,"Ġpersuaded":11687,"Ġbonds":11688,"Ġtransg":11689,"Ġphysicians":11690,"Ġmathematics":11691,"Ġcalf":11692,"Ġlineal":11693,"Ġlineaments":11694,"Ġelements":11695,"Ġvanqu":11696,"Ġvanish":11697,"Ġaffected":11698,"Ġcensured":11699,"Ġbewray":11700,"Ġbewitch":11701,"Ġdeserts":11702,"Ġleanness":11703,"Ġpetitions":11704,"portion":11705,"Ġbasil":11706,"Ġgrub":11707,"Ġgrumb":11708,"Ġadvancement":11709,"Ġtemperance":11710,"Ġfashions":11711,"ĠBearing":11712,"Ġfeeble":11713,"itae":11714,"Ġdivers":11715,"doing":11716,"Ġalteration":11717,"Ġblocks":11718,"Ġglove":11719,"ĠThrong":11720,"Ġshunn":11721,"Ġquality":11722,"Ġqualities":11723,"Ġqualify":11724,"Ġvexation":11725,"Ġconsidering":11726,"Ġcompanions":11727,"ĠBrave":11728,"Ġmorsel":11729,"Ġclamorous":11730,"Ġdigest":11731,"Ġthorny":11732,"Ġenforcement":11733,"Ġmelted":11734,"Ġwealthy":11735,"Ġdisperse":11736,"Ġaffliction":11737,"Ġworthier":11738,"Ġworthiest":11739,"ĠAccursed":11740,"ĠNathaniel":11741,"Ġdifferen":11742,"ĠImagine":11743,"Ġsalute":11744,"Ġuneven":11745,"Ġreceipt":11746,"LISBURY":11747,"Ġdriven":11748,"Ġresisted":11749,"Ġintercession":11750,"Ġhorrible":11751,"ĠCondemn":11752,"Ġfloods":11753,"Ġcomplexions":11754,"Ġceremony":11755,"Ġreckless":11756,"Ġforsook":11757,"Ġmanifested":11758,"Ġungentle":11759,"Ġunjustly":11760,"Ġdispleased":11761,"Ġbeguiled":11762,"Ġaccusations":11763,"Ġhelmets":11764,"Ġcomplaints":11765,"Ġreconciled":11766,"Ġtimorous":11767,"ĠAwake":11768,"ĠAwaked":11769,"Ġengross":11770,"boding":11771,"Ġbonny":11772,"Ġbonnet":11773,"Ġstumbled":11774,"withal":11775,"Ġfactious":11776,"Ġspectacle":11777,"Ġbuckle":11778,"Ġbelongs":11779,"Ġgratis":11780,"Ġcoffin":11781,"Ġcoffers":11782,"Ġincense":11783,"Ġdisguise":11784,"Ġacquaintance":11785,"Ġnettle":11786,"Ġdeceased":11787,"ĠCastle":11788,"Ġtoucheth":11789,"Ġhomicide":11790,"ĠWitness":11791,"ĠWithal":11792,"ĠPerchance":11793,"Ġblasts":11794,"Ġtrod":11795,"Ġtrenches":11796,"Ġtrencher":11797,"oubted":11798,"Ġfretting":11799,"Ġlurk":11800,"Ġlurking":11801,"Ġlengthens":11802,"Ġthirsty":11803,"Ġhighest":11804,"Ġflinty":11805,"Ġsacrifice":11806,"Ġporter":11807,"ĠFitzwater":11808,"Ġspotted":11809,"Ġbuzzard":11810,"Ġfresher":11811,"Ġfreshest":11812,"ĠHonest":11813,"Ġrobbers":11814,"Ġfantastic":11815,"Ġfantastical":11816,"Ġgnaw":11817,"Ġgossips":11818,"Ġunrevere":11819,"Ġprodigy":11820,"Ġprodigal":11821,"Ġdisinherit":11822,"Ġdisinherited":11823,"Ġabundant":11824,"Ġabundance":11825,"Ġobsequies":11826,"Ġattorneys":11827,"Ġparcel":11828,"Ġdetestable":11829,"ĠPersuade":11830,"ĠPersuades":11831,"ĠJule":11832,"ĠCheer":11833,"Ġmasqu":11834,"Ġannoy":11835,"ratitude":11836,"ĠDelphos":11837,"Ġbulk":11838,"Ġcropp":11839,"Ġgamut":11840,"Ġcriminal":11841,"ĠTurks":11842,"Ġeffeminate":11843,"ĠRedeem":11844,"Ġfifty":11845,"weary":11846,"Ġyesternight":11847,"Ġplanet":11848,"Ġrumour":11849,"Ġdoublet":11850,"ĠHappily":11851,"Ġcushion":11852,"Ġpowder":11853,"Ġinvention":11854,"Ġresemblance":11855,"Ġstinking":11856,"Ġaspiring":11857,"Ġdoleful":11858,"Ġancestors":11859,"Ġunprovided":11860,"Ġdeformity":11861,"Ġsparkling":11862,"Ġrigour":11863,"Ġdissembling":11864,"Ġclergy":11865,"Ġeverlasting":11866,"Ġaccompany":11867,"Ġconfederate":11868,"Ġafterwards":11869,"Ġobscured":11870,"Ġinsinuate":11871,"Ġunluckily":11872,"Ġmagistrate":11873,"Ġmomentary":11874,"ĠJuno":11875,"Ġavouch":11876,"Ġturtle":11877,"ĠBanish":11878,"Ġbustle":11879,"ĠErr":11880,"ĠJerusale":11881,"ĠHostess":11882,"ĠChertsey":11883,"Ġderived":11884,"Ġcandle":11885,"Ġdiligence":11886,"pretation":11887,"ĠLammas":11888,"Ġoverthrow":11889,"Ġtinker":11890,"Ġtreaty":11891,"Ġlinen":11892,"Ġassembly":11893,"Ġvigour":11894,"Ġmantle":11895,"Ġdrowsy":11896,"Ġthreshold":11897,"seeming":11898,"Ġbeetle":11899,"Ġinveterate":11900,"Ġinheritance":11901,"Ġstubborn":11902,"Ġfornication":11903,"ĠForbid":11904,"ĠForthwith":11905,"Ġcannib":11906,"Ġorphans":11907,"Ġunpleasing":11908,"Ġrheum":11909,"Ġexclaims":11910,"Ġprecise":11911,"Ġscourge":11912,"Ġchivalry":11913,"Ġchafed":11914,"Ġsubdued":11915,"Ġappellant":11916,"Ġsuppliant":11917,"Ġinfringe":11918,"Ġdistinguish":11919,"Ġforetell":11920,"Ġminstrels":11921,"ĠAbhorson":11922,"Ġmalignant":11923,"Ġargosy":11924,"Ġingrateful":11925,"ĠTarquin":11926,"ĠPursuivant":11927,"Ġconspiracy":11928,"ĠRenowned":11929,"Ġeloquence":11930,"Ġà§¯à§§à§©à§©":11931,"ĠAcquaint":11932,"CISC":11933,"ĠBrandon":11934,"Ġadulteress":11935,"ĠStafford":11936,"Ġominous":11937,"ĠSALISBURY":11938,"ĠBLUNT":11939,"Ġkennel":11940,"ĠCarlisle":11941,"Ġpoorest":11942,"Tybalt":11943,"Ġbauble":11944,"Ġfliers":11945,"Ġribbon":11946,"Ġroyally":11947,"beseeming":11948,"minded":11949,"ĠTongue":11950,"Heart":11951,"Ġtumult":11952,"Ġaqua":11953,"Ġsurname":11954,"Ġbashful":11955,"erwhelm":11956,"Ġnineteen":11957,"Ġthreefold":11958,"ĠBreathe":11959,"ĠBristol":11960,"ĠHallowmas":11961,"ĠCrosby":11962,"ĠMerely":11963,"Ġsteterat":11964,"ĠLudlow":11965,"ĠFRANCISC":11966,"ĠRagozine":11967,"Ġseparated":11968,"ĠDighton":11969,"Ġsulphur":11970,"Ġshepherds":11971,"Ġunawares":11972,"Ġunavoided":11973,"Ġunaccustom":11974,"Ġobdurate":11975,"Ġoblivion":11976,"Ġremembered":11977,"Ġinfirmity":11978,"Ġdistinctly":11979,"Ġsurprised":11980,"ĠJerusalem":11981,"à¦°à¦ļà¦¨":11982,"à¦¨à¦¤à¦®":11983,"à¦¤à¦¶":11984,"à¦¦à¦ªà¦¤":11985,"99":11986,"Ġà¦ĩà¦īà¦ľ":11987,"Ġà¦Ĩà¦Ĺà¦·":11988,"à¦¦à¦ķà¦¬":11989,"Ġà¦Ĺà¦£à¦Ńà¦¬à¦¨":11990,"Ġdailysylhet":11991,"ky":11992,"à¦°à¦£à¦¬":11993,"Ġà§«à§©":11994,"Ġ2014":11995,"ĠPosted":11996,"Ġà¦®à¦ĵà¦¦":11997,"à¦·à¦Ł":11998,"à§¯à§ª":11999,"Ġà§¬à§ª":12000,"Ġà¦Ĺà¦Ńà¦°":12001,"à¦Īà¦®":12002,"31":12003,"à¦°à¦°à¦®":12004,"Ġhent":12005,"à¦ĩà¦ķà¦°à¦£":12006,"à¦ħà¦ķ":12007,"Ġà¦¨à¦ĩ":12008,"à¦¯à¦ķà¦¥":12009,"ai":12010,"à¦¨à¦«":12011,"Ġà¦²à¦ŀ":12012,"hobor":12013,"à¦¿à¥¤âĢĿ":12014,"à¦¨à¦Ľ":12015,"Ġà¦°à¦¨":12016,"ĠEmp":12017,"ĠInter":12018,"Ġà¦Ĩà¦Ĺà¦®à¦¨":12019,"Ġà¦ħà¦¨à¦¶à¦¨":12020,"à¦°à¦¸à¦°":12021,"à¦²à¦ĺ":12022,"à§ģ...":12023,"Ġà¦Ńà¦°à¦¸":12024,"Ġà¦ĩà¦ķ":12025,"à§®à§¯":12026,"Ġà¦ıà¦°à¦¦":12027,"34":12028,"à¦ķà¦ľ":12029,"Ġà¦ıà¦¨à¦Ł":12030,"Ġà¦¹à¦ĩ":12031,"Ġà§«à§¬":12032,"Ġà¦°à¦¹à¦®à¦¤":12033,"no":12034,"à¦¨à¦¤à¦°":12035,"ĠPM":12036,"ĠHot":12037,"ĠðŁİ¯":12038,"Ã¿":12039,"à¦ĩà¦ĵà¦¯":12040,"à¦łà¦¸":12041,"Ġà¦Ĩà¦īà¦¯":12042,"à¦ĩà¦ĺ":12043,"Ġà¦¹à¦ĩà¦¤":12044,"Ġà¦ļà¦ķà¦°":12045,"à¦ıà¦ĸà¦¨":12046,"____":12047,"à¦¾âĢĺ":12048,"à¦¤à¦¦à¦¨":12049,"Ġfisting":12050,"Ġà¦¤à¦¨":12051,"Ġà¦«à¦ľ":12052,"à¦ĩà¦ķà¦®":12053,"XX":12054,"ma":12055,"Ġà¦ªà¦¦à¦¬":12056,"Ġcutie":12057,"ĠHD":12058,"Ġà¦ħà¦ªà¦®":12059,"Ġ**":12060,"39":12061,"Ġà¦¨à¦¬à¦¨":12062,"Ġà¦¦à¦¤":12063,"Ġà¦ľà¦ľ":12064,"Ġà¦¶à¦Ł":12065,"Ġà¦°à¦®":12066,"à§¨à§§à§«":12067,"Ġà¦Ĩà¦²à¦Ĺ":12068,"38":12069,"Ġà¦¬à¦ŀ":12070,"à§ĢâĢ¦":12071,"Ġjer":12072,"Ġà¦¦à¦²à¦Ĺ":12073,"Ġà§¨à§¦à§¦à§¬":12074,"2013":12075,"ĠEmpflix":12076,"ober":12077,"à¦ªà¦ķà¦²":12078,"ĠBD":12079,"Ġà¦«à¦ķ":12080,"Ġà§¦à§¦":12081,"71":12082,"Ġà¦¨à¦ķà¦¶":12083,"à¦¬à¦ķà¦¦":12084,"à§¬à§§":12085,"à¦¿)à¥¤":12086,"à§ªà§©à§¨à§©":12087,"Ġà¦¸à¦¬à¦Ĺ":12088,"à¦ıà¦¨à¦ľ":12089,"à¦²à¦ĩ":12090,"à¦²à¦Łà¦¨":12091,"Ġà¦ĵà¦ĸ":12092,"âĢĻ,":12093,"Ġà§§à§«à§¦":12094,"Ġnextdoor":12095,"50":12096,"à¦®à¦ŀ":12097,"à¦ļà¦Ĺà¦¡":12098,"à¦Ńà¦¸":12099,"à¦¦à¦¨à¦ªà¦¤":12100,"à§§à§¨à§§à§ª":12101,"Ġsquirting":12102,"cam":12103,":-":12104,"you":12105,"à¦¹à§İ":12106,"à¦¬à¦¸à¦®":12107,"à¦Ŀà¦²":12108,"à¦ħà¦¨à¦²":12109,"Ġbdnews":12110,"ĠOctober":12111,"à¦¤à¦Ĺ":12112,"à¦Ĩà¦¦":12113,"ĠJuly":12114,"vate":12115,"Ġà¦ķà¦¬à¦²":12116,"Ġà§«à§¯":12117,"Ġà§§à§ªà§¬":12118,"Ġporno":12119,"à¦¾âĢĿ":12120,"lips":12121,"No":12122,"à§ĩâĢĿ":12123,"Ġà¦īà¦ªà¦²à¦¬":12124,"à¦ĥ-":12125,"agging":12126,"Ġà¦¸à¦¬à¦ĩ":12127,"Ġà¦Ĩà¦ľà¦ĵ":12128,"Ġhidden":12129,"à¦¯à¦ľà¦¨à¦ķ":12130,"à¦ĵà¦¹":12131,"Ġà¦ıà¦¤à¦¦":12132,"Ġà¦¶à¦¹à¦°à¦Ĺ":12133,"hot":12134,"Ġà¦¸à¦®à¦Ĺ":12135,"Ġà¦Ĺà¦£à¦§à¦°":12136,"ĠJanuary":12137,"Me":12138,"à¦¿(":12139,"à¦¿à¦Ĥ:":12140,"à¦ıà¦¸à¦ĩà¦¸":12141,"Ġà§¨à§¦à§¦à§«":12142,"à¦ľà¦ķà¦²":12143,"à§İà¦ªà¦°à¦¤":12144,"à¦Ĺà¦Ł":12145,"à¦¼à¦¾âĢĻ":12146,"à¦łà¦ķà¦¦":12147,"à§§à§¨à§§à§¨":12148,"bang":12149,"à¦Ĺà¦¸":12150,"Ġà¦¹à¦°à¦¤":12151,"à¦°à¦¤à¦ķ":12152,"ĠJoy":12153,"à¦°à¦¬à¦£à¦¤":12154,"Ġà¦ĩà¦īà¦ķ":12155,"Ġà¦¦à¦«à¦¤à¦°":12156,"à¦£à¦¯":12157,"à¦Ĩà¦ĩà¦¬":12158,"Ġà¦Ĩà¦¨à¦²":12159,"ĠXXX":12160,"Ġà¦īà¦ªà¦¬":12161,"à§®à§©":12162,"Ġà§§à§¦à§¨":12163,"49":12164,"sex":12165,"à¦īà¦ļ":12166,"Ġà¦®à¦Īà¦¨":12167,"ĠWond":12168,"Ġà¦īà¦ĸ":12169,"oogle":12170,"ĠPub":12171,"Ġâĸº":12172,"à¦®à¦¦à¦ª":12173,"ĠAccount":12174,"à¦Ĺà¦ª":12175,"Ġkam":12176,"raham":12177,"à¦¬à¦²à¦¤":12178,"Ġà¦¨à¦¬à¦®":12179,"ĠAbraham":12180,"ĺħ":12181,"à¦ľà¦¨à¦¶":12182,"Ġà¦ıà¦ķà¦ľà¦¨à¦ķ":12183,"à§¦à§¨à§¯":12184,"pur":12185,"à¦ĩà¦¶":12186,"à¦¡à¦Ł":12187,"izz":12188,"à§¬à§¨":12189,"ĠGetting":12190,"56":12191,"à¦Ĩà¦¯":12192,"à§¯à§«":12193,"à§¦à§¦à§¦à§¦":12194,"Ġà§¯à§«":12195,"Ġ%":12196,"à¦¥à¦ķà¦¦":12197,"à¦ĸà¦®":12198,"à¦Ńà¦ľà¦¨à¦ķ":12199,"Ġà¦ļà¦®à¦¤":12200,"à§®à§¦":12201,"Ġà§®à§«":12202,"52":12203,"inc":12204,"à¦²à¦¹":12205,"online":12206,"à§Ńà§¦":12207,"Ġcocks":12208,"à¦ħà¦«":12209,"Ġà§¨à§¦à§¦à§Ń":12210,"iews":12211,"à¦¨à¦ªà¦ª":12212,"40":12213,"onz":12214,"à¦¦à¦Ĺà¦ŀ":12215,"ĠFucks":12216,"à¦ķà¦²à¦¨":12217,"à¦¬à¦¦à¦¨":12218,"à§Ģ/":12219,"Ġà¦°à¦£à¦¬":12220,"Ġà¦ĩà¦ľà¦¤":12221,"Ġà¦Łà¦®":12222,"à¦°à¦¨à¦Ĺà¦°":12223,"à§ĩ..":12224,"à¦ķà¦Ĺà¦ŀ":12225,"Ġdick":12226,"à¦¼à§ĩâĢ¦":12227,"Ġà§©à§ªà§«":12228,"Ġasshole":12229,"97":12230,"à§ģ!":12231,"à¦¶à¦Ń":12232,"ĠRec":12233,"à¦Ĩà¦ĩà¦¡":12234,"Ġà¦Ĩà¦ĩà¦ľ":12235,"+)":12236,"uly":12237,"Ġà¦ķà¦ļ":12238,"à¦§à¦¸":12239,"ĠCopy":12240,"ĠNew":12241,"Ġ100":12242,"ussian":12243,"ĠPlays":12244,"July":12245,"ev":12246,"Ġà¦¤à¦¦":12247,"Ġà¦¤à§İà¦ªà¦°à¦¤":12248,"Ġà¦ĵà¦®":12249,"Ġà¦ĩà¦¶":12250,"à¦¬à¦°à¦¦":12251,"logy":12252,"à§®à§¬":12253,"à¦¦à¦¨à¦Ł":12254,"à¦·à¦ķà¦ķ":12255,"à¦ħà¦¸":12256,"46":12257,"uk":12258,"à¦Łà¦Ń":12259,"à¦¼à¦¾)":12260,"orts":12261,"à¦ıà¦¸à¦ıà¦®":12262,"ĠBliss":12263,"ĠCopyright":12264,"vember":12265,"ĠDay":12266,"ĠNovember":12267,"reen":12268,"à¥¤...":12269,"Ġà¦¹à¦ĩà¦²":12270,"à¦¡à¦°":12271,"à¦Ľà¦¤":12272,"à¦§à¦®":12273,"ĠLand":12274,"Ġà¦ħà¦¬à¦¤":12275,"Ġà§®à§Ń":12276,"Ġà§Ńà§Ń":12277,"days":12278,"Ġhairy":12279,"'m":12280,"Ġà¦ľà¦¨à¦¨":12281,"Ġrussian":12282,"ttps":12283,"Ġà¦Ĩà¦¹à¦¤à¦¦":12284,"ĠSpread":12285,"Ġà¦ıà¦ıà¦«":12286,"à¦ĵà¦¡":12287,"à¦ıà¦ª":12288,"ĠAlex":12289,"à¦¬à¦¨à¦ķ":12290,"Ġà¦ĩà¦¨à¦¶":12291,"Ġassign":12292,"42":12293,"47":12294,"à¦²à¦¡":12295,"ĠDaily":12296,"Ġà¦īà¦²à¦ķ":12297,"Ġà¦¸à¦¹à¦¬":12298,"Ġà§¬à§©":12299,"Ġà¦ħà¦¤à¦ıà¦¬":12300,"Ġstockings":12301,"à¦²à¦¨à¦ķà¦°":12302,"azar":12303,"Ġà¦ĩà¦īà¦ıà¦¨":12304,"à¦ķà¦¸à¦ĩ":12305,"fo":12306,"fà¦®":12307,"à¦¨à¦·":12308,"à¦¯à¦°à¦ķà¦®":12309,"Ġà¦ľfà¦®":12310,"à¦Ńà¦Ļ":12311,"Ġà¦²à¦¬à¦£":12312,"à§¦à§§à§®":12313,"à¦ıà¦¸à¦Ĩà¦ĩ":12314,"à¦¤à¦¸":12315,"ĠLim":12316,"ĠVid":12317,"orner":12318,"ĠInst":12319,"Ġà§¬à§Ń":12320,"Ġà¦Ĩà¦ķà¦¸":12321,"shot":12322,"Ġadmin":12323,"cle":12324,"Ġtight":12325,"Ġdped":12326,"Ġà¦ħà¦¬à¦¨":12327,"à¦£à¦¹":12328,"ĠPass":12329,"Ġà¦ĸà¦¸à¦°":12330,"à¦Ļà¦ļ":12331,"cial":12332,"à¦¦à¦ķà¦¦":12333,"irts":12334,"Ġà¦¬à¦¶":12335,"rid":12336,"amster":12337,"Ġà¦īà¦Ĺ":12338,"à¦Ĩà¦°à¦Ł":12339,"retty":12340,"Ġdifferent":12341,"tes":12342,"videos":12343,"ĠCour":12344,"Ġà¦īà¦ĩà¦²":12345,"Ġà¦²à¦Ń":12346,"à¦°à¦ķà¦°":12347,"ĠâĢĮ":12348,"black":12349,"Ġencouragement":12350,"à¦¶à¦ľ":12351,"irs":12352,"ĠSum":12353,"Ġà¦īà¦·":12354,"ĠEar":12355,"Ġà¦«à¦°à¦¹":12356,"ĠFlower":12357,"Hamster":12358,"Ġbi":12359,"ĠDig":12360,"ĠNic":12361,"Ġà¦ľà¦¨à¦¸à¦®":12362,"odes":12363,"à¦¤à¦°à¦¨":12364,"Ġà¦ıà¦¨à¦ľ":12365,"85":12366,"hum":12367,"times":12368,"wood":12369,"ĠTaking":12370,"à¦¹à¦Ń":12371,"ĠSk":12372,"arta":12373,"ĠUs":12374,"Ġlezz":12375,"Ġà§¬à§§":12376,"Ġà¦ıà¦¸à¦Ĩà¦ĩ":12377,"Ġà¦¤à¦ĸà¦¨à¦ĩ":12378,"ĠAdo":12379,"pan":12380,"Ġnur":12381,"ĠCH":12382,"ĠFace":12383,"ĠxHamster":12384,"Ġ00":12385,"à¦¬à¦¹à¦°":12386,"ĠThi":12387,"Ġà¦¹à¦ĩà¦¯":12388,"Ġà¦¹à¦Łà¦²":12389,"ĠGra":12390,"Ġà¦ĸà¦¤":12391,"inky":12392,"à¦¿à¦Ĥ-":12393,"à§¯à§Ń":12394,"Ġà§ªà§¦à§¦":12395,"à¦ıà¦¨à¦ıà¦¸":12396,"à¦ıà¦¸à¦ĩ":12397,"Ġà¦¨à¦¬à¦ľ":12398,"Ġà¦¬à¦¸à¦¨":12399,"Ġà¦¨à¦°à¦®":12400,"ĠSed":12401,"ĠDW":12402,"usty":12403,"Ġjay":12404,"Ġseconds":12405,"ucation":12406,"Ġgangbang":12407,"54":12408,"à¦Ĺà¦ĩ":12409,"aby":12410,"Ġà§¨à§¦à§¦à§§":12411,"Ġimages":12412,"Ġà¦·à¦·":12413,"à¦®à¦ªà¦°":12414,"à¦ľà¦īà¦¦":12415,"ĠHouse":12416,"ĠLight":12417,"Ġà¦«à¦¨":12418,"Ġà¦«à¦¤":12419,"Ġà¦ıà¦ķà¦¦à¦²":12420,"outlook":12421,"Ġjizz":12422,"à¦ĺà¦ķ":12423,"ĠSham":12424,"Ġà§¬à§¬":12425,"ĠRequ":12426,"à¦ħà¦¬à¦¶":12427,"Ġà¦ĺà¦Łà¦²":12428,"Ġà§¦à§§à§Ńà§©à§¦":12429,"à§®à§®à§¬":12430,"Ġwhores":12431,"how":12432,"à¦¾__":12433,"Ġ---":12434,"Ġà¦Ĩà¦ľà¦®":12435,"azz":12436,"Ġâľ":12437,"Ġà§¦à§§à§®à§§à§¯":12438,"oro":12439,"Ġcu":12440,"ĠAim":12441,"ĠMam":12442,"Ġstates":12443,"à¦£à¦ª":12444,"à§Ĥà¦ģ":12445,"Ġsmoke":12446,"à¦ħà¦§":12447,"Ġpenet":12448,"âĢįâĢį":12449,"Ġkitchen":12450,"Ġweeks":12451,"aculate":12452,"Ġtwink":12453,"Ġà§®à§¯":12454,"à¦°à¦ªà¦°à¦ĵ":12455,"An":12456,"bre":12457,"inter":12458,"à¦¼à¦¿à¦Ĥ":12459,"itter":12460,"à§ĭâĢ¦":12461,"à¦Ĺà¦ªà¦¤":12462,"à¦¡à¦ĵà¦¯":12463,"Ġà¦ħà¦¹":12464,"ĠMond":12465,"uel":12466,"à§«à§¨à§Ń":12467,"abs":12468,"ĠNote":12469,"à¦ıà¦¸à¦ıà¦¸":12470,"ĠTags":12471,"SE":12472,"gger":12473,"Ġà¦ķà¦¦à¦°":12474,"ĠSister":12475,"add":12476,"à§©à§§à§¦à§¦":12477,"à¦¶à¦¨à¦ķ":12478,"à§«à§¦à§©":12479,"ĠTutor":12480,"ĠEarth":12481,"ĠMonday":12482,"gent":12483,"yr":12484,"Ġcod":12485,"ĠTor":12486,"hic":12487,"Ġà¦ĸà¦²":12488,"icle":12489,"ĠInc":12490,"Ġà§¯à§®":12491,"Ġstrapon":12492,"Ġcopy":12493,"41":12494,"corner":12495,"mark":12496,"ville":12497,"Ġbub":12498,"Ġà¦¬à§İà¦¸à¦°":12499,"ĠAug":12500,"à¦ĩà¦®à¦¬":12501,"ĠMer":12502,"Ġwebs":12503,"ĠPle":12504,"ĠFan":12505,"Ġà¦īà¦¸":12506,"isted":12507,"à¦Ĩà¦¸":12508,"à§¯à§¬":12509,"ĠStr":12510,"à¦ıà¦¸à¦ª":12511,"Ġposted":12512,"Ġbrooks":12513,"Ġsedu":12514,"ez":12515,"à¦²à¦ľà¦¯":12516,"Ġps":12517,"ĠAL":12518,"à¦¼à§ĩ...":12519,"ĠFred":12520,"anda":12521,"à¦ŀà¦°":12522,"olution":12523,"Ġshowing":12524,"à§¨à§¦à§§à§©":12525,"Ġà¦Ĩà¦«à¦°":12526,"à¦°à¦«à¦ķ":12527,"à¦¿__":12528,"Ġà¦ªà¦ª":12529,"ĠAut":12530,"à¦ĩà¦ĸ":12531,"ĠBro":12532,"ĠLa":12533,"ĠFam":12534,"Ġbroo":12535,"pple":12536,"Ġà¦ıà¦ĩà¦Ł":12537,"ĠDoing":12538,"Ġà§¨à§¦à§¦à§ª":12539,"Ġbubble":12540,"ĠFreder":12541,"ux":12542,"Ġmam":12543,"haw":12544,"isc":12545,"à¦Łà¦Ľ":12546,"Ġge":12547,"à¦ĩà¦ļ":12548,"utiful":12549,"ading":12550,"ashing":12551,"ĠDi":12552,"ĠEs":12553,"à¦ıà¦®à¦¬":12554,"ists":12555,"âĢĻâĢĻ":12556,"Ġà¦ıà¦ĩà¦¸à¦¬":12557,"acent":12558,"à§¨à§¦à§§à§ª":12559,"Ġtape":12560,"ĠFriend":12561,"Ġverified":12562,"Ġfingering":12563,"Ġinformation":12564,"Ġpictures":12565,"Ġcelebr":12566,"MEN":12567,"mod":12568,"Ġtab":12569,"org":12570,"Ġpump":12571,"ĠHu":12572,"ĠMir":12573,"ĠLearn":12574,"ĠRoy":12575,"aky":12576,"ppers":12577,"ĠJew":12578,"à§®à§ª":12579,"ĠShort":12580,"Ġà§¦à§©à§§":12581,"ection":12582,"mus":12583,"nz":12584,"Ġla":12585,"Ġthigh":12586,"othed":12587,"à¦¶à¦¸à¦¹":12588,"utor":12589,"ĠHung":12590,"ĠChange":12591,"ĠME":12592,"hers":12593,"Ġsol":12594,"ĠDra":12595,"Ġà¦Łà¦Ļ":12596,"Ġbrut":12597,"Ġworking":12598,"ĠNotice":12599,"udes":12600,"ierced":12601,"Ġholes":12602,"à§¨à§¦à§¦à§¯":12603,"ĠQuit":12604,"ucing":12605,"''":12606,"How":12607,"bout":12608,"Ġcoc":12609,"Ġà¦¬à¦¸à¦²":12610,"Ġnation":12611,"stit":12612,"ĠBare":12613,"à¦§à¦ķà¦¤":12614,"ĠMaid":12615,"ĠLO":12616,"ĠRain":12617,"hank":12618,"ĠVar":12619,"à¦°à¦£à¦ķ":12620,"Ġhog":12621,"Ġà¦Ĩà¦¸à¦ķ":12622,"Ġrubs":12623,"ĠLucy":12624,"à¦Łà¦¸à¦ħ":12625,"ĠTurns":12626,"à§¬à§®à§§à§¨à§§à§ª":12627,"Ġà§¦à§§à§Ńà§§à§¨à§®à§®à§¬":12628,"Ġà§¦à§§à§Ńà§§à§Ńà§¬à§®à§§à§¨à§§à§ª":12629,"Ġgorgeous":12630,"à§Ńà§¨à§¬à§«à§¨à§Ń":12631,"Ġà§¦à§§à§Ńà§§à§¨à§®à§®à§¬à§«à§¦à§©":12632,"late":12633,"heart":12634,"ishe":12635,"Ġfel":12636,"ĠIng":12637,"Ġcats":12638,"Ġà¦¸à¦ĩ":12639,"Ġlan":12640,"Ġhack":12641,"iry":12642,"Ġà¦¦à¦°à¦¬":12643,"ĠCount":12644,"ĠCoun":12645,"ĠFerd":12646,"ĠDru":12647,"ĠNort":12648,"ĠVis":12649,"ody":12650,"dex":12651,"à§İà¦¸à¦¬":12652,"ccess":12653,"Ġà§®à§ª":12654,"astern":12655,"Ġchannel":12656,"Ġenjoying":12657,"Ġlucky":12658,"perienced":12659,"boys":12660,"Ġholiday":12661,"ĠThieves":12662,"uct":12663,"ween":12664,"à¦¿âĢĿ":12665,"Ġaut":12666,"inish":12667,"Ġbal":12668,"orks":12669,"Ġfours":12670,"itle":12671,"Ġdiff":12672,"Ġhttps":12673,"atisf":12674,"omy":12675,"Ġà¦®à¦®":12676,"Ġep":12677,"ĠFore":12678,"Ġsext":12679,"hips":12680,"hod":12681,"Ġshy":12682,"Ġjug":12683,"ulling":12684,"Ġrubb":12685,"orship":12686,"ĠBoot":12687,"ĠAlb":12688,"plus":12689,"Ġsurprise":12690,"Ġcitizen":12691,"Ġstories":12692,"Ġunex":12693,"ĠGolden":12694,"ĠAlexander":12695,"Kinky":12696,"mor":12697,"mouth":12698,"à¦ķà¦«":12699,"Ġtot":12700,"oming":12701,"Ġindex":12702,"à¦¹à¦¦":12703,"imer":12704,"ĠSure":12705,"ĠSafe":12706,"à¦ĸà¦£":12707,"amour":12708,"ĠPot":12709,"Ġlic":12710,"âĢĭ":12711,"ĠForce":12712,"à¦ıà¦¸à¦¬":12713,"ĠInj":12714,"Ġstrangers":12715,"Ġalt":12716,"Ġarts":12717,"ĠArg":12718,"Ġcasting":12719,"ouncing":12720,"ĠSuccess":12721,"Ġengine":12722,"ĠAccept":12723,"ĠDivine":12724,"ĠXXXKinky":12725,"ĠALL":12726,"ops":12727,"ology":12728,"west":12729,"wall":12730,"Ġtu":12731,"Ġsall":12732,"à¦¤à¦¥":12733,"eral":12734,"Ġcities":12735,"Ġcamp":12736,"Ġdul":12737,"Ġpins":12738,"Ġpolit":12739,"atal":12740,"stal":12741,"ĠWear":12742,"Ġà¦¦à¦°à¦ªà¦¤":12743,"ĠSpl":12744,"ĠSugg":12745,"Ġeastern":12746,"ride":12747,"ĠPast":12748,"cked":12749,"Ġà¦Ĺà¦®":12750,"ĠDaughter":12751,"tern":12752,"ĠKiss":12753,"Ġprank":12754,"lope":12755,"atching":12756,"à§®à§Ń":12757,"à¦¼à¦¿à¥¤":12758,"Ġleather":12759,"Ġsmack":12760,"Ġapple":12761,"ilding":12762,"ĠUnf":12763,"ounts":12764,"ĠNeg":12765,"ashion":12766,"Ġfields":12767,"Ġcrot":12768,"Ġwatching":12769,"ĠCapel":12770,"ĠHeart":12771,"active":12772,"brary":12773,"ĠProfess":12774,"ĠDrop":12775,"Ġcocke":12776,"ĠNortham":12777,"Sir":12778,"cad":12779,"ece":12780,"oise":12781,"phe":12782,"tage":12783,"wind":12784,"Ġavail":12785,"à¦¤à¦ķà¦°":12786,"orable":12787,"Ġcel":12788,"Ġclip":12789,"Ġoil":12790,"oted":12791,"Ġinvest":12792,"Ġhay":12793,"ĠSout":12794,"Ġà¦ľà¦¸":12795,"ĠLaid":12796,"assed":12797,"ĠFast":12798,"ĠGoogle":12799,"Ġà¦Ĺà¦ľ":12800,"Ġconn":12801,"ilities":12802,"uls":12803,"igate":12804,"Ġsheet":12805,"unction":12806,"ounding":12807,"Ġcontain":12808,"Ġà¦Ĩà¦¨à¦¬":12809,"Ġscri":12810,"Ġà¦Ĩà¦ľà¦ĩ":12811,"ugging":12812,"reading":12813,"uding":12814,"Ġglance":12815,"ĠWash":12816,"ĠLooks":12817,"beli":12818,"plain":12819,"Ġà¦ĺà¦Łà¦¤":12820,"Ġgarter":12821,"arism":12822,"Ġvictor":12823,"à¦°à¦«à¦°à¦®":12824,"URE":12825,"ĠAdrian":12826,"Ġhurry":12827,"Ġpublish":12828,"ĠItalian":12829,"therea":12830,"porate":12831,"Ġhyp":12832,"'ve":12833,"Cor":12834,"HER":12835,"When":12836,"creat":12837,"fast":12838,"maker":12839,"point":12840,"phin":12841,"Ġtalks":12842,"Ġsci":12843,"à¦¬à¦Ĺ":12844,"Ġbull":12845,"Ġfay":12846,"Ġcri":12847,"à¦¸à¦¯":12848,"Ġdawn":12849,"Ġnut":12850,"Ġlave":12851,"Ġpies":12852,"ĠTaste":12853,"ĠTIT":12854,"ĠAllow":12855,"seed":12856,"ĠWood":12857,"Ġinches":12858,"imy":12859,"ĠSea":12860,"ĠSorry":12861,"ĠHour":12862,"Ġreli":12863,"Ġsty":12864,"oosing":12865,"Ġeats":12866,"rip":12867,"ĠLascivious":12868,"amps":12869,"Ġker":12870,"omeo":12871,"roying":12872,"Ġsect":12873,"rave":12874,"à¦ĵà¦ª":12875,"ĠDone":12876,"thread":12877,"Ġvar":12878,"Ġvideos":12879,"Ġà¦¸à¦®à¦¤":12880,"ĠViews":12881,"ements":12882,"arting":12883,"onely":12884,"Ġsheer":12885,"fered":12886,"alley":12887,"ĠAsk":12888,"Ġsetting":12889,"reation":12890,"Ġrat":12891,"Ġ200":12892,"agon":12893,"à¦°à¦¸à¦¬":12894,"oused":12895,"Ġfeels":12896,"Ġbegs":12897,"Ġpeep":12898,"comb":12899,"ĠDesire":12900,"Ġsubmit":12901,"ĠEngage":12902,"domin":12903,"Ġorders":12904,"Ġposture":12905,"Ġpayment":12906,"ĠKeeps":12907,"Ġdestroying":12908,"Ġinside":12909,"Ġwalking":12910,"Ġfucks":12911,"ĠPerform":12912,"Ġeducation":12913,"Ġbottle":12914,"Ġmagn":12915,"Ġdrive":12916,"Ġinvite":12917,"Ġtails":12918,"ĠSitting":12919,"ĠRobert":12920,"Ġdefects":12921,"ĠHugh":12922,"ĠLOV":12923,"77":12924,"Rem":12925,"Than":12926,"bler":12927,"crow":12928,"eing":12929,"flow":12930,"goose":12931,"hors":12932,"ipher":12933,"lant":12934,"mend":12935,"oat":12936,"pile":12937,"pray":12938,"roth":12939,"rons":12940,"viol":12941,"hearts":12942,"Ġsout":12943,"inary":12944,"Ġwi":12945,"itary":12946,"ĠIron":12947,"Ġcull":12948,"Ġdau":12949,"Ġdump":12950,"Ġpang":12951,"arling":12952,"ĠTick":12953,"Ġà¦Ĩà¦ķà¦¤":12954,"aned":12955,"Ġgun":12956,"etry":12957,"ĠWish":12958,"ĠWords":12959,"cell":12960,"Ġhal":12961,"Ġhammer":12962,"ayn":12963,"ĠSith":12964,"ĠBeen":12965,"Ġmeas":12966,"ĠHoo":12967,"ĠCertain":12968,"Ġstif":12969,"adition":12970,"entation":12971,"urre":12972,"uries":12973,"urious":12974,"riff":12975,"Ġitch":12976,"ĠOly":12977,"ĠPretty":12978,"ĠFine":12979,"ĠGave":12980,"ĠGonz":12981,"idity":12982,"ĠRise":12983,"Ġseed":12984,"ushed":12985,"Ġlibrary":12986,"ĠDull":12987,"ĠDeny":12988,"ifs":12989,"ifies":12990,"ificial":12991,"ĠEns":12992,"ĠEmb":12993,"izes":12994,"three":12995,"Ġdoff":12996,"Ġwillow":12997,"Ġà¦ªà¦°à¦¸":12998,"Ġnephe":12999,"andon":13000,"ĠKill":13001,"ĠKings":13002,"ĠKilling":13003,"quer":13004,"lict":13005,"anting":13006,"Ġbloss":13007,"Ġgobl":13008,"aucas":13009,"Ġorange":13010,"Ġproc":13011,"Ġspies":13012,"Ġholl":13013,"death":13014,"Ġenviron":13015,"apert":13016,"ĠWeigh":13017,"Ġrice":13018,"avel":13019,"Ġeyed":13020,"rowns":13021,"utton":13022,"Ġtwin":13023,"Ġcontend":13024,"Ġcontains":13025,"pathy":13026,"Ġcouch":13027,"Ġanything":13028,"Ġstandards":13029,"Ġscand":13030,"Ġscale":13031,"Ġscared":13032,"Ġrav":13033,"angle":13034,"sweet":13035,"Ġreplen":13036,"ĠProcure":13037,"Ġsleeves":13038,"pian":13039,"ĠDesires":13040,"ĠDeserves":13041,"Ġaccent":13042,"Ġcox":13043,"Ġcoin":13044,"Ġcounts":13045,"Ġfunctions":13046,"Ġlawy":13047,"Ġglit":13048,"ĠReward":13049,"ĠReceive":13050,"Ġmeets":13051,"Ġkills":13052,"Ġlessons":13053,"Ġchin":13054,"Ġsunset":13055,"ĠHerbert":13056,"Ġvoid":13057,"Ġevening":13058,"Ġcareer":13059,"Ġblowing":13060,"Ġclos":13061,"ĠLooking":13062,"Ġcarbon":13063,"Ġà¦ıà¦¤à¦Ł":13064,"Ġsincer":13065,"ourses":13066,"Ġflying":13067,"Ġordered":13068,"Ġtouching":13069,"Ġfitness":13070,"Ġnobody":13071,"beat":13072,"Ġminim":13073,"ĠDead":13074,"lical":13075,"Ġpromot":13076,"Ġ!!!":13077,"Ġbabies":13078,"Ġtroubles":13079,"Ġdreaded":13080,"à§®à§®à§¦à§§à§Ń":13081,"Ġopport":13082,"Ġprincip":13083,"Ġunwise":13084,"Ġencounters":13085,"Ġrefer":13086,"Ġteaching":13087,"Ġlaughing":13088,"amples":13089,"Ġrooted":13090,"velling":13091,"Ġesp":13092,"shell":13093,"Ġdelightful":13094,"Ġpinched":13095,"Ġpipe":13096,"Ġswallowed":13097,"Ġconducted":13098,"ĠJacks":13099,"Ġmillion":13100,"Ġfigured":13101,"ĠLaugh":13102,"Ġpotent":13103,"Ġfactor":13104,"ĠGrim":13105,"ĠGreek":13106,"Ġnicely":13107,"ĠEmperor":13108,"Ġgamb":13109,"Ġchampions":13110,"Ġyesterday":13111,"ĠCytherea":13112,"iddler":13113,"Ġviper":13114,"ĠPresent":13115,"bridge":13116,"Ġanswers":13117,"Ġreligion":13118,"ĠSaddle":13119,"ĠBarb":13120,"Ġivy":13121,"Ġcollected":13122,"ĠBreton":13123,"Ġbias":13124,"ĠFrederick":13125,"ĠCounsel":13126,"ĠVisit":13127,"orkshire":13128,"Ġlicence":13129,"ĠSuggest":13130,"Ġhypoc":13131,"Ġvariable":13132,"Thanks":13133,"Ġsouthern":13134,"ĠCertainly":13135,"Ġnephew":13136,"Ġsincerity":13137,"Ġprincipal":13138,"Alas":13139,"Bless":13140,"Come":13141,"Citiz":13142,"Courage":13143,"Charge":13144,"Faith":13145,"Have":13146,"Hold":13147,"HEY":13148,"Romeo":13149,"Sic":13150,"True":13151,"Ver":13152,"Whoop":13153,"Yea":13154,"bling":13155,"bishop":13156,"cass":13157,"cold":13158,"cote":13159,"dish":13160,"dges":13161,"doubt":13162,"dhak":13163,"fes":13164,"fond":13165,"fied":13166,"fellows":13167,"gess":13168,"gentle":13169,"gments":13170,"hings":13171,"honour":13172,"lars":13173,"luous":13174,"much":13175,"mock":13176,"macy":13177,"masters":13178,"mpathy":13179,"nant":13180,"nity":13181,"nock":13182,"oever":13183,"plight":13184,"pointed":13185,"polit":13186,"rine":13187,"roop":13188,"rimony":13189,"sim":13190,"sorrow":13191,"silver":13192,"tong":13193,"tide":13194,"uance":13195,"uities":13196,"uiced":13197,"vial":13198,"voc":13199,"vors":13200,"would":13201,"why":13202,"worn":13203,"zes":13204,"Ġess":13205,"Ġounce":13206,"Ġtesty":13207,"Ġtush":13208,"Ġtarget":13209,"Ġtires":13210,"Ġtilth":13211,"Ġtables":13212,"Ġtaming":13213,"Ġthaw":13214,"heres":13215,"heathe":13216,"heasant":13217,"Ġaed":13218,"Ġaus":13219,"Ġache":13220,"Ġsce":13221,"Ġsainted":13222,"Ġsip":13223,"ĠĠĊ":13224,"ouched":13225,"ourest":13226,"inest":13227,"inand":13228,"inence":13229,"Ġmoth":13230,"Ġmol":13231,"Ġmalm":13232,"Ġmuddy":13233,"Ġmutton":13234,"Ġwive":13235,"Ġwool":13236,"Ġwield":13237,"Ġwaded":13238,"reth":13239,"regs":13240,"recy":13241,"regia":13242,"Ġbout":13243,"Ġbower":13244,"Ġbough":13245,"Ġbits":13246,"Ġbled":13247,"Ġbars":13248,"Ġbaked":13249,"Ġborough":13250,"Ġbunch":13251,"orged":13252,"orporate":13253,"erness":13254,"ercies":13255,"erbear":13256,"isans":13257,"Ġfert":13258,"Ġfurl":13259,"Ġfade":13260,"Ġfined":13261,"Ġfume":13262,"Ġfaded":13263,"Ġfishes":13264,"Ġfuel":13265,"itied":13266,"itution":13267,"iteful":13268,"lled":13269,"Ġcoy":13270,"Ġcable":13271,"Ġcured":13272,"Ġcakes":13273,"Ġcures":13274,"Ġcape":13275,"Ġcipher":13276,"Ġdart":13277,"Ġdive":13278,"Ġdall":13279,"Ġdub":13280,"Ġdough":13281,"Ġdates":13282,"Ġdirt":13283,"Ġdaunt":13284,"Ġdally":13285,"Ġdaff":13286,"Ġdurance":13287,"Ġdarts":13288,"Ġdumps":13289,"Ġdregs":13290,"enious":13291,"esnes":13292,"Ġnim":13293,"Ġnuts":13294,"Ġlear":13295,"Ġlure":13296,"Ġlime":13297,"Ġlatter":13298,"Ġlump":13299,"Ġlances":13300,"Ġlouring":13301,"Ġlackey":13302,"Ġlitter":13303,"Ġply":13304,"Ġpru":13305,"Ġpea":13306,"Ġpout":13307,"Ġpond":13308,"Ġpence":13309,"Ġpile":13310,"Ġponder":13311,"Ġplight":13312,"Ġpelting":13313,"Ġphra":13314,"Ġpensive":13315,"Ġpheasant":13316,"Ġthimble":13317,"ĠTears":13318,"ĠTread":13319,"ĠTemper":13320,"Ġhound":13321,"Ġhides":13322,"Ġhoop":13323,"Ġhunts":13324,"Ġhugg":13325,"Ġtore":13326,"Ġtoes":13327,"Ġtokens":13328,"hating":13329,"stain":13330,"stones":13331,"staring":13332,"otent":13333,"vex":13334,"vels":13335,"Ġhewn":13336,"Ġheated":13337,"Ġhearers":13338,"Ġheaved":13339,"ominable":13340,"anor":13341,"anied":13342,"anched":13343,"Ġgas":13344,"Ġgore":13345,"Ġgest":13346,"Ġgale":13347,"Ġgird":13348,"Ġgav":13349,"Ġgazed":13350,"Ġgasp":13351,"Ġgilly":13352,"Ġghast":13353,"à¦ľà¦Ļ":13354,"ĠWot":13355,"ĠWind":13356,"ĠWise":13357,"ĠWorth":13358,"ĠWrench":13359,"ĠWipe":13360,"Ġbeck":13361,"Ġbede":13362,"Ġbeards":13363,"Ġbeheaded":13364,"Ġbemo":13365,"cease":13366,"ceiving":13367,"Ġinher":13368,"Ġinforced":13369,"Ġinex":13370,"Ġinhum":13371,"Ġhagg":13372,"Ġhaunts":13373,"à¦·à¦Ń":13374,"ldst":13375,"chion":13376,"ĠSpare":13377,"ĠBER":13378,"ĠBless":13379,"ĠBrief":13380,"ĠBayn":13381,"ithmet":13382,"Ġmeek":13383,"Ġnotable":13384,"Ġnothings":13385,"ĠHann":13386,"ĠHacket":13387,"ĠCARD":13388,"ĠCret":13389,"ĠCuts":13390,"ĠCulling":13391,"ĠCrowns":13392,"Ġreins":13393,"Ġreek":13394,"Ġreduce":13395,"Ġrevoke":13396,"ĠMort":13397,"ĠMatter":13398,"ĠMortal":13399,"Ġstake":13400,"Ġstings":13401,"Ġstation":13402,"Ġstew":13403,"Ġstair":13404,"Ġstains":13405,"Ġstaves":13406,"Ġstony":13407,"Ġsticks":13408,"Ġstumbling":13409,"Ġstalls":13410,"Ġstamps":13411,"Ġfork":13412,"Ġforged":13413,"Ġforges":13414,"Ġforfeits":13415,"Ġforfend":13416,"urally":13417,"ooing":13418,"keeping":13419,"Ġwithholds":13420,"Ġwean":13421,"Ġwealt":13422,"Ġelected":13423,"illius":13424,"illars":13425,"rius":13426,"herds":13427,"Ġasks":13428,"Ġasunder":13429,"Ġassemble":13430,"ĠOurse":13431,"ĠLed":13432,"ĠLament":13433,"Ġdeem":13434,"Ġdeity":13435,"Ġdeign":13436,"Ġdeput":13437,"asury":13438,"ĠPed":13439,"ĠPra":13440,"ĠPity":13441,"Ġhiss":13442,"ĠGro":13443,"ĠGrief":13444,"ideth":13445,"idels":13446,"ĠRage":13447,"roses":13448,"ĠThee":13449,"Ġsew":13450,"Ġsemb":13451,"Ġseeds":13452,"Ġseats":13453,"Ġseals":13454,"Ġselves":13455,"usest":13456,"uspect":13457,"Ġliver":13458,"Ġsops":13459,"Ġsoever":13460,"Ġsoothing":13461,"Ġsoothe":13462,"raction":13463,"rains":13464,"ĠDry":13465,"ĠDuring":13466,"peer":13467,"ĠNea":13468,"Ġshaped":13469,"Ġconv":13470,"Ġconvenient":13471,"hily":13472,"ĠYorkshire":13473,"ĠEcho":13474,"ĠEthi":13475,"ĠEleven":13476,"genders":13477,"thou":13478,"Ġdoers":13479,"Ġnost":13480,"Ġnodd":13481,"Ġnoisome":13482,"iless":13483,"iliments":13484,"aths":13485,"Ġà¦ĩà¦¦":13486,"Ġnecks":13487,"Ġally":13488,"Ġallied":13489,"Ġmaw":13490,"Ġmaim":13491,"Ġmakest":13492,"ĠThrew":13493,"Ġvail":13494,"Ġvaunt":13495,"Ġvouchsafe":13496,"Ġvouches":13497,"Ġvizard":13498,"Ġvitae":13499,"Ġvalley":13500,"ĠKates":13501,"Ġlogs":13502,"Ġlosing":13503,"Ġlolling":13504,"Ġlogger":13505,"ĠVile":13506,"ĠVAU":13507,"ortive":13508,"ques":13509,"quent":13510,"quire":13511,"ellist":13512,"Ġfaster":13513,"igs":13514,"igen":13515,"igree":13516,"Ġcomfor":13517,"holesome":13518,"Ġknack":13519,"Ġknots":13520,"emns":13521,"emaker":13522,"liest":13523,"Ġlethar":13524,"Ġletting":13525,"urned":13526,"urnish":13527,"Ġshin":13528,"Ġshining":13529,"Ġarrog":13530,"Ġarraign":13531,"Ġarithmet":13532,"Ġprone":13533,"Ġproro":13534,"Ġatone":13535,"Ġmanors":13536,"Ġblench":13537,"Ġblushes":13538,"Ġblank":13539,"Ġblanks":13540,"oneous":13541,"ĠWhatever":13542,"Ġample":13543,"Ġampl":13544,"Ġsheath":13545,"Ġshelves":13546,"Ġshearers":13547,"eaf":13548,"Ġretail":13549,"ĠFors":13550,"ĠForward":13551,"ĠForsw":13552,"ĠForced":13553,"Ġjar":13554,"Ġjars":13555,"Ġjaunt":13556,"Ġjades":13557,"ĠHeld":13558,"Ġusest":13559,"Ġusual":13560,"Ġhates":13561,"Ġthereon":13562,"Ġtherewithal":13563,"Ġcanon":13564,"Ġcancell":13565,"arell":13566,"arewell":13567,"vener":13568,"venged":13569,"few":13570,"feiting":13571,"Ġswan":13572,"Ġswept":13573,"Ġswarm":13574,"Ġloveth":13575,"Ġlovelier":13576,"Ġhereof":13577,"Ġheretic":13578,"Ġbrood":13579,"Ġbrats":13580,"Ġorb":13581,"Ġorison":13582,"Ġorators":13583,"Ġoratory":13584,"allible":13585,"pton":13586,"icat":13587,"iceth":13588,"Ġquond":13589,"Ġquaff":13590,"odils":13591,"Ġunho":13592,"Ġunres":13593,"Ġunable":13594,"Ġunfort":13595,"Ġunking":13596,"Ġungr":13597,"Ġunset":13598,"Ġunpar":13599,"Ġungovern":13600,"Ġunadvised":13601,"Ġunpeople":13602,"Ġunquiet":13603,"loving":13604,"losed":13605,"ĠAscend":13606,"Ġproves":13607,"Ġpropose":13608,"Ġprolix":13609,"Ġprolong":13610,"Ġprobation":13611,"Ġprovoke":13612,"Ġhandled":13613,"Ġhandker":13614,"KELEY":13615,"olate":13616,"olation":13617,"olerable":13618,"Ġsetter":13619,"Ġdefiance":13620,"Ġdefaced":13621,"Ġspright":13622,"Ġspray":13623,"Ġspawn":13624,"Ġsparks":13625,"Ġspacious":13626,"Ġsprung":13627,"Ġgraver":13628,"Ġgrains":13629,"Ġgravity":13630,"Ġhoard":13631,"Ġhoping":13632,"Ġawaking":13633,"Ġawaken":13634,"Ġawaked":13635,"Ġimpute":13636,"Ġimpiety":13637,"deliver":13638,"Ġsaves":13639,"Ġsaving":13640,"Ġmadmen":13641,"Ġplough":13642,"Ġplots":13643,"Ġplume":13644,"Ġplagues":13645,"Ġrescued":13646,"abond":13647,"abouts":13648,"Ġpoets":13649,"Ġpoetry":13650,"Ġensu":13651,"Ġengenders":13652,"Ġrar":13653,"Ġrite":13654,"Ġrang":13655,"Ġrange":13656,"Ġrounds":13657,"Ġrayed":13658,"Ġrhyme":13659,"Ġoutside":13660,"Ġfrivol":13661,"Ġhowling":13662,"aph":13663,"Ġupholds":13664,"ĠWeeping":13665,"Ġwhoever":13666,"ignation":13667,"ĠIncl":13668,"ĠIniquity":13669,"ĠInquire":13670,"Ġriot":13671,"Ġrift":13672,"Ġrider":13673,"Ġribs":13674,"Ġricher":13675,"Ġmarches":13676,"Ġofficious":13677,"Ġdisb":13678,"Ġdisli":13679,"Ġdisfig":13680,"Ġdispose":13681,"Ġclout":13682,"Ġcloth":13683,"Ġclime":13684,"Ġclang":13685,"Ġclutch":13686,"Ġclusters":13687,"ubbering":13688,"ĠOft":13689,"berate":13690,"berries":13691,"Ġhearken":13692,"Ġhearkens":13693,"acre":13694,"Ġexiled":13695,"Ġexamples":13696,"Ġabound":13697,"Ġabides":13698,"Ġabandon":13699,"Ġabominable":13700,"Ġabortive":13701,"Ġbloods":13702,"Ġfoem":13703,"Ġfoison":13704,"Ġearls":13705,"Ġroe":13706,"Ġrobe":13707,"Ġroots":13708,"Ġroared":13709,"ĠHowe":13710,"ensible":13711,"agion":13712,"agued":13713,"agabond":13714,"Ġdesiring":13715,"Ġdeserving":13716,"Ġdesperation":13717,"Ġdescried":13718,"Ġgentlewomen":13719,"Ġartificial":13720,"Ġcommune":13721,"ĠBehind":13722,"ĠBegg":13723,"ĠMarquis":13724,"Ġwarp":13725,"Ġhonourably":13726,"Ġbetake":13727,"ĠWhereby":13728,"Ġtwos":13729,"Ġtwigs":13730,"Ġcontagion":13731,"Ġhastily":13732,"ĠWhoever":13733,"ictment":13734,"Ġcouched":13735,"Ġbreech":13736,"Ġbreeder":13737,"Ġmenace":13738,"Ġafire":13739,"Ġafresh":13740,"reech":13741,"Ġpartisans":13742,"Ġslower":13743,"Ġslug":13744,"Ġslumber":13745,"Ġslavish":13746,"Ġadds":13747,"Ġadmon":13748,"etchy":13749,"STOP":13750,"Ġprecept":13751,"Ġprecip":13752,"Ġprenz":13753,"Ġpredomin":13754,"Ġstanders":13755,"ĠStabb":13756,"Ġpraying":13757,"Ġprayed":13758,"Ġsweeting":13759,"Ġperch":13760,"Ġperfid":13761,"Ġperceives":13762,"uckle":13763,"Ġtrample":13764,"strate":13765,"ĠTherein":13766,"ĠThereon":13767,"ĠThereof":13768,"Ġleash":13769,"Ġheadlong":13770,"Ġmeanest":13771,"Ġpresag":13772,"Ġpreservation":13773,"Ġprescription":13774,"Ġimports":13775,"Ġimportance":13776,"Ġimportuned":13777,"ĠAnointed":13778,"ĠSeem":13779,"Ġscarr":13780,"Ġscathe":13781,"Ġscurvy":13782,"onted":13783,"ainties":13784,"ĠLetters":13785,"cester":13786,"Ġrapt":13787,"Ġraged":13788,"Ġrags":13789,"Ġraising":13790,"Ġrazed":13791,"Ġremnant":13792,"Ġfeign":13793,"Ġfeigned":13794,"Ġrighteous":13795,"Ġfling":13796,"Ġflout":13797,"Ġflap":13798,"Ġflung":13799,"angled":13800,"Ġgraceful":13801,"Ġgraceless":13802,"Ġuntr":13803,"Ġuntaught":13804,"Ġuntainted":13805,"Ġunthank":13806,"Ġeyesight":13807,"psa":13808,"perly":13809,"landers":13810,"ĠShed":13811,"ĠSheriff":13812,"swoln":13813,"Ġrepro":13814,"Ġreproach":13815,"Ġreprehend":13816,"INAL":13817,"Ġbegn":13818,"Ġchildhood":13819,"Ġwombs":13820,"Ġvein":13821,"Ġconsents":13822,"Ġresting":13823,"Ġrestless":13824,"Ġrung":13825,"Ġruff":13826,"Ġharp":13827,"Ġsums":13828,"Ġentail":13829,"ercy":13830,"ercharged":13831,"ossed":13832,"Ġgrin":13833,"Ġgrateful":13834,"Ġbetters":13835,"ĠProvided":13836,"ĠProportion":13837,"Ġtribe":13838,"Ġtrident":13839,"Ġtrivial":13840,"Ġbestir":13841,"Ġbestrew":13842,"chest":13843,"chess":13844,"chets":13845,"Ġsleeve":13846,"Ġchaos":13847,"Ġchapel":13848,"ĠDeserved":13849,"ĠDeserve":13850,"Ġaccents":13851,"Ġaccusers":13852,"Ġaccustom":13853,"ĠShake":13854,"Ġgripe":13855,"Ġcompet":13856,"Ġendless":13857,"Ġkindle":13858,"Ġkindest":13859,"Ġguile":13860,"Ġguide":13861,"Ġguides":13862,"Ġtwofold":13863,"Ġcog":13864,"Ġcoil":13865,"Ġcoven":13866,"Ġcovet":13867,"Ġprig":13868,"Ġpurg":13869,"Ġpurity":13870,"Ġpurbl":13871,"Ġwitless":13872,"Ġwitty":13873,"meant":13874,"Ġfuneral":13875,"Ġsmear":13876,"Ġsmock":13877,"ledged":13878,"Ġsessions":13879,"Ġfinding":13880,"Stay":13881,"cloth":13882,"Ġtrack":13883,"Ġtrained":13884,"Ġtravel":13885,"Ġhighly":13886,"Ġhusbandry":13887,"Ġimplore":13888,"Ġbrake":13889,"Ġbraving":13890,"Ġbanns":13891,"twenty":13892,"ĠDogs":13893,"righted":13894,"Ġcheat":13895,"Ġcheques":13896,"Ġconfine":13897,"Ġconfessed":13898,"Ġconfounds":13899,"Ġconfident":13900,"Ġconflict":13901,"Ġcharter":13902,"rers":13903,"astery":13904,"Ġlawless":13905,"Ġservitor":13906,"Ġmista":13907,"Ġeverything":13908,"Ġopenly":13909,"ĠReason":13910,"ĠRebell":13911,"Ġdoubly":13912,"RISTOP":13913,"Ġpassages":13914,"Ġpassado":13915,"shaped":13916,"Ġlighted":13917,"Ġlightens":13918,"Ġnativity":13919,"Ġbeseeming":13920,"Ġthrongs":13921,"coff":13922,"Ġjustices":13923,"Ġjustified":13924,"Ġdevout":13925,"Ġdevised":13926,"Ġdevoted":13927,"Ġunderstood":13928,"Ġpardoning":13929,"Ġlasts":13930,"Ġlastly":13931,"Ġstately":13932,"Ġmisled":13933,"Ġmisdeed":13934,"Ġmisbe":13935,"Ġmischie":13936,"Ġmisadventure":13937,"Ġmisdoubt":13938,"Ġkilling":13939,"Ġapes":13940,"Ġapish":13941,"Ġapology":13942,"ildly":13943,"Ġlessen":13944,"Ġfollowed":13945,"Ġanswering":13946,"Ġtreasures":13947,"Ġtreasury":13948,"Ġchurl":13949,"Ġchoosing":13950,"Ġpatrimony":13951,"Ġfarmer":13952,"Ġfoolery":13953,"Ġhitherward":13954,"Ġinterr":13955,"Ġinterior":13956,"Ġinterpretation":13957,"Ġhelped":13958,"ĠAlmost":13959,"Ġà§§à§¨à§¦":13960,"Ġuncrown":13961,"Ġunconstant":13962,"Ġbrick":13963,"Ġbriers":13964,"Ġbridle":13965,"Ġthrows":13966,"Ġcourtship":13967,"Ġstee":13968,"Ġsteer":13969,"Ġstealth":13970,"rants":13971,"Ġstriving":13972,"Ġstrikes":13973,"Ġstrifes":13974,"ĠUnfold":13975,"alties":13976,"Ġworthless":13977,"Ġhumours":13978,"Ġhumorous":13979,"Ġassay":13980,"Ġoverta":13981,"Ġoverboard":13982,"Ġinstinct":13983,"Ġinstigation":13984,"ĠHerself":13985,"Ġthankings":13986,"Ġsounding":13987,"avius":13988,"Ġplayers":13989,"Ġplayfellow":13990,"Ġproveth":13991,"Ġcurb":13992,"Ġcurds":13993,"Ġcursing":13994,"Ġcurrish":13995,"Ġcurfew":13996,"Ġboat":13997,"Ġboil":13998,"Ġboatswain":13999,"Ġdelicious":14000,"Ġdelivers":14001,"Ġdeliberate":14002,"Ġcarefully":14003,"Ġbelie":14004,"Ġmerciless":14005,"Ġdoubts":14006,"Ġwantons":14007,"ereth":14008,"pecting":14009,"Ġrevenues":14010,"Ġtruths":14011,"Ġhangmen":14012,"okest":14013,"ĠResign":14014,"ĠResolved":14015,"ĠResolve":14016,"ĠCompare":14017,"Ġsecrecy":14018,"Ġnumbering":14019,"Ġadvantag":14020,"Ġfreeze":14021,"valued":14022,"Ġproudly":14023,"Ġbeaver":14024,"Ġchants":14025,"Ġstrains":14026,"ĠPOMPHEY":14027,"Ġcloy":14028,"Ġcloven":14029,"Ġcloister":14030,"Ġcracks":14031,"Ġmerits":14032,"Ġmerited":14033,"Ġappeach":14034,"Ġdenies":14035,"Ġdenier":14036,"Ġhorseman":14037,"Ġsupposes":14038,"Ġdrugs":14039,"Ġdrudge":14040,"Ġcarver":14041,"Ġcarved":14042,"Ġcarters":14043,"Ġcarriage":14044,"Ġcarcass":14045,"bya":14046,"Ġmonastery":14047,"Ġwinning":14048,"Ġpersonally":14049,"Ġspoiled":14050,"ĠHaste":14051,"Ġunclean":14052,"Ġmettle":14053,"Ġmethod":14054,"Ġsinful":14055,"Ġsadd":14056,"Ġgeneration":14057,"Ġgenerally":14058,"Ġthroughout":14059,"Ġpurposed":14060,"ĠLibya":14061,"Ġchoked":14062,"Ġdeposing":14063,
[...]
