#version: 0.2
à ¦
à §
Ġ à¦
à¦ ¾
à¦ °
à§ į
à§ ĩ
Ġ t
à¦ ¿
h e
à¦ ¨
Ġ a
Ġ s
Ġ Ġ
o u
à¦ ¯
i n
Ġ m
à¦ ķ
Ġ w
à¦ ¤
r e
h a
à¦ ²
à¦ ¬
o n
Ġ b
Ġt he
à¦ ¼
n d
Ġ Ċ
à¦ ®
o r
e r
i s
Ġ f
i t
à§ ģ
Ġ I
l l
Ġ c
à¦ ¸
Ġ d
Ġà¦ ¸
e n
Ġà¦ ¬
Ġà¦ ķ
e s
Ġ n
Ġ l
à¦ ¦
Ġà¦ ª
Ġ y
Ġ p
à§ ĭ
a r
Ġt h
à¦ Ł
Ġ o
Ġ T
Ġ h
Ġt o
a t
à¦ ª
Ġy ou
ha t
s t
Ġ A
in g
à§ Ģ
s e
o t
v e
Ġ he
o m
Ġà¦ Ĩ
o w
Ġa nd
a n
Ġo f
Ġà¦ ®
Ġ g
à¦ ¶
e t
ĠĠ ĠĠ
à¦ ľ
à¦ Ĺ
Ġ W
Ġà¦ ¨
à¦ ĩ
Ġb e
à ¥
Ġà¦ ı
à¥ ¤
l e
c e
Ġ in
Ġ ha
Ġ à§
Ġm y
à¦ ·
ĠĠ Ġ
Ġà¦ ¹
à¦ ¹
a y
u t
à¦ ¡
e d
i r
l d
Ġà¦ ¦
i m
c h
Ġ S
à¦ Ľ
à¦¼ à§ĩ
Ġ B
à¦ §
it h
Ġà¦ķ à¦°
Ġà¦ ħ
Ġ u
Ġm e
Ġà¦ ľ
à¦¼ à¦¾
Ġn ot
Ġ H
' s
à¦ Ĥ
g h
Ġ C
Ġ re
Ġ M
Ġt hat
Ġ is
Ġs t
a d
ĠA nd
Ġf or
en t
u r
à¦ ļ
o o
k e
Ġw ith
Ġà¦ ¤
Ġw e
ou r
Ġ e
a l
i ll
r i
à¦ ¥
he r
Ġ it
Ġa s
Ġ O
Ġà¦ ¶
§ à§
Ġyou r
à¦ £
Ġ L
Ġd e
Ġà¦ °
Ġth ou
à¦ ĸ
a s
à¦ Ń
gh t
a m
Ġ on
Ġ k
om e
' d
Ġ P
l f
Ġh is
Ġ F
Ġ G
i d
Ġ R
E N
or d
Ġà¦ ¯
r o
ĠT he
c k
Ġha ve
Ġs e
u s
l y
I N
Ġh im
Ġl i
Ġà¦ Ĺ
Ġà¦ ļ
Ġth is
Ġà¦ ĵ
Ġs o
Ġ =
I O
r a
es s
â Ģ
à§ ¦
à¦ ĵ
c t
Ġ D
p e
Ġ N
o re
Ġs ha
i on
ĠĠĠĠ ĠĠĠ
Ġc on
Ġà¦ ī
h i
a in
ou ld
t er
oo d
Ġà¦ Ń
A R
v er
i f
Ġ Y
Ġ (
Ġ E
Ġth y
i z
g e
t h
Ġd o
Ġw ill
Ġ '
r u
. .
Ġn o
es t
Ġs u
Ġb ut
à§ §à§
Ġà§ ¨
U S
i l
at h
r om
Ġà¦ ĩ
ĠT o
p on
Ġà¦ª à¦°
Ġn e
am e
Ġa ll
Ġ {
Ġm a
Ġ }
Ġà¦ ²
a nd
ĠT h
Ġ v
ha n
Ġà¦¸ à¦®
à¦ «
Ġhe r
se lf
Ġa n
Ġà¦ «
Ġ K
Ġl o
Ġ V
ar d
iz e
Ġà¦ ĸ
or t
q u
à§ Ĥ
Ġthe e
e ll
u l
Ġf a
Ġb y
Ġsha ll
Ġ our
à¦ Ļ
Ġà¦ı à¦ķ
i g
U C
Ġa re
à¦° à¦¤
à¦ ī
à§ĩ à¥¤
à§ ĥ
IN G
) ;
Ġc om
h o
Ġà§ §à§
Ġk n
à¦° à¦ķ
e m
l i
ou s
Ġl et
ĠT hat
e ar
at e
ur n
E R
O R
Ġà¦¹ à¦¯
Ġw hat
Ġs h
Ġà¦ ¥
Ġ <
Ġ if
Ġa r
r ow
u st
Ġp r
an t
Ġà¦ Ł
Ġf rom
E T
Ġà¦Ĩ à¦®
Ġà¦ħ à¦¨
à¦ ł
a k
à¦¬ à¦°
Ġg ood
ar t
a st
ĠB ut
in e
re s
i v
i ght
Ġl ord
Ġa t
hi ch
Ġm an
n t
er s
' ll
Ġb l
on e
c i
Ġw he
ĠW hat
Ġà¦ľ à¦¨
Ġa m
à¦¾ à¦Ĥ
i ve
E S
r y
b le
on g
Ġs he
e a
e nd
Ġà¦ ¡
Ġà¦ Ľ
Ġm ore
à§¦ à§§à§
Ġre t
Ġg o
Ġ âĢ
Ġthe m
Ġà¦¬ à¦²
ou t
Ġw as
I C
ĠF or
à¦ ı
a u
Ġs ir
ot her
Ġret urn
u m
Ġ -
( )
ot h
Ġ j
ĠH e
Ġn ow
à§ ¨
à¦ ģ
Ġu s
o st
Ġ hat
Ġthe re
à¦ĵ à¦¯
Ġw ould
A N
à¦ ŀ
in d
Ġkn ow
Ġc an
a re
L O
v en
e p
i e
I US
Ġs ay
à¦ª à¦¨
i o
AR D
a ke
ĠK ING
at her
f e
Ġs w
Ġlo ve
Ġhe re
- -
Ġthe ir
e c
Ġb r
at a
à¦® à¦¨
Ġ or
ĠM y
Ġt han
u e
a ll
i ck
p t
i c
Ġk ing
Ġthe y
.. .
Ġ qu
Ġthe n
u n
o d
Ġu n
Ġà§¨ à§¦à§§à§
Ġcon st
: :
Ġs pe
is t
à¦° à¦£
in k
l o
u re
à¦¾ ,
à¦ª à¦°
on d
Ġw or
pon se
Ġà¦ı à¦¬
Ġm ay
ĠA s
Ġp ro
h y
Ġ im
Ġc ome
oo k
f ore
p p
Ġ :
is h
Ġà¦Ĩ à¦°
Ġwe ll
Ġ _
âĢ Ļ
Ġ J
L I
ĠW he
Ġha nd
Ġse lf
à¦¬ à¦¨
K E
o l
Ġon e
Ġs et
Ġhat h
à§ Į
à¦ľ à¦¨
ir st
ĠY ou
Ġma ke
à¦¤ à¦°
re at
Ġde f
Ġm ust
ou nd
g ain
Ġs p
y n
Ġg ra
Ġh o
Ġwe re
Ġà¦ §
à¦¬ à¦¸
e f
s ize
ĠĠĠĠ Ġ
Ġse e
Ġà¦ı à¦ĩ
Ġsh ould
Ġli ke
Ġa w
Ġim p
d e
e l
Ġs a
it y
T IO
Ġm ad
à¦ĩ à¦¨
Ġu se
Ġf ather
Ġp l
at ch
Ġha d
n g
v es
Ġà¦ ĺ
Ġd id
Ġu pon
O M
im e
à¦¾ à¦ģ
as s
à§ «
Ġto o
Ġre s
i ce
ow n
a b
O N
Ġp o
en ce
Ġ x
Ġà¦ī à¦ª
Ġde ath
w ard
Ġ en
Ġw hich
à§ ©
Ġ r
ĠI f
or n
Ġà¦¹ à¦¬
f ig
Ġne w
Ġspe ak
yn c
Ġ= >
Ġwhe n
Ġas ync
ĠâĢ ĺ
Ġà¦® à¦¨
Ġ out
Ġf ri
Ġh ow
ent le
Ġa gain
IC H
ĠR ICH
a p
Ġt ru
m an
O L
is e
ĠD U
ĠDU KE
Ġu p
Ġhe art
Ġy et
Ġà¦Ĩ à¦²
a ge
Ġà¦ıà¦ķ à¦Ł
à§ ®
à¦¾ à¥¤
à§ ª
i le
ver y
Ġn ame
Ġ U
ĠW e
ĠW ith
ĠRICH ARD
Ġw ho
ig n
ĠTh ou
EN TIO
r or
Ġs ome
en g
à¦ļ à¦¨
à¦° à¦®
ĠI n
it ing
ĠW hich
an ce
Ġ ri
a ve
Ġm ar
i re
à§ Ī
Ġh on
n ce
à¦ ĥ
f ul
Ġst r
a ck
Ġs on
à¦° à¦¯
à¦¶ à¦¨
à¦ĩ à¦²
Ġof f
Ġm ine
i es
Ġd is
à¦ Ĩ
Ġc l
ha r
IN C
à¦ķ à¦°
Ġà¦Ĩ à¦ªà¦¨
in ce
u b
ĠW hy
ĠO f
' t
b er
à¦¿ à¦Ĥ
o se
ĠG od
w n
E L
Ġt ime
3 2
Ġsu ch
ĠF irst
ĠS o
m it
à¦¼ à¦¿
Ġhe ar
a c
à§ĩ ,
n ess
u ch
Ġbr other
Ġ- >
on fig
d ata
ct ion
Ġthe se
Ġe x
Ġhe a
ĠC l
Ġa b
à¦ª à¦¤
Ġbl ood
i al
o y
Ġà¦ı à¦°
it her
Ġ 2
Ġg ive
ĠN o
U E
ĠI s
Ġf o
Ġà¦Ĩ à¦Ĺ
Ġd ay
Ġe ar
Ġ ro
Ġl ook
Ġth ink
ou l
Ġ /
Ġli fe
ĠH ow
ĠI I
Ġt ell
Ġa l
Ġà¦Ĩ à¦¸
en s
e et
ES T
A B
à¦° à¦¬
Ġe y
Ġwhe re
Ġ Q
Ġw ord
Ġt ake
UC H
a g
Ġfri end
Ġà¦ķà¦° à¦¤
ĠTh is
t her
Ġ 1
Ġd es
à¦² à¦¨
ĠG LO
UC EST
ĠGLO UCEST
ĠGLOUCEST ER
er v
ĠC ome
row n
e en
à§ İ
Ġà¦Ĩ à¦¬
Ġà¦ķ à¦®
ad y
Ġg entle
Ġar t
Ġcom m
ing s
ur se
Ġà§¨à§¦à§§à§ ®
ĠL ord
Ġà§ ©
Ġà¦ ¢
a se
à¦¿ ,
R Y
ut t
ĠR ome
ĠB e
à§ Ń
à§ §
t is
ĠV INC
UE EN
ĠQ UEEN
ĠVINC ENTIO
ul t
ĠM ar
s on
à¦° à¦¸
Ġw ar
ĠO F
f or
à¦¦ à¦¨
a ce
Ġm ost
Ġhon our
Ġm uch
E d
Ġb et
U M
à§ ¯
L AN
ĠWhe re
g et
à¦ ĺ
Ġt w
eng th
Ġcon t
A M
Ġmad e
à¦¼ à¥¤
Ġà¦¸ à¦¬
Ġar r
ent s
) :
er ial
Ġf ear
Ġha st
ĠN ow
p ath
à¦¦ à¦ķ
b utt
ĠW ho
i ct
d iv
Ġà¦® à¦§
n ame
au ght
ub mit
Ġf i
Ġres ponse
Ġf n
iv ot
= {
ĠĠĠĠ ĠĠĠĠĠ
( );
l ength
Ġp ivot
ĠH EN
ĠV ec
erial ize
butt on
ĠHEN RY
Ġc ou
Ġg reat
à§ ¬
Ġà¦¸ à¦°
Ġb re
o c
n ot
à¦ĸ à¦¨
id e
ve d
Ġne ver
à¦¼ à§ĭ
à¦¿ à¥¤
ow er
Ġfa ir
i gh
Ġm en
Ġa f
Ġà¦ī à¦¦
ĠA N
Ġin t
at ion
t le
ĠY our
or row
ĠI t
re e
u ke
à¦² à¦¯
ou gh
Ġ [
Ġl ea
à¦² à¦ķ
à¦· à¦£
Ġà¦ħ à¦Ń
c c
OR K
ĠY ORK
Ġp art
à¦ī à¦¨
Ġan y
Ġs l
Ġc all
Ġa d
s s
à¦° à¦§
ĠO r
à¦¸ à¦¬
et ch
à¦¦ à¦°
S T
IN IUS
a it
ess ion
em s
Ġcan not
Ġp re
l es
à¦¹ à¦¤
Ġtru e
Ġst and
Ġhea ven
Ġà¦ĵ à¦¯
Ġà¦¹ à¦¤
o ld
à¦¸ à¦²
ĠP ET
ĠS t
A U
Ġbe en
Ġpr ay
al se
h ing
Ġsw eet
Ġf etch
Ġp le
Ġà¦¹ à¦²
Ġp er
ĠE D
à¦ĩ à¦Ł
W ARD
ĠED WARD
à¦Ł à¦¨
u ck
ĠG R
Ġà¦¸à¦® à¦¯
at ter
, --
Ġd oth
p le
Ġt r
Ġno ble
Ġo wn
in t
Ġw r
_ _
Ġà¦® à¦¹
à¦ķ à¦²
ĠL UC
u ll
ou se
à¦¤ à¦¨
Ġd one
lo ad
Ġà¦§ à¦°
Ġ ...
st r
ĠThe re
Ġl e
oo l
Ġw ay
a w
if e
à¦¯ à¦¬
Ġhe ad
Ġo ther
ear s
à¦° à¦¶
er ror
R O
Ġme an
à¦Ľ à¦°
Ġ .
f t
Ġà¦Ĩ à¦¨
Ġp res
Ġimp ort
ĠE d
U T
ĠA n
ĠS e
Ġbe ar
Ġs c
on t
Ġ #
Ġn or
E O
A P
ĠB y
Ġ very
ĠA y
ĠEd ward
ĠR OM
ĠWhe n
Ġs oul
ĠROM EO
Ġ_ _
à¦° à¦¦
Ġwor ld
Ġm o
ain t
Ġn ight
Ġb oth
Ġbe fore
ĠM EN
EN IUS
ĠMEN ENIUS
à¦° à¦¹
re d
l ess
Ġà§ ¦
au se
Ġsha pe
Ġà¦¸ à¦Ļ
ĠL et
à¦¤ à¦¬
Ġ 0
Ġc hi
T H
aught er
a ble
ĠHe re
Ġà¦Ĩ à¦ľ
it er
c es
ĠThe n
R UCH
ĠPET RUCH
ĠPETRUCH IO
it e
Ġd own
Ġde ad
Ġqu een
b on
Ġ ra
T ES
Ġà¦ħ à¦°
Ġw h
à¦¬ à¦²
Ġ ke
Ġà§ ª
Ġà§ «
Ġbe ing
Ġà¦ª à¦¡
m ent
à¦® à¦²
Ġà¦¬ à¦¨
Ġre m
us er
Ġmy self
Ġà¦¬ à¦Ľà¦°
Ġf e
e ct
Ġà¦¸ à¦¹
ĠT han
ĠM AR
Ġri ght
Ġf l
f il
Ġar m
an g
Ġ/ /
il t
f ile
Ġcl ass
Ġd ata
N ame
] ;
oc ab
) }
Ġ< /
ĠC onfig
Ġlea ve
< /
S ubmit
ĠC OR
Ġ< =
ick S
ac ci
Ġth us
Ġst d
IO LAN
Ġset Ed
Ġaw ait
Ġfi bon
__ (
fil ter
ĠCOR IOLAN
ickS ort
ĠsetEd iting
Ġfibon acci
ĠCORIOLAN US
res s
for m
ĠS ec
Ġo ld
ĠSec ond
Ġgra ce
Ġà¦¬ à¦°
à¦ı à¦¨
Ġà¦ķ à¦¥
Ġu nt
à¦® à¦¤
ĠN or
Ġey es
p s
p er
ĠL E
Ġm other
v ing
Ġà¦¤ à¦¥
à§Ģ ,
l and
ĠS he
s w
âĢ ¦
Ġre p
IN A
Ġbe g
it iz
Ġe ver
Ġp e
à¦¹ à¦®
Ġli ve
Ġl ong
Ġà¦ļ à¦²
Ġw ife
Ġchi ld
Ġw om
Ġfriend s
i ed
Ġ ve
Ġpo or
f f
se l
Ġcon s
Ġaw ay
ĠII I
a il
ĠG o
Ġt y
à¦· à¦¯
Ġm ight
c om
k s
nd er
Ġà¦¬ à¦¡
ĠS ir
Ġd ie
Ġst ay
Ġcom es
à¦¥ à¦®
ou d
ĠW ar
ea ce
Ġman y
w ick
ow s
Ġà¦¸ à¦°à¦ķ
Ġre st
Ġh ouse
Ġ ru
Ġha r
Ġsu m
it s
à¦¤ à¦®
Ġc rown
ĠWar wick
st er
Ġc our
à§¦ à§¦
Ġthou ght
Ġà¦ħ à¦¬
f ord
u g
c ome
is on
Ġ ent
L A
T is
ĠH is
is s
ĠI S
0 0
ci ous
à¦¼ à§Ģ
Ġli e
EL LA
AB ELLA
ĠIS ABELLA
Ġà§§à§ ¦
à¦¸ à¦®
er c
o s
R AN
Ġd aughter
Ġg r
l ing
à¦¨ à¦¯
Ġnew s
ĠW ell
Ġnot hing
ĠRome o
à¦° à¦¨
Ġbet ter
Ġ i
Ġt ong
Ġst ru
ĠJ U
LI ET
ON TES
ĠLE ONTES
ĠJU LIET
i ous
Ġà¦Ĩ à¦Ľ
Ġà¦ī à¦¤
à¦ª à¦ķ
re ad
ĠV I
it tle
ĠN ay
Ġpr ince
Ġg one
Ġà¦ĩ à¦¨
Ġ &
Ġà¦ĩ à¦¸à¦²
à¦¼ ,
A D
ĠP ro
e w
à¦Ł à¦ķ
ou ght
ĠL AD
ĠLAD Y
Ġà§ ®
Ġt ri
A L
Ġs er
c ri
C E
w ell
EN CE
or s
Ġke ep
Ġb est
c he
Ġs le
Ġagain st
Ġc ha
a le
Ġà§ §
p i
ĠS erv
ĠD es
à¦¯ à¦ķ
Ġth ose
ĠO n
à¦¾ -
un e
Ġa cc
à¦¨ à¦®à¦¨
ĠS ha
har d
ĠT y
Ġl ittle
Ġg ri
Ġhe nce
ĠS IC
ĠC itiz
ĠSIC INIUS
à¦ıà¦¨ à¦ª
ĠN ot
Ġh our
u d
Ġfa ce
k en
Ġcom p
ll ow
Ġth ing
Ġà¦ķà¦° à¦¬
Ġlord s
p en
à¦ī à¦ľ
re t
s er
Ġcomm on
ard on
à¦ĩ à¦ķ
d er
Ġà§ ¬
l se
Ġe nd
Ġk ind
Ġyou ng
Ġg u
Ġ 3
Ġtw o
or k
ĠGR E
Ġst ill
x t
k es
Ġ à¥¤
Ġc o
Ġp ri
ie ld
à¦¯ à¦¬à¦¸
p ro
Ġhim self
al k
à¦¨ à¦¤
er t
ur l
in s
Ġp ur
Ġp ower
ĠTh y
ĠLUC IO
ar r
Ġà¦® à¦¤
Ġ >
ĠI V
Ġw it
Ġà¦ħ à¦ª
ĠR ic
Ġf irst
ĠRic hard
t y
Ġà§ Ń
m e
Ġf un
Ġsu b
Ġs m
e ch
ĠC L
Ġcou nt
Ġthere fore
T I
à¦¨ à¦¸
à¦¯à¦¬ à¦¹
in ess
ef t
Ġp eace
Ġe lse
Ġde ar
Ġp ut
Ġtong ue
Ġunt o
Ġà¦īà¦ª à¦ľ
ut y
as on
le d
ĠB R
hi le
y al
ĠW ill
Ġc ould
Ġt ill
à¦° à¦¥à¦®
ĠH ave
Ġd uke
Ġp ath
Ġb ack
han ge
Ġà¦ħ à¦§
à¦¯ à¦®
Ġh us
Ġfun ction
Ġho pe
Ġword s
Ġthou gh
Ġà¦Ĩ à¦ĩà¦¨
a ch
Ġf ell
se d
et h
ĠY ork
à¦¬ à¦ķ
Ġne ed
Ġear th
Ġs ession
Ġf ind
ET H
LI Z
Ġb id
ĠE LIZ
AB ETH
ĠELIZ ABETH
Ġà¦¸ à¦¨
o ple
S t
Ġà¦¹ à¦ļ
an c
Ġl ady
c l
Ġ error
v ent
Ġà¦ĸ à¦¬à¦°
Ġà¦¨ à¦¤
b and
Ġv al
Ġl eft
i us
or se
Ġth ine
à¦Ĺ à¦ŀ
Ġà¦ķ à¦²
cri pt
Ġh ome
m en
Ġhe l
Ġt ra
I AN
Ġh igh
Ġfor th
ĠL ist
ĠH en
ĠSe lf
in it
ĠHen ry
Ġhus band
Ġs ize
ĠY et
Ġimp l
re n
à¦Ĺ à¦°
p d
) .
ĠG ood
r ror
à¦ Ŀ
ve re
C li
> >
s li
pd ate
ar k
at us
= "
) ?
n s
S cript
R es
b ug
Ġma x
" >
! [
U pdate
f alse
ĠĠĠĠ ĠĠĠĠĠĠĠ
Ġv ocab
res ponse
ens or
St ate
( |
> ,
b atch
j son
} ;
Ġb atch
it ems
ĠT ensor
ĠĠĠĠ Ċ
le Submit
ed iting
Ġon Update
us ize
Ġ} ;
qu ickSort
() .
Ġj son
:: {
Ġset Name
Ġuse State
Ġve c
Ġstru ct
pi Res
ĠDes erialize
sli ce
)? ;
(| &
piRes ponse
ĠA ll
Ġb ra
ut h
g ed
à¦¨ à¦¬
Ġpe ople
hi p
à¦² à¦¬
Ġb an
Ġm ind
IC K
t w
ĠW AR
W ICK
ĠWAR WICK
ĠD o
Ġa pp
d s
Ġà¦ı à¦ĸà¦¨
is ter
ri ght
Ġsh ow
Ġà¦¦ à¦²
à¦¸ à¦¨
Ġc he
Ġcon f
Ġc har
A ST
Ġà¦¸ à¦Ń
ĠSha ll
ĠCitiz en
Ġà¦ı à¦¸
Ġà¦Ĩ à¦¯
Ġà§ ¯
Ġhand s
r ing
b t
Ġj oy
Ġma ster
Ġsa id
H AM
Ġw hy
Ġw o
f ort
Ġc ause
ĠN urse
re r
Ġà§§à§ ª
U L
ast er
Ġl aw
Ġs erv
Ġg l
ĠThe y
Ġm ist
ĠC AP
UL ET
Ġn one
Ġon ce
ĠCAP ULET
Ġe very
à¦§ à¦¨
Ġo pen
Ġfor t
an s
um ber
Ġb od
ĠR e
I L
0 1
G E
à¦¬ à¦¬
à¦¼ à§ģ
ous in
Ġbr ing
M IO
à¦¸ à¦¹
Ġà¦ı à¦Ł
ar y
Ġd ou
r ay
R I
at es
Ġà¦ķà¦° à¦Ľ
ir d
à¦ķ à¦¤
Ġà¦Ľ à¦¬
Ġple ase
Ġp ass
K ING
KING HAM
ĠB UC
UT US
ĠBR UTUS
ĠBUC KINGHAM
ĠB o
à¦® à¦°
l t
or y
à¦ķ à¦Ł
i et
Ġà§§à§ ¯
ĠF rom
ES S
Ġà¦¨ à¦¯
s ha
Ġli ght
à¦² à¦¤
B RO
ĠT RAN
ĠB OL
ING BRO
ĠTRAN IO
ĠBOL INGBRO
ĠBOLINGBRO KE
Ġà¦ī à¦¨
Ġn at
à¦¬ à¦¤
sw er
Ġb es
Ġth r
Ġt ears
v ost
Ġwho se
Ġro yal
c o
à¦ı à¦¸
) ,
Ġb oy
c ess
Ġc ame
Ġj ust
ri ed
Ġs ince
Ġpres ent
m b
N E
Ġà¦Ĩà¦® à¦°
Ġde v
Ġu nder
à¦¶ à¦ķ
Ġf ull
Ġaf ter
Ġwr ong
ro ke
Ġp ardon
Ġhe ard
Ġà¦ı à¦²
ĠO ur
Ġl and
p ose
Ġha pp
G AR
ĠMAR GAR
ĠMARGAR ET
à¦¹ à¦°
ir t
v y
p ing
Ġl ast
ĠK ing
Ġe re
Ġpl ace
A TH
Ġst ate
AM IL
Ġm is
Ġà¦Ĩ à¦¦
e ve
Ġà¦ ł
Ġ Â
Ġà¦ħ à¦¸
Ġme et
Ġk ill
s and
Ġs orrow
Ġho ld
it ion
à¦· à¦ķ
ĠE ng
Ġa p
à¦® à¦¸
est y
E Y
ĠS h
OR D
Ġthou sand
Ġey e
Ġwh om
ĠAN GE
ĠANGE LO
ĠâĢ ĵ
Ġ ?
i er
i ld
Ġà¦ķà¦° à¦²
S C
à¦° à¦ļ
Ġà¦ª à¦¦
Ġl ess
Ġfo llow
Ġan swer
Ġt re
AR INA
are nce
Ġc h
d u
d ay
à¦Ĺ à¦¤
Ġà¦¤ à¦¬
Ġab out
Ġà¦ħ à¦«
Ġb us
à¦¯ à¦¨
Ġp at
Ġf ar
ce ive
Ġf ool
Ġh ither
Ġwe ep
ĠK ATH
ci us
Ġen em
ĠCl arence
ĠKATH ARINA
Ġin ter
t o
Ġà¦ĩ à¦īà¦¨
im es
Ġhel p
ĠA l
Ġma id
rom ise
ur de
Ġfa ll
Ġgentle man
ĠMar cius
à¦° à¦ª
Ġ *
Ġà¦ħ à¦ªà¦°
Ġà¦ĺ à¦Łà¦¨
Ġà§§à§ ¨
Ġun c
Ġo b
Ġb ri
as ure
Ġint o
sel ves
Ġth row
Ġsha me
Ġcour t
Ġà¦ħ à¦¤
re am
Ġ +
a ir
Ġst e
Ġcou n
r ant
Ġst ri
AL US
ĠE SC
Ġma kes
Ġc ousin
Ġgra cious
Ġgri ef
ĠESC ALUS
Ġà¦Ĩ à¦¶
Ġwom an
j ect
à¦ ħ
à¦¤ à¦ķ
ĠU n
ic es
al t
Ġt urn
ĠH ath
Ġcom fort
Ġwor th
Ġh um
it or
Ġsle ep
ou nt
Ġbe d
Ġt alk
de ed
Ġw ilt
ĠD UCH
ĠD uke
Ġdo st
urde rer
ĠDUCH ESS
t t
Ġbod y
Ġ 4
ĠAn ge
Ġas s
Ġo ver
Ġsu n
p her
ER C
ut e
o ve
âĢ Ŀ
Ġin st
i ly
ar s
à¦Ł à¦Ĺ
à¦® à¦¦
ĠH er
Ġà¦Ĺ à¦²
w ay
Ġat t
Ġthan k
Ġà§¨à§¦à§§à§ Ń
ĠAnge lo
m orrow
Ġse em
Ġs ound
Ġfa ult
a v
à¦® à¦ķ
Ġpl ay
à§¨ à§¦à§§à§
I A
ru e
Ġan other
is ed
Ġin deed
e ech
Ġf alse
ĠC AMIL
Ġpro ve
ĠCAMIL LO
Ġ 5
ĠâĢ ľ
à¦Ĺ à¦®
Ġha s
i a
i ence
Ġv o
à¦° à¦²
Ġc ur
om et
Ġà¦° à¦¯
Ġwe l
ĠW ould
Ġde ed
ĠE ven
Ġsw ord
ĠPro vost
Ġfell ow
à¦¦ à¦¸
ĠM ore
ad e
Ġà¦° à¦¹à¦®
Ġb o
et s
ra w
Ġst re
à¦® à¦¬
EN S
Ġde li
Ġp ers
Ġkn e
Ġf ight
o ck
Ġm atter
OR T
Ġe ven
Ġv ill
ĠH ORT
Ġfort une
ĠHORT ENS
r an
Ġà¦ļ à¦Ł
à¦ī à¦Ł
Ġc are
Ġcount ry
Ġs ent
Ġbe li
ho ld
ĠF RI
Ġso vere
Ġpr ison
Ġgra ve
ĠU pon
ĠHORTENS IO
ĠFRI AR
à¦ķ à¦¬
Ġy ears
fe ct
à¦ĩ à¦¯
ĠA re
ur y
à¦ĩ à¦¸
, '
Ġm ess
Ġse nd
Ġv irt
ST A
Ġm erc
à¦® à¦ķà¦°
Ġdou bt
ĠB AP
Ġr ather
TI STA
Ġban ish
ĠBAP TISTA
a x
m p
er y
Ġà¦ħà¦¨ à¦²
Ġ )
Ġw ant
c ont
ou ch
e re
à¦¿ -
Y C
ĠC OM
l en
à§ĩ ?
pe ct
Ġw ish
Ġà¦ī à¦ªà¦°
Ġbus iness
à¦¬ à¦¶
Ġre ven
Ġhat e
Ġtr uth
ĠA UT
Ġha ng
OL YC
ĠCOM INIUS
ĠAUT OLYC
ĠAUTOLYC US
à¦ĸ à¦¤
pt ion
à§İ à¦¸
Ġà¦¨ à¦Ń
io l
a ult
Ġà¦ĩ à¦¤
Ġon ly
ĠTh ird
Ġà¦Ĩ à¦ª
Ġà§¨ à§¦
Ġà¦¬à¦² à¦²
. '
ĠCL AR
Ġre ason
Ġli es
Ġsha lt
ĠCLAR ENCE
Ġà¦Ĩ à¦ĵà¦¯
o k
ĠR es
i or
d d
c ent
Ġd ream
Ġcomm and
Ġarm s
Ġse a
Ġbre ath
EN ES
pher d
à¦· à¦¦
à¦¸ à¦ª
à¦¡ à¦ķ
ĠC om
Ġà¦¹ à¦ĵà¦¯
Ġse c
en er
Ġà¦ħ à¦¬à¦¸
Ġà¦ħ à¦ķ
Ġn umber
ĠN OR
Ġad v
r ance
ĠG entle
Ġl ay
V OL
m s
Ġà¦¸ à¦¦à¦¸
ĠB EN
ĠCl own
VOL IO
ĠBEN VOLIO
Ġ2 01
Ġà¦ Ĳ
Ġf ree
Ġà¦¸ à¦ķ
Ġbl ow
S P
Ġp ort
Ġw ind
v al
ĠP RO
Ġs en
ER O
Ġs omet
Ġpr oud
Ġen ough
ĠT ake
Ġrem em
Ġp ity
Ġho ly
UM IO
ĠGR UMIO
SP ERO
ĠPRO SPERO
he d
à§ĭ à¥¤
Ġà¦ Ŀ
Ġth ree
at or
Ġbe a
ang er
ĠK ate
du ct
t en
Ġc han
Ġli ves
Ġà¦¬ à¦Ļ
U TIO
ĠM urderer
ĠM ERC
Ġso ld
ĠD id
Ġfa re
Ġsw ear
Ġsp ir
ĠMERC UTIO
Ġà¦ Ī
Ġg et
I S
à¦¹ à¦¸
f ace
Ġt end
à¦¨ à¦ķ
Ġà¦Ĺ à¦£
et er
p re
Ġà¦ı à¦®à¦¨
ĠRe ad
Ġwel come
ĠWe re
Ġgo ds
Ġnat ure
Ġwith in
ĠLUC ENTIO
ĠServ ant
Ġvill ain
à¦°à¦¹ à¦£
j o
b s
Ġà¦¶ à¦°
Ġst ra
Ġà¦° à¦ķ
à¦ķ à¦¦
ha m
Ġs ister
Ġg re
ver s
Ġhapp y
Ġk iss
Ġth ings
Ġsa w
OM P
Ġf oul
ĠP OMP
Ġmad am
LAN D
Ġmist ress
Ġsovere ign
à¦§ à¦¬
u nt
Ġg iv
Ġà¦ī à¦ļ
a pt
Ġà¦¸ à¦ķà¦²
an y
ĠA t
Ġbre ak
ĠW as
Ġc lo
Ġc ity
Ġmean s
ĠG ive
Ġsub ject
AU L
Ġy ield
ĠP AUL
Ġbes eech
ĠPAUL INA
à¦¨ à¦Ł
Ġà¦¯ à¦¦
Ġcont ent
2 0
Ġc ra
Ġà§§à§ §
i ci
Ġm er
ĠL ook
Ġap pe
Ġd en
ĠS ay
ond er
gain st
Ġb orn
Ġyour s
get her
Ġo ath
Ġh orse
ag ue
ĠGRE MIO
ĠPOMP EY
Ġà¦Ĩ à¦ķ
à¦¨ à¦¨
Ġà¦« à¦²
ĠM ay
f s
ĠP O
ĠA h
à§§à§ Ń
Ġsu pp
Ġd ru
Ġf ire
Ġt em
Ġpro cess
Ġw hile
ĠEng land
à¦« à¦¤
Ġà§§à§ «
N IA
Ġm ain
Ġfa ith
Ġlook s
X ENES
b alt
Ġw ound
Ġyour self
ĠV OL
LI XENES
Ġblood y
UM NIA
ĠPO LIXENES
ĠVOL UMNIA
1 6
Ġc ar
e y
Ġà¦ľ à¦¯
b y
Ġà¦¸ à¦«
Ġm on
u se
an ge
eng er
Ġs it
Ġw in
Ġcont ents
Ġre qu
Ġma j
ING S
ĠF are
ing man
Ġà¦Ĩ à¦Łà¦ķ
ĠH AST
ĠServ ingman
Ġtra itor
ĠHAST INGS
i an
à¦¸ à¦°
he s
ĠN e
à§ ·
us h
d om
ha nd
Ġà¦Ĺ à¦¤
ĠC an
Ġpers on
Ġpr int
Ġmar k
ad er
Ġsp o
ert ain
Ġl en
ĠH ast
Ġchild ren
Ġunc le
R ENCE
b roke
Ġl am
ĠL AU
cent io
ĠLAU RENCE
à§§à§ ¨
à¦ľ à¦¯
Ġà¦ı à¦¤
ĠJ ul
a z
tt p
Ġà¦ı à¦¶
à¦ı à¦®
Ġà¦² à¦ķ
u es
Ġl ate
4 8
Ġso on
B Y
Ġm et
Ġbe at
li ke
B ER
Ġtend er
Ġp atter
Ġval ue
Ġs ight
Ġd anger
ĠThere fore
ĠTy balt
Ġmaj esty
ĠP l
à¦¬ à¦ª
che s
Ġfo ot
id es
Ġà¦Ĩà¦° à¦ĵ
I D
Ġà¦ı à¦®
Ġday s
à¦ļ à¦²
F F
Ġmess age
ll ect
Ġs in
Ġsa ve
le ft
Ġstr ing
Ġse en
Ġto ld
Ġwar rant
ĠNOR TH
LI FF
UM BER
ĠNORTH UMBER
ĠNORTHUMBER LAND
6 4
00 0
Ġà¦¤ à¦°
Ġà¦ı à¦¨
p ut
à§ģ à¦ģ
T A
ter s
ĠL u
Ġs ad
à¦¯ à¦ª
L o
Ġdo es
Ġrep ort
Ġty pe
Ġg ener
Ġmerc y
ar get
Ġo s
id ow
us ers
Ġfare well
Ġ 32
Ġ $
S e
D e
i ent
Ġde ep
ĠA P
Ġà¦ĩ à¦ī
un es
Ġgo ld
s um
ĠP y
th on
f rom
ĠE rror
iz er
s ers
str ing
Ġsu re
Ġhea vy
S ave
re l
Ġwith out
Ġthr ough
Ġmar ry
ĠAN NE
Ġd ict
Ġto gether
Ġhand ling
ĠThou gh
der ive
Ġpur pose
Ġ â
] ,
à¦Ł à¦°
" ,
m l
Ġ[ ...
ĠL i
in a
Ġ ill
h ttp
ĠJ av
a im
T P
! (
H T
ĠD ata
P ro
) ]
ĠJav a
Ġsay s
ĠRes ult
ĠAP I
ear n
ĠU ser
Ġ( !
à¦Ĺ à¦²
ĠO k
ĠBo x
s ubmit
ĠP R
] :
m ap
m ents
Ġc ho
[ ]
ĠPy thon
Ġb ool
ĠM ont
ĠC am
ĠO ption
' )
à¦¾ :
Ġn urse
Ġus er
ap i
co llect
ĠJava Script
l n
ĠH ad
ĠR ea
st atus
Ġst atus
ef ault
ĠTy pe
] )
Ġlo st
pro duct
Cli ck
c onfig
Ġf s
Ġd are
Ġde p
Ġ/ >
ĠSt ring
Ġ );
in put
Ġb ur
Ġcon fig
pon ent
ĠJul iet
' );
( '
. _
D efault
E rror
S um
U ser
U sers
t rue
Ġc old
ent S
ĠR ust
Ġ{ }
Ġstr ange
Ġdes er
Ġty ping
pro file
Ġinter face
pre vent
HT TP
Pro file
ĠRea ct
( &
( `
( {
) ];
> )
> {
A piResponse
C onfig
C hange
D ict
S erialize
` );
d yn
m ax
t arget
v ocab
} >
} </
} `);
Ġ )}
Ġa io
Ġto ml
ĠA piResponse
Ġg row
ĠS erialize
Ġit ems
Ġde bug
Ġon Submit
Ġon Click
Ġon Change
ĠP romise
ĠD ict
if ford
Ġ( {
ĠTo ken
Ġ} )
Ġ} );
Ġcom ponent
ER D
() :
Ġqu ickSort
Ġhand leSubmit
ign ior
INC E
ĠCl ifford
Ġear s
Ed it
={ (
={ ()
Ġfetch Users
Ġ# [
Ġclass Name
)} >
Ġ& [
Ġser de
Cli entS
(|& &
sha pe
cont ents
val ue
20 48
hand leSubmit
Ġprint ln
Ġpatter ns
64 000
Lo ader
Ġ$ {
Se lf
De bug
izer Config
!( "
ĠData Loader
ĠUser Profile
ĠPR INCE
[] >>
ĠOption al
ĠType Script
(' /
Ġ{} ",
prevent Default
Ġaio http
ĠToken izerConfig
ClientS ession
u nd
Ġà¦¸à¦® à¦¸
à¦¥ à¦¨
ĠR i
u p
Ġb u
Ġà¦¬ à¦¸
ro ss
à¦¨à¦¸ à¦Ļ
ĠG re
Ġas k
ĠOn e
ĠC or
Ġw at
our s
Ġt imes
Ġà¦Ĩ à¦¤
ĠM I
ĠB ol
ain s
à¦° à¦Ĺ
ĠT ell
ent y
Ġsu ff
Ġbeli eve
ce ed
ing broke
Ġthy self
Ġpl uck
Ġlie ge
Ġwo e
ĠBol ingbroke
Ġ ,
à¦¸ à¦¦
as h
à¦¸ à¦ķ
ĠW h
Ġa g
Ġà¦° à¦¬
if t
à¦® à¦¯
ĠH a
Ġà¦ķ à¦¬
Ġa ir
Ġs il
Ġpo int
ĠS ome
Ġlo ss
Ġa ge
ĠA way
Ġhe ir
ĠS ignior
ĠWho se
ĠSh ould
Ġspir it
Ġà¦¦ à¦ķ
ou th
ĠLi ke
n er
a id
Ġinst ru
m er
o int
Ġc ry
Ġhar d
Ġà¦¸ à¦¡
à¦² à¦Ĺ
ce d
Ġb at
Ġdev il
Ġp ast
Ġdes ire
Ġf ly
Ġl earn
Ġtru st
Ġjust ice
Ġfri ar
Ġhast e
Ġent reat
Ġgr ound
ĠFare well
Ġà§§à§ ®
à¦ĩ à¦«
Ġ "
uck ing
ĠC on
Ġà¦ī à¦ł
à§¨ à§«
Ġà§§à§ ©
à¦ľ à¦¶
au d
in ed
Ġf ound
ĠS en
Ġv is
Ġdis p
Ġserv ice
Ġb old
n ight
Ġ ord
ĠF rance
Ġm ur
ĠP ray
Ġan g
Ġà¦ķ à¦¯
Ġne ar
Ġremem ber
m io
Ġto ward
Ġbet w
Ġsl ain
Ġstra ight
Ġqu ick
Ġt it
t ing
à¦¯ à¦¤
ĠM ess
ut ion
el s
L E
Ġstr ong
Ġbea uty
om an
ĠG l
i xt
à¦ĩ à¦¬
Ġal one
ĠA U
ĠMess enger
I Z
Ġwe ar
Ġmar ried
ĠF L
F ID
Ġc urse
ĠThe se
OR IZ
Ġworth y
ĠAU FID
ĠFL ORIZ
ĠAUFID IUS
ĠFLORIZ EL
Ġà¦ī à¦²
à¦ª à¦¦
à¦¹ à¦²
ink s
à¦¨ à¦¦
à¦° à¦Ń
Ġin f
Ġthought s
Ġà¦¬ à¦¯
à¦¦ à¦¶
Ġà¦ı à¦ª
à¦ł à¦¨
ure d
n ing
ĠSe e
jo b
à§§à§ «
à§§à§ ¯
Ġt ouch
IO N
Ġfa st
T ON
Ġà¦¬ à¦¹
Ġw oo
ĠCl aud
Ġf it
Ġre ady
ad am
Ġbr ought
Ġreven ge
Ġpo ss
Ġex ec
Ġgr ant
Ġenem y
Ġgener al
ĠClaud io
ĠÂ ©
à§İ à¦ķ
ĠP r
Ġp ost
i ble
à¦ľ à¦°
à§ĭ ,
âĢ Į
Ġhour s
ra ct
! '
g s
Ġp ar
Ġf ur
Ġà¦Ĩà¦¸ à¦¨
à¦¿ )
à¦¦ à¦ª
s ue
Ġno b
ER S
Ġpro f
he e
Ġyou th
Ġà¦ıà¦ķ à¦ľà¦¨
Ġknow s
Ġchar ge
ĠGentle man
Ġlo se
au nt
Ġqu ar
Ġd uty
Ġit self
Ġcan st
ĠSen ator
k ing
ha l
Ġà¦ĩ à¦®
b e
Ġà¦ª à¦¤
Ġre ad
A S
re w
Ġd r
Ġà§§à§ ¬
u a
ĠM aster
che d
E B
s hip
à¦ĸ à¦²
Ġm orn
Ġspe ed
Ġd ist
ĠB ec
ri age
ĠA gainst
ill o
Ġdes p
ĠMAR C
Ġstre ng
ou ces
it hee
ĠS EB
ĠM adam
Ġtw enty
Ġstand s
ĠShe pherd
AST IAN
ĠMont ague
ĠGl ouces
ĠMARC IUS
ĠSEB ASTIAN
Ġà¦¸ à¦¤
Ġà¦® à¦Ļ
à§ĩ :
Ġà¦ĩ à¦¯
Ġà¦¨ à¦¬
o p
um p
Ġf ore
Ġà¦ª à¦¥
à¦ķ à¦®
Ġhe ll
Ġc ut
ol k
Ġm in
ce pt
O W
Ġd iv
Ġha lf
Ġf ield
p are
Ġcoun sel
fe ction
Ġres ol
Ġbe hold
Ġcon d
Ġj ud
Ġfear ful
Ġmo ck
ĠCam illo
p l
à¦ľ à¦¸
Ġà§¨ à§ª
Ġc r
iv es
à¦· à¦¤
Ġà¦Ń à¦°
t ed
al m
Ġà¦¸à¦¬ à¦ļ
Ġà¦¶ à¦¤
à¦ł à¦ķ
Ġà¦ĺ à¦Ł
Ġà¦ľ à¦°
Ġsh ort
ol s
Ġd am
Ġfe el
Ġblow job
Ġin c
Ġb ound
Ġy e
Ġmar riage
ĠT ill
ĠB ucking
Ġe ach
Ġknow n
D EL
Ġw ret
Ġb os
ĠB ION
Ġheart s
Ġhon est
ĠHast ings
ĠGlouces ter
ĠBucking ham
DEL LO
Ġbos om
ĠBION DELLO
al th
o f
ort al
à¦¨ à¦®
à¦° à¦ªà¦¤
on es
Ġwom en
ra h
à¦° à¦ĵ
ĠD e
Ġà¦Ĩà¦ľ à¦ķ
t he
Ġà¦Ĩ à¦ĩ
Ġà¦¶ à¦¨
à§Ģ à¥¤
Ġt en
Ġà§§à§ Ń
Ġw hi
Ġd raw
en ch
Ġsu it
Ġw onder
Ġru n
Ġsomet hing
Ġcomp any
Ġgu ilt
Ġstri ke
Ġatt end
Ġmur der
f olk
Ġt ale
Ġw idow
Ġb urn
Ġd ish
ĠTh us
ĠV ols
ĠNor folk
Ġhar m
Ġser ve
Ġhigh ness
Ġvo ices
Ġà§© à§¦
Ġne xt
à§§à§ ¦
Ġà¦Ĩ à¦¹à¦®
à¦Ĺ à¦²à¦¬
O P
Ġw atch
Ġwor k
ĠB i
ak es
is hed
à§ĭ à¦ģ
Ġà¦Ĩ à¦¹à¦¤
Ġm us
Ġtri b
à§ĭ à¦ĥ
g es
à¦¬ à¦¹
and er
Ġc hange
Ġs at
T w
Ġlo ving
Ġs ide
Ġà¦ķ à¦ª
Ġc or
ĠC A
Ġs ing
à¦ı à¦°
m ost
Ġkn ew
Ġheaven s
Ġstreng th
ĠA UM
ER LE
Ġdid st
Ġgentle men
ĠAN TON
Ġconf ess
ĠLu centio
ĠAUM ERLE
ĠANTON IO
à¦ķ à¦¨
à¦Ĺ à¦¬à¦¨
ĠA r
li c
à¦ĺ à¦Łà¦¨
m ber
à¦¿ ?
Ġà¦¬ à¦ķ
Ġà§¨à§¦à§§à§ ¬
à¦ĺ à¦°
Ġà§¨ à§«
Ġà¦ķ à¦¤
Ġdis c
Ġa ct
Ġh ot
Ġà¦ħ à¦Ĺ
Ġl ad
ĠC ap
Z A
ĠP et
Ġple asure
Ġent er
Ġw ast
Ġà¦ı à¦ĸ
Ġcl oud
Ġaf f
Ġbra ve
ĠBi anc
h ood
Ġs ake
Ġst ir
ĠL anc
ĠG ON
ĠMar ry
eth inks
Ġenem ies
ZA LO
ĠLanc aster
ĠGON ZALO
à¦Ľ à¦¨
ĠS w
Ġà¦Ń à¦Ĺ
à¦ª à¦¥
ir l
all y
ĠC h
Ġt its
Ġb it
Ġà¦ª à¦ķ
à¦¨ à¦°
à¦ĩ à¦°
Ġà¦ħ à¦¶
Ġex t
Ġà¦ĵ à¦ĩ
ĠM ost
ar l
oo se
Ġthan ks
Ġs ign
il s
Ġle ad
à¦¿ âĢĻ
Ġà§¨ à§§
Ġg ar
f id
Ġs k
Ġp ie
Ġcom ing
Ġtit le
Ġfor g
ĠL ady
ĠP om
i ers
ĠH ER
Ġcour se
Ġb reat
Ġsee k
ĠU nt
Ġbeg g
Ġdeli ver
ĠBianc a
Ġp ale
Ġg ates
Ġsoul s
Ġwit hal
Ġche e
ceive d
Ġsuff er
Ġà¦¹ à¦ķ
ck s
à¦° à¦Ł
à¦· à¦®à¦¤
à¦Ĺ à¦¨
Ġà¦Ĩà¦Ĺ à¦¸
ot s
a res
Ġli ps
à¦ľ à¦§
Ġp rom
D IO
pe ak
Ġab s
Ġthem selves
cl aim
Ġbe come
Ġwe ak
Ġe ither
Ġs ick
ow ard
à¦¼à¦¾ ,
ĠC LIFF
Ġj est
Ġpl ain
Ġri ch
AU DIO
ĠCL AUDIO
MIO NE
Ġpat ience
ĠRi ch
Ġord er
ĠPet ru
ĠHER MIONE
ĠCLIFF ORD
Ġb ig
ĠP o
Ġso ft
Ġà¦ľ à¦®
ak ing
Ġà¦ĩ à¦¸
s es
à¦¾ âĢĻ
Ġà¦Ĺ à¦°à¦®
D A
Ġà§¨ à§¨
Ġm outh
ion s
ed s
Ġbl ack
ĠJ O
à¦¿ :
Ġw all
ir th
Ġc ast
Ġa c
à¦« à¦²
ĠC all
Ġre g
Ġis sue
Ġe v
Ġbre ast
Ġà¦Ĩ à¦«
ar ry
is f
ĠA u
ĠBe ing
ĠM ake
ĠT ran
ĠS ince
Ġv en
Ġpro p
Ġw ise
ĠB es
Ġà¦ĵ à¦ªà¦°
Ġche er
Ġs ame
re ady
Ġfor get
ra ce
Ġfor b
ĠL ORD
Ġal ong
Ġà¦Ī à¦¦
Ġmer ry
ch io
ĠE L
Ġsw orn
Ġwor se
Ġtoo k
Ġpo ison
Ġcons ul
RAN DA
tw as
tw ere
Ġvirt ue
ĠMI RANDA
Ġfur ther
fid ius
ĠPetru chio
ĠAu fidius
ĠTran io
à¦Ł à¦ĵà¦¯
Ġà¦® à¦ľ
à¦ļ à¦¯
à¦ĩ à¦ľ
Ġà§¨ à§¦à§¦
à¦ª à¦¸
l er
Ġlo ves
à¦° à¦ľ
i x
S ON
u ff
Ġà¦ı à¦Ĺ
Ġb ook
at s
Ġw ed
Ġd ire
à¦¦ à¦²
Ġoff ice
e ep
Ġb ad
Ġre c
l st
Ġmo ve
Ġmorn ing
H N
Ġw is
Ġe mb
Ġal ready
Ġf our
Ġg ave
Ġli ber
Ġrequ est
Ġs ur
ĠHere ford
Ġbeg in
Ġcons ent
ĠAl as
Ġgiv en
Ġdanger ous
Ġbat tle
ĠJO HN
i ant
g ing
Ġpr ot
z e
c her
à¦Ĺ à¦£
ĠA b
u res
v o
Ġ !
Ġà¦¹ à¦¸
Ġà¦Ĩ à¦¹
Ġb ab
Ġà¦ĺ à¦°
Ġà¦Ń à¦¯
ĠY es
Ġà§¨ à§©
Ġen c
Ġp ay
f ter
el come
n k
oo p
Ġg ro
or ge
Ġclo se
ic er
Ġà§¦ à§§à§Ń
Ġb row
m ond
u ous
u sed
ru st
Ġgo es
Ġfo ll
Ġtr ou
Ġsu cc
Ġson s
ĠS peak
ĠBe fore
Ġfe ast
Ġquar rel
Ġsat isf
Ġf rown
ĠT ower
an us
Ġne ither
Ġfo e
iol anus
dd en
Ġsold iers
Ġwound s
Ġbetw een
ĠRich mond
he m
ew s
Ġha ving
à§§à§ §
à¦¥ à¦¬
Ġà¦ī à§İ
Ġà¦¸ à¦ļ
à§ĩ à¦ģ
Ġpri v
Ġà¦¶ à¦¹à¦°
l ish
Ġ201 8
r ist
Ġà¦¯ à¦ĸà¦¨
ar is
Ġà¦¤ à¦ĸà¦¨
à¦Ĩ à¦®
Ġà¦Ĩà¦ª à¦¡
w e
Ġ X
ĠW elcome
Ġu nd
à§¨ à§ª
Ġd ro
N T
à¦¬ à¦¯
ow ers
Ġv iol
Ġbl ess
re st
ĠA p
aw d
Ġc ase
Ġfa v
Ġwat er
ĠM ust
Ġv ict
Ġm al
Ġbri de
Ġ est
Ġd read
Ġre d
are t
Ġspe ech
ĠMar g
Ġbri ef
Ġs igh
Ġth ri
Ġof ten
ĠS uch
Ġthen ce
Ġpres ence
TES BY
Ġserv ant
ĠUn less
ĠBec ause
ĠCA TESBY
à¦° à¦«
à§® à§®
à¦Ĩ à¦ĩ
ĠÂ »
on a
Ġà¦ħà¦¬ à¦¶
g er
Ġà¦¶ à¦¹
à¦ĩ à¦®
à§§à§ ®
ĠP re
à¦¾ !
Ġà¦Ĩà¦² à¦®
Ġà¦§ à¦¨
Ġà¦ķ à¦¨
Ġà¦ķ à¦ł
s o
Ġà¦¤ à¦²
ver n
Ġp en
b l
Ġg ot
li ght
à¦°à¦ķ à¦²
ir m
Ġvo ice
à¦Ń à¦¬
Ġà¦Ĺ à¦°
oo f
Ġex c
ĠK eep
p es
ci ent
ond on
ĠL ondon
Ġex p
Ġb ow
Ġto wn
ĠB oth
Ġlove d
Ġb le
Ġc ap
ĠThe ir
Ġwar s
Ġcomp l
Ġsen se
ĠWh om
I LI
Ġm ortal
ĠS aint
ĠB apt
Ġse ems
Ġking s
Ġres pect
Ġfl atter
Ġmight y
ĠGRE Y
Ġthr one
Ġden y
Ġspo ke
ĠCor iolanus
ĠMarg aret
ĠBapt ist
at ed
Ġà¦ľ à¦¬
Ġà¦ľà¦¨ à¦ª
Ġà¦ª à¦¯
v ious
Ġà¦īà¦ª à¦²à¦ķ
à§ĩ âĢĻ
ire d
Ġà¦īà¦ª à¦¸
à¦° à¦ĩ
ĠG e
Ġt a
C A
b ed
ĠIs ab
Ġa ction
I V
Ġmo on
a ves
Ġb ro
Ġd ra
end s
Ġj o
Ġwor ship
Ġbu y
id ed
Ġkn ock
Ġpre t
ĠGe orge
ĠP aris
Ġappe ar
Ġp romise
ĠE re
Ġsa fe
IV ERS
u ght
ĠB IAN
ĠL est
ĠR IVERS
Ġsu dden
Ġv ow
Ġan cient
Ġus ur
Ġpray ers
aint ed
Ġprince ly
Ġcha mber
Ġdeed s
Ġdish on
Ġbit ter
ILI A
ĠBaptist a
ĠBIAN CA
Ġà¦Ĺ à¦¡
ĠB l
à¦¾ à¦ĥ
Ġdo g
Ġà¦§à¦° à¦¨
Ġà¦¸à¦¹ à¦ľ
our n
Ġma st
ou n
one y
Ġà¦¬à¦² à¦Ľ
Ġc ross
à¦Ł à¦¬à¦²
à¦® à¦ļ
à¦¼ à§į
n ow
res h
Ġc ol
Ġb ar
ri es
um b
à¦² à¦ª
ot ion
st and
ĠD own
ĠSt and
Ġà¦ķ à¦ķ
Ġl im
n own
Ġre b
les h
Ġf lesh
Ġo pp
ur ch
ĠR oman
Ġc reat
Ġhead s
Ġra ge
Ġwit ness
Ġapp ro
B OW
Ġ ign
Ġb awd
Ġc oward
es sed
ĠG AU
ant age
Ġking dom
Ġpre pare
Ġsc orn
Ġtri ump
Ġval iant
Ġpresent ly
Ġpat ient
Ġlam ent
ĠEL BOW
ĠGAU NT
Ġà¦ħ à¦²
Ġà¦Ĳ à¦ķ
à¦£ à¦ķ
s p
Ġà¦¸à¦® à¦ķ
ĠA m
Ġà¦Ĩà¦¸ à¦Ľ
c y
s u
in es
al s
ĠJ o
Ġl ab
Ġe at
Ġà¦ª à¦ł
Ġg all
à§ĩ -
ĠC a
s c
Ġoff er
ĠCh rist
Ġsl ave
U R
Ġpr in
Ġsec ret
em n
ak en
s h
ĠM erc
Ġvis it
Ġd ark
Ġdr ink
s per
Ġt er
Ġle ast
m and
y ing
Ġbe c
ĠM ON
Ġwas h
ĠH ort
ĠTh ink
G UE
x ford
à¦² à¦®
Ġl ack
Ġp it
ĠT Y
Ġfor ward
ĠO xford
Ġk ins
Ġpr ithee
ant ag
Ġdef end
ens io
Ġfault s
TA GUE
Ġtrib unes
ĠMON TAGUE
ĠHort ensio
ĠA d
Ġà¦¶ à¦ķ
Ġà¦¸ à¦¦à¦°
Ġsm all
à¦ķ à¦°à¦£
Ġin n
m ail
ing er
ak ed
Ġà¦ķ à¦ĸà¦¨
à§ģ âĢĻ
à§ģ :
ĠOf f
le y
ur al
em pt
ĠE x
b it
Ġn ay
Ġd est
Ġ id
Ġà¦Ń à¦¬à¦¨
ĠK at
ho st
Ġà¦ı à¦¸à¦¬
Ġpro v
2 4
Ġm id
ĠNor th
Ġin s
ull y
Ġb en
Ġh ide
ĠW hi
à¦ĩ à¦Ń
Ġbe ast
Ġpret ty
Ġun w
har ina
Ġf ie
Ġth ither
Ġo cc
ĠH ark
ĠD oth
pe y
Ġal most
Ġsl aughter
umber land
ĠBo hem
Ġchan ce
Ġsubject s
Ġdep art
Ġexec ution
Ġdam n
ĠPom pey
ĠKat harina
ĠNorth umberland
Ġà¦¬à¦² à¦¤
ie w
à§§à§ ª
à¦¿ à¦ĥ
ĠB r
ĠP a
Ġà¦« à¦°
à¦¯ à¦ĩ
à¦Ĩ à¦°
Ġà¦¬ à¦ĩ
A T
à¦ī à¦¬
am es
à§§à§ ©
à¦® à¦ª
l s
if f
à§ģ ,
Ġp ain
à§ĭ :
ĠT w
Ġd u
ĠPa ul
am ent
à§§à§ ¬
ĠSw eet
Ġf ill
à¦§ à¦¤
ci ence
Ġb irth
Ġà¦ıà¦ķ à¦ĩ
ea ch
re m
Ġf ond
Ġfor m
Ġli ving
Ġquick ly
Ġb ase
ĠP eace
Ġwr it
per ate
led ge
I TA
h ind
à¦¶ à¦²
Ġe as
Ġmus ic
ĠVI R
ĠH old
Ġtru mp
Ġper form
Ġfav our
ĠVIR G
Ġt ear
Ġw ert
Ġc ertain
ĠP ERD
Ġgood ly
Ġpro ceed
Ġaw hile
Ġhad st
Ġwhen ce
Ġoff ence
Ġhear ing
Ġgri e
Ġgl ad
Ġvirt uous
ĠBohem ia
ĠVIRG ILIA
ĠPERD ITA
à¦¯ à¦¦
Ġà¦¯ à¦¤
à¦¾ .
à§ĩ ...
o ss
à§¨ à§¦
n y
à¦® à¦¶
Ġinn oc
j oy
à¦¬ à¦¦
Ġà¦¨ à¦ľà¦°
Ġà¦ļà¦² à¦Ľ
Ġà¦Ĺ à¦¬
Ġg irl
Ġà§§à§ª à§¨à§«
ust om
à¦¹ à¦¬
i est
Ġw ild
Ġf r
Ġu r
v est
à¦ŀ à¦ª
d ing
a pe
Ġc le
à¦¡ à¦¨
e ver
Ġs hi
ĠY ea
for ce
ĠEng lish
L Y
Ġà¦Ĩà¦¬ à¦¦
d ge
or th
ar ing
Ġt or
Ġw alk
Ġin j
Ġwor st
Ġple as
ast ard
Ġgreat er
ĠIsab el
Ġa y
Ġsha d
Ġbl ows
ĠSt ay
Ġch urch
Ġkne e
Ġguilt y
Ġm atch
Ġm ild
is ure
ed ant
ĠS LY
Ġfor sw
fe it
Ġqu iet
Ġdis g
Ġaf fection
Ġle isure
ĠMAR IAN
Ġsle w
Ġlaw ful
Ġtre ason
Ġweep ing
Ġsold ier
ici an
Ġdeser ved
Ġang ry
ĠMARIAN A
Ġà§¨à§¦à§§à§ «
à¦Ĩ à¦¨
Ġà¦® à¦¸
à¦¿ .
Ġà¦¸à¦¹ à¦ķ
Ġà¦ļ à¦°
u al
Ġm od
Ġà¦® à¦°
Ġm ed
Ġe m
on s
ĠM en
à¦īà¦¨ à¦²
à¦¤ à¦°à¦£
Ġà§® à§®
Ġs ho
ar n
à¦¾ )
on y
ĠO ut
Ġsh ows
Ġsec ond
Ġy ear
Ġlad ies
ĠP ad
à¦¸ à¦Ń
ĠS T
li ve
à¦¯ à¦°
Ġf am
à§ĩ !
g ue
ĠW atch
Ġneed s
Ġl ist
a wn
à¦ķ à¦ķ
Ġc itiz
z en
Ġh ur
Ġlet ter
os ition
g mail
ĠM ist
Ġcont in
igh b
Ġw on
Ġbe hind
Ġlet ters
end ed
Ġgo vern
Ġmar ch
oint ed
Ġtrou ble
Ġha p
Ġso le
Ġne ck
Ġun k
Ġsent ence
Ġenc oun
Ġbec ause
Ġf led
à¦¸ à¦°à¦ķ
ĠW hile
Ġme asure
Ġre ign
ĠP AR
ĠG ru
Ġdo om
Ġour selves
Ġshe pherd
Ġwould st
Ġspeak s
Ġkne el
Ġprison er
Ġbanish ment
ĠPl antag
ĠGre mio
Ġcloud s
Ġbreat he
Ġforb id
Ġliber ty
Ġdishon our
Ġign or
ĠPad ua
ĠPAR IS
ĠGru mio
ĠPlantag en
n e
à¦ľà¦¨ à¦ķ
Ġà¦° à¦ļà¦¨
à¦¨ à¦²
à¦Ĩ à¦²
Ġà¦Ĩà¦¸ à¦²
à¦¼à§ĩ ,
Ġà¦¤ à¦¦à¦¨
ang l
à¦Ĺ à¦łà¦¨
Ġf uck
âĢ ĺ
Ġà¦ĩà¦ī à¦°
ĠâĢ ¦
à¦¾ ?
b an
Ġà¦¨ à¦®
id er
à¦¨ à¦Ĺà¦°
Ġà¦Ĩà¦° à¦¬
à§ĭ .
à¦¯ à¦¸
il es
un g
ĠI nt
ĠA nt
à¦ľ à¦®
à¦ķ à¦¯
à¦ĸ à¦ķ
Ġf resh
à¦ī à¦²
at ors
Ġà§¨ à§Ń
Ġgra nd
ing ly
Ġst or
Ġdru nk
d le
ve l
et y
Ġre f
Ġc ru
Ġr ough
ac le
Ġl aid
Ġp et
Ġgold en
f ully
Ġ ut
Ġf ive
ĠT oo
à¦ª à¦Ł
Ġab ove
: '
Ġs ort
Ġhe ld
Ġnot e
ĠH ea
ĠF ear
Ġch oose
Ġtem p
Ġvict ory
Ġm orrow
Ġb ones
Ġd ry
Ġh und
at ing
Ġof t
à¦ľ à¦ķà¦¤
Ġas ide
ĠG aunt
Ġse at
Ġli ved
Ġno ise
Ġv ain
Ġpro claim
Ġpro sper
ĠPET ER
Ġrem ain
Ġlong er
Ġwom b
Ġcons cience
ĠSir rah
Ġapp are
Ġob ey
Ġdisp atch
Ġcond emn
Ġpie ce
Ġjo in
ĠPlantagen et
Ġhund red
ch ool
à¦¤ à¦²
ur s
à§¨à§¦à§§à§ ®
âĢĮ à§į
Ġà§¨ à§¬
Ġà¦ª à¦²
Ġà¦¸ à¦ª
Ġha ir
Ġà¦ĵ à¦°
ĠM e
p r
ul ar
lo ck
ile d
à¦ľà¦ķà¦¤ à¦¤
um e
à§ĩ âĢ¦
w w
à¦ĩ à¦¡
Ġv iew
he ad
uth or
u de
à¦¸ à¦Ł
à¦² à¦«
Ġf at
à¦· à¦®
2 01
g r
à¦¤ à¦¦
i res
Ġgl ory
Ġà¦ı à¦¦
Ġà¦¦ à¦°
Ġbe ll
à¦ĸ à¦°
à§© à§¦
Ġà¦ı à¦¡
se t
e em
Ġt ent
Ġà¦Ĩ à¦§
Ġl au
ĠP er
Ġdo ing
Ġro b
it ies
le ase
pose d
re nt
ound s
f fect
Ġs us
Ġbe nd
! --
Ġcon qu
Ġsa f
Ġp ra
Ġkne es
à¦¯ à¦¯
Ġl ust
ve y
ĠH ear
Ġe ffect
Ġent ertain
! !
b ly
Ġs li
ĠC ould
AR T
Ġcoun ter
as ion
Ġwar m
Ġth reat
Ġsa c
Ġbear s
Ġsc ar
Ġsucc ess
ĠX I
a ith
Ġs aint
Ġb roke
Ġf ru
Ġf ine
ĠD OR
Ġsw ift
Ġdes perate
Ġpre cious
Ġforg ot
W IS
in ius
er le
Ġd rown
Ġl ow
ĠA RI
à§Ģ -
ce it
ĠC ates
Ġre vere
Ġst ain
Ġst ood
Ġyour selves
ĠL ART
ĠE arl
Ġbl essed
Ġshe d
Ġknow ledge
ie u
Ġsl ander
ĠLE WIS
Ġpri de
Ġwo es
Ġland s
Ġob ed
Ġste el
Ġtoward s
Ġdesp air
the n
ĠCap ul
ĠUnt o
Ġven ge
Ġwis dom
Ġlab our
Ġkins man
ĠWatch man
Ġcitiz ens
Ġencoun ter
ĠARI EL
ĠCates by
ĠLART IUS
Ġà¦° à¦¸
Ġà¦¶ à¦¬
Ġ0 5
à¦¼ ?
à¦Ł à¦«
Ġà¦ĩ à¦°
h n
b d
à¦ķ à¦Ń
ĠE n
Ġà¦ī à¦ĩà¦ķ
à¦¤ à¦¤
Ġà¦Ĺ à¦łà¦¨
à¦¶ à¦Ĺ
if ul
à¦¶ à¦°
Ġà¦ľ à¦Ļ
ĠF ri
à¦¼ :
Ġen joy
Ġâ Ĺ
à¦¸ à¦ļ
ĠD is
à¦ī à¦¦
ation s
Ġà¦ıà¦ĩ à¦ļ
Ġwh ite
t s
ĠV er
re nce
Ġp un
i p
à¦¸ à¦¤
il ity
Ġst ud
Ġhe alth
Ġm oney
Ġc apt
ĠJo hn
Ġa uthor
Ġd ance
est ion
à¦¼ à§Ĥ
Ġse al
m ed
v ail
à¦° à¦ªà¦°
Ġp al
ow b
Ġs our
Ġm ount
Ġunder stand
o ll
Ġe ld
AM P
Ġgu est
à¦ķ à¦¸
Ġd ied
à¦ı à¦²
eter m
Ġb astard
Ġst o
Ġpl ant
Ġrem ed
Ġarm y
Ġgu ess
; '
i ance
Ġa live
Ġm ut
Ġm ethinks
Ġf ought
it ors
Ġc orn
Ġd eterm
ĠA um
ĠS AMP
ĠC UR
ĠM owb
ĠP edant
Ġse ver
Ġman ner
Ġqu oth
ef ul
ĠWith in
Ġab ro
Ġhonour s
Ġcont r
Ġdead ly
Ġke pt
Ġfe w
Ġfl owers
Ġstru ck
Ġlords hip
TI S
Ġwret ched
Ġbegg ar
Ġchee ks
Ġprom ised
ĠKeep er
Ġmast ers
ĠAum erle
ĠSAMP SON
ĠCUR TIS
ĠMowb ray
d en
Ġà§¨ à§¯
le ct
ĠS c
à¦¨ à¦ĵ
à¦ĸ à¦¬
à¦ī à¦¡
pp y
Ġà¦ħ à¦¥à¦¬
ir c
à¦ª à¦¡
Ġà¦® à¦¯
li x
Ġà¦ļà¦² à¦ļ
à¦ı à¦ĩ
à¦² à¦Ł
Ġà¦ª à¦¶
à¦ı à¦«
à¦Ł à¦¸
à¦ ¢
à¦¯ à¦¥
ĠL ea
Ġacc ount
: --
ro y
Ġst ars
Ġs im
l ong
ĠE X
ea se
er n
Ġgo ing
re ed
ĠP ut
it es
ĠM ine
am ed
B U
Ġt ry
ĠV in
' re
ou nce
ĠL ew
ON US
Ġsum mer
Ġc red
Ġdream s
Ġcru el
Ġt each
à¦¯ à¦ķà¦°
or ious
Ġà¦¨ à¦¦
Ġde mand
Ġr ot
Ġoff icer
ĠLew is
Ġse ven
Ġà§¨ à§®
Ġne ighb
à§© à§«
Ġear ly
Ġgre et
ĠHea ven
G ONUS
L EY
b ury
m ble
Ġa id
Ġc ried
Ġg ent
ut io
ĠP ardon
Ġli est
Ġsha ke
ĠE ither
Ġher self
Ġwhe ther
Ġam ong
Ġsp ent
Ġtru ly
Ġbrother s
Ġhonour able
ĠAN TI
Ġcall s
Ġmo ved
ĠCitiz ens
Ġkind red
Ġgu ard
Ġval our
Ġchar ity
Ġfool ish
Ġste al
Ġhum ble
Ġjud ge
Ġwret ch
ĠPo or
Ġusur p
Ġtriump h
ĠMerc utio
Ġscar ce
BU RY
ĠANTI GONUS
ĠH ome
Ġà¦¨ à¦Ĺ
à¦° à¦Ľ
ĠL o
à§ª à§¦
Ġà¦ĩ à¦ŀ
Ġà¦¸à¦® à¦°
ĠF l
) à¥¤
à¦² à¦¸
à¦ļ à¦ķ
Ġà¦¯ à¦¥
à§¨à§¦à§§à§ Ń
Ġp orn
g o
x x
Ġad d
ĠâĹ ı
Ġà§¨à§¦à§§à§ ª
ĠA B
as k
re es
Ġri d
Ġth ro
à§ĩ .
Ġf art
à§¨ à§¨
o on
ad s
Ġpart y
ĠB et
ĠM us
Ġà¦¡ à¦²
Ġmon th
à¦² à¦Ń
Ġà¦ı à¦Ľ
Ġim ag
l p
u nder
ĠLea ve
R A
à¦° à¦Ĩà¦¨
if y
load s
in ing
à§¨ à§§
Ġy ea
way s
h ouse
le ep
art ed
as c
co ver
Ġc ustom
Ġc irc
ĠH arry
Ġfor ce
Ġde g
Ġcha st
Ġgl ass
Ġpriv ate
Ġlau gh
b orn
Ġp ack
ĠNe ver
Ġmin ister
Ġb right
Ġth ie
Ġbe ha
ĠB id
ĠM ade
ĠO nce
Ġwin ter
g ment
u ed
Ġf aint
Ġd in
Ġst one
al ous
Ġex ce
Ġpri est
Ġcra ve
AT C
Ġw ail
Ġd well
im ent
Ġwe ary
Ġe ase
ĠF aith
ĠR ATC
th ough
Ġan on
Ġfa ire
Ġour s
Ġbl ame
Ġthere of
Ġpro vost
Ġen vy
Ġr ise
Ġdis m
mit ted
Ġthink s
Ġwhere fore
Ġother s
com es
Ġtri al
Ġkind ness
Ġsub st
Ġfell ows
Ġbid s
Ġmis er
ĠAl ack
ĠCom inius
Ġcond ition
ĠVols ces
Tw as
Ġwall s
Ġsatisf ied
Ġmal ice
Ġid le
Ġben ef
orth y
Ġvenge ance
Ġabro ad
ĠRATC LIFF
Ġà¦® à¦¡
.. ..
Ġà§« à§¦
ĠNe xt
ĠS p
a ily
oo bs
Ġà¦ªà¦° à¦¬à¦°
g g
à¦ıà¦¸ à¦¸
à¦°à¦® à¦£
Ġprot ect
Ġà¦ĺ à¦¨
à¥ ¥
am p
à¦ī à¦°
à§¦à§§à§ Ń
à¦¾ ...
Ġs chool
Ġà¦ĩ à¦²
Ġà¦ª à¦£
à¦£ à¦¤
Ġà¦īà¦ª à¦ķ
Ġà¦īà§İ à¦¸à¦¬
à¦¹ à¦¨
Ġà¦¦ à¦¶
Ġà¦ħ à¦Ļ
à¦§ à¦°
ick ed
Ġà¦Ĩà¦¨ à¦¨
Ġbl ind
Ġà¦ĵ à¦¬
all ow
it ed
ĠL e
Ġsp ort
l ay
Ġ ver
en es
à¦² à¦¦
ĠSh ow
ĠAr t
Ġbo ot
v ol
om as
em ent
Ġro ot
Ġà¦¸à¦¹ à¦¯
n ers
ĠT rue
ĠP ost
or ous
ĠI nd
w ith
à¦ľ à¦¬
are d
ĠU nder
ose d
Ġfl ower
à¦Ł à¦®
ĠA fter
ĠP lease
ĠDown loads
Ġme at
id ent
Ġac qu
en ess
à¦ĩ à¦¤
ĠB arn
Ġde al
ap er
Ġext rem
Ġw re
Ġw ag
ed ing
ĠP eter
Ġgo d
Ġun f
Ġtong ues
ren ch
sha l
IS H
Ġeas y
B AL
Ġb ite
Ġf irm
ve ll
ĠR ut
Ġcon vey
ru pt
ĠTh omas
Ġv ice
li eve
io li
Ġqu estion
Ġhon esty
Ġà¦Ĩà¦¸ à¦¬
ail or
Ġchan ged
Ġev il
Ġw ench
Ġc orse
Ġd ull
Ġl est
Ġg own
Ġbe f
Ġin cl
ĠH ence
Ġre ceived
ĠM ant
ĠM ethinks
Ġfor mer
ĠF ie
Ġcon cl
Ġv ile
Ġsh ore
Ġsh rew
Ġar ri
AN LEY
Ġqu ite
Ġmay st
Ġfo es
ĠLord s
Ġaf ford
Ġty rant
Ġco ver
Ġcount en
Ġhum our
Ġsword s
Ġdep uty
ĠCor ioli
Ġposs ess
Ġjud gment
Ġprop he
Ġexc use
ĠTY BAL
ĠWhi lst
ĠPaul ina
ĠST ANLEY
Ġfru it
ĠVin centio
ISH OP
ĠRut land
ĠMant ua
ĠTYBAL T
ard en
Ġà¦ıà¦ķ à¦¦
à¦°à¦¸ à¦Ļ
Ġà§¨à§¦à§§à§ ©
Ġà¦ľ à¦¡
Ġà¦ľ à¦²
à§¦ à§¨
à¦° à¦ĸ
à¦ľ à¦²
Ġà¦¹ à¦¨
Ġdou ble
m on
e k
e red
Ġ ed
Ġà¦ĩ à¦ļ
à¦° à¦°
Ġart ic
à¦ľ à¦ª
ep t
à¦° à¦®à¦¨
Ġ à¥¥
Ġb oobs
A K
ĠL ove
Ġin d
à¦¼à¦¾ à¥¤
Ġf inger
a ff
à¦ª à¦²
à¦Łà¦ķ à¦®
ĠT H
Ġà¦¨ à¦Ĺà¦°
à§« à§¦
Ġà¦¸à¦« à¦°
Ġh ol
ĠT ut
Ġdo or
ĠPr ince
o pe
Ġ1 0
ĠS om
à¦ļ à¦°
e ed
ch ie
' ?
l ow
Ġà¦Ĺ à¦Ń
Ġr an
li es
AN D
ll en
Ġgre en
ĠBr other
Ġt aken
Ġà¦ª à¦¬
Ġà¦ª à¦Ľà¦¨
Ġg ift
Ġst op
il ia
Ġal ways
Ġtw ice
ĠSt an
ĠDe ath
Ġw icked
Ġc ure
Ġth under
ri ft
are r
are st
Ġun l
Ġsp ring
Ġlea ves
Ġfl at
az ed
Ġcho ice
Ġwhi lst
Ġaff air
Ġbrow s
r ison
w oman
Ġt read
Ġw ither
Ġf ain
Ġd ust
à¦¦ à¦£
Ġp ains
Ġg rown
Ġg ross
Ġg host
ĠW ilt
Ġst ab
id ings
EN BURY
ĠD ost
Ġno se
Ġbut cher
Ġne cess
Ġkn ave
Ġar g
Ġbl est
ci ans
Ġshe ep
Ġsir rah
Ġj oint
Ġthere in
ĠJ ove
Ġsp ake
OM AS
ac her
urse d
Ġfi ery
Ġpre vent
Ġpre vail
Ġper ceive
Ġrep ent
Ġty ran
ĠBR AK
Ġtra itors
tw ixt
Ġunder t
Ġwrong s
Ġreason s
Ġsen ate
Ġbur ied
Ġsil ence
Ġdiv ine
ĠBes ides
Ġemb race
Ġcreat ure
ĠCa ius
Ġocc asion
ĠMist ress
Ġsaf ety
Ġsac red
ĠCapul et
ĠFri ar
ĠVer ona
Ġremed y
ĠTH OMAS
ĠStan ley
ĠBRAK ENBURY
ĠHa ving
Ġâ Ĩ
à¦¸à¦® à¦¯
à¦ĩ à¦¦
à¦¥ à¦²
ad es
à¦¶ à¦Ł
à¦¹ à¦ľ
à¦® à¦ľ
à¦¼à§ĩ à¥¤
Ġà¦®à¦¸ à¦ľ
Ġse x
Ġà¦« à¦ĸà¦°
an e
k ed
Ġà¦Ĩ à¦ļ
à¦¿ !
à¦ĵ à¦¤
Ġà¦īà¦ª à¦¦
ang u
à¦Ĩ à¦ĩà¦¨
à§ĩ )
à§¦ à§Ń
à¦ª à¦£
Ġà¦¸ à¦ł
à¦ı à¦¬
à¦Ĺ à¦¡
ĠPre vious
n at
Ġà¦ ·
à¦° à¦ľà¦¨
à§¨ à§©
o ard
? '
Ġà¦¬ à¦¦à¦²
s hi
à¦Ĺ à¦¬
à¦ĩ à¦¹
Ġà¦ıà¦® à¦ª
han t
ĠS u
Ġà¦ľà¦¨ à¦Ĺà¦£
hy s
unt s
or ry
Ġl ar
Ġin form
ast e
m n
Ġsha r
p in
ĠT urn
o ly
à¦¥ à¦ķ
Ġr ound
Ġ es
Ġuse d
a ct
p ed
à¦ķ à¦ļ
Ġe mp
ĠF r
Ġkn ight
Ġro ck
Ġmaid s
angl a
Ġde c
ĠCap it
Ġbell y
i cious
ĠWith out
Ġdro p
s he
an ch
an ces
row s
Ġho llow
ON E
Ġdes ign
Ġdeli ght
a ol
Ġs hip
Ġl angu
Ġp ract
Ġg arden
Ġe ag
Ġall ow
un ning
aught ers
ST R
Ġtem pt
ĠAp oll
Ġem pt
G OR
e alous
Ġa vo
ĠS ic
ĠH as
ĠO V
Ġlo yal
ĠMy self
el ve
Ġru de
Ġsm ile
Ġdeser ve
Ġrot ten
m ity
Ġs its
in ous
Ġw ent
Ġw ings
Ġb ark
er set
Ġf ury
Ġc ares
en ius
ed ious
Ġre nown
Ġst ones
Ġwe eds
Ġde ceived
ĠD ER
Ġlo ath
ard ine
Ġfa res
Ġsh r
oth ing
Ġor acle
lo ved
Ġmay or
Ġimp rison
Ġsa il
Ġpl ot
Ġpl ague
Ġfri ght
Ġcl aim
Ġwhere in
Ġcomm end
ĠWhere in
Ġad ieu
Ġpray er
Ġtr oth
ĠGRE GOR
Ġtre acher
Ġass ist
Ġwant on
ERD ONE
ĠMI STR
Ġang er
ĠPr ithee
Ġchee k
Ġabs ence
Ġviol ent
Ġbro ken
Ġdra wn
Ġtrump ets
ĠMen enius
Ġignor ant
Ġut ter
ĠInd eed
ĠBarn ardine
Ġcounten ance
ĠSom erset
ĠCapit ol
Ġpract ise
ĠOV ERDONE
ĠDER BY
ĠGREGOR Y
ĠMISTR ESS
Ġbab e
à¦¬ à¦ĩ
Ġà¦ĺ à¦£
à¦· à¦°
Ġà¦Ń à¦¬
Ġà¦« à¦°à¦®
à¦°à¦ķ à¦®
Ġà¦ı à¦Ń
Ġà§¦ à§¨
à¦¹ à¦ķ
us s
à¦° à¦¦à¦°
Ġd aily
à¦°à¦¸ à¦¨
Ġà¦¡ à¦Ł
Ġà¦¦ à¦°à¦ķ
ri b
Ġà¦ļ à¦¤
à¦£ à¦¬
à§¦ à§«
Ġh id
Ġp ub
em ber
ru n
Ġb all
Ġà¦ ĭ
à¦Ł à¦²
Ġc am
à§¨ à§Ń
à§Į à¦ģ
Ġà¦ıà¦° à¦ªà¦°
is a
Ġst ock
Ġà§ª à§¦
h or
ra nd
Ġst ar
d y
âĢ Ķ
iss ion
Ġ 6
c ha
Ġgiv es
à¦« à¦°
d raw
Ġthro at
en e
à§© à§®
ĠTh urs
ĠThurs day
Ġ 7
à¦¶ à¦¤
à¦¶ à¦¬
Ġd et
o ke
Ġh it
Ġh ung
y s
ion e
ĠK now
ĠMar k
ut es
à¦¨ à¦Ĺ
c han
n a
Ġper fect
Ġchi ef
cont ent
à¦¬ à¦§
Ġp in
ot he
ON D
p et
Ġs ens
es ter
ĠS OM
az e
ĠGre y
m ione
is es
ĠG reat
ard s
Ġc re
Ġst uff
Ġp air
se mb
ĠTh ree
Ġear n
Ġo w
Ġpro per
ĠHer mione
pl ace
Ġl oud
Ġp i
ur ance
Ġon es
eet h
Ġplease d
X F
Ġst at
Ġam b
ĠInt o
Ġsim ple
pin ion
M OND
e ld
e ous
Ġa im
Ġm otion
Ġw ives
à¦¬ à¦Ĺà¦ŀ
Ġc ell
Ġd ue
Ġn ine
Ġn ames
Ġp awn
Ġth rust
ĠC o
Ġde w
ĠV AL
Ġj ealous
Ġqu it
Ġwho le
Ġhea v
Ġpass ing
Ġcast le
Ġund one
Ġexp ress
Ġstor m
Ġaffair s
ĠApoll o
Ġt une
Ġt idings
Ġt edious
he ld
Ġa ught
Ġs ix
Ġw ont
re he
ha ps
on ounce
Ġc ries
es y
Ġp il
Ġg ain
Ġbe comes
ce nd
Ġin fect
ld om
ĠC ousin
Ġre ceive
Ġas leep
ĠO XF
Ġde posed
ĠP isa
Ġv antage
ER IA
Ġun s
Ġshould st
Ġaw ake
Ġres ign
Ġen vious
Ġr asc
Ġout ward
ĠRICH MOND
Ġoff end
Ġal as
Ġple ad
Ġmean ing
Ġbeg ins
Ġru in
eth ought
Ġban ished
Ġwo ful
Ġdev ise
Ġfollow ers
Ġfool s
Ġpers u
Ġhang ing
Ġadv ise
Ġremem b
Ġborn e
Ġsupp er
Ġcar ry
Ġlam b
ĠRi vers
Ġinstru ct
Ġdisp osition
Ġposs ible
Ġnob les
ERS ET
Ġdesp ite
Ġgar ments
Ġfoll ows
Ġdread ful
Ġsigh s
Ġthri ve
Ġcol our
Ġprepare d
ĠChrist ian
Ġdamn ed
Ġfat al
Ġauthor ity
Ġfart her
ĠMus ician
Ġexce ll
Ġbenef it
ĠSOM ERSET
ĠVAL ERIA
ĠOXF ORD
à¦ŀ à¦¤
Ġà¦ļà¦² à¦¤
à¦ľ à¦ķ
i lf
à¦¯ à¦®à¦¨
Ġà¦ħ à¦ŀ
Ġà¦Ĳ à¦¤
à§į âĢĮ
Ġà¦ľà¦¨ à¦ķ
à¦· à¦¨
à¦ Ī
à§ĭ ?
à¦² à¦²
à¦¦ à¦¯
Ġ1 8
à§¦ à§©
qu e
Ġà¦² à¦¡
à¦® à¦°à¦£
à§¦ à§§
Ġinnoc ent
ĠTw o
à¦® à¦¹à¦¤
Ġb ond
à¥¤ âĢĻ
Ġtr ans
à¦¸ à¦¡
à¦¡ à¦¸
ĠB oy
ro om
à§Ń à§§
à¦ķ à¦¶
Ġc a
Ġst ep
Ġà¦ħ à¦ľ
Ġt ort
ill s
à§¨ à§®
Ġto p
if fe
Ġan ge
à§ª à§«
ar ch
à¦ĵ à¦°
à¦¾ ),
à¦¸ à¦ĵà¦¯
ill ing
à§ª à§®
S A
Ġà¦¬à¦² à¦¬
r on
Ġà¦¸à¦« à¦Łà¦ĵà¦¯
i b
Ġcra ck
Ġpun ish
ir on
Ġb and
à¦ļ à¦Ł
Ġw ait
a pon
Ġbr ook
Ġs ong
à¦¯ à¦«
Ġro om
Ġst ore
us ion
Ġdire ct
ell o
anc y
à§ģ à¦ĥ
à¦£ à¦¬à¦¯
Ġle gs
à¦¬à¦¹ à¦¨
à¦¨ à¦ªà¦¤
Ġs orry
Ġà¦Ľ à¦¡
Ġs an
ĠV ery
ĠHe lp
lo y
ĠOff icer
H Y
y ard
Ġp hys
vent ure
a fter
Ġm at
Ġc al
Ġl ine
Ġsh ut
Ġwed ding
à¦¨ à¦Ń
Ġe le
à¦£ à¦Ĺà¦ŀ
ord s
Ġv an
ell ow
Ġt aste
à¦¸ à¦«
Ġpr oof
Ġcha ir
Ġacc ess
Ġcle ar
Ġp aper
Ġne g
Ġunt il
Ġsil ver
Ġac cept
Ġcontin ue
Ġw ine
Ġf light
it ude
Ġd aughters
ĠB ion
Ġwe ight
Ġe qu
Ġde lay
Ġse as
Ġspe ci
Ġaf fect
Ġpart s
Ġkeep s
ount y
Ġpal ace
Ġneighb our
Ġcirc um
Ġempt y
B RA
H OR
L IUS
d ello
y ond
Ġt error
Ġt eeth
Ġm urderer
Ġw ander
Ġc ens
Ġc unning
Ġl end
Ġo we
ĠT ailor
at sw
Ġg age
Ġbe w
Ġbe held
ĠB US
ĠB ona
ĠM AMIL
ĠM OW
ĠM OP
ur st
Ġwe apon
Ġli p
Ġcon j
Ġlo d
ous es
ET ER
Ġgood ness
Ġsw ay
Ġking ly
Ġun ha
Ġun nat
Ġspe nd
ime ly
Ġr ash
Ġdis d
Ġex ile
Ġdes ert
Ġgentle woman
ĠBe lieve
Ġtw elve
Ġcont ract
Ġint end
ĠSt ill
Ġper il
Ġper ish
Ġwr ath
Ġle an
ite ous
Ġwh ither
ors es
Ġacc use
Ġpri ze
Ġpur su
Ġcourt esy
Ġhum bly
Ġcur st
Ġbeli ke
Ġadv antage
Ġspir its
Ġden ied
Ġdru m
Ġbur then
Ġbetw ixt
Ġresol ve
Ġresol ved
ĠPo lix
Ġprot est
Ġpen it
Ġpleas ant
Ġshad ow
Ġforsw orn
Ġhur t
Ġsole mn
Ġpet ition
Ġconqu er
Ġthreat en
Ġsever al
Ġcontr ary
ĠEX ETER
ĠAB HOR
Ġdin ner
Ġmiser able
Ġsan ct
ĠBion dello
BRA Y
atsw ain
ĠBUS HY
ĠMAMIL LIUS
ĠMOW BRAY
ĠMOP SA
ĠPolix enes
ĠABHOR SON
à¦¼ à§Ģ,
à§¦ à§¯
Ġà§© à§§
à¦¨à¦¬ à¦¬à¦¨
à¦ĩ à¦Ĺ
à¦ı à¦ķ
ick s
u ary
ir g
Ġfa ces
Ġà§®à§® à§¦à§§à§Ń
à§ģ -
ĠR ight
ĠP age
Ġà¦¦ à¦®
Ġco ck
z z
ot e
Ġw ww
g y
pp ing
Ġst ory
à¦° à¦¬à¦¨
Ġà¦ª à¦¦à¦ķ
Ġà¦¸ à¦¤à¦°
o ot
à¦Ĺ à¦ķ
Ġà¦ļ à¦®
Ġn aked
Ġartic le
à§¨ à§¬
à¦ĩ à¦ª
Ġà¦ħ à¦¡
Ġà¦ıà¦ĸà¦¨ à¦ĵ
Ġ201 7
t e
à¦ī à¦¸
à§ĩà¥¤ âĢĻ
Ġpub lic
à¦§ à¦ķ
à¦Ĥ -
Ġad m
ho p
à¦Ŀ à¦¤
O S
à§§à§ §à§
à¦² à¦Ľ
Ġnat ural
Ġà¦ķ à¦·
Ġà¦ı à¦«
ĠR ep
r t
Ġà¦¡ à¦Łà¦ķà¦®
Ġwh ore
p ort
Ġm iss
à¦¼ -
Ġà¦ĵ à¦ł
er ved
Ġà¦īà¦¦ à¦¯
à¦ĸ à¦Ľ
p ass
Ġà¦° à¦¹
C H
Ġd ag
Ġà§§à§¯ à§¯
Ġà¦Ĩ à¦īà¦Ł
p ic
à¦ľ à¦¤
ĠMar ch
à¦¨ à¦¡
Ġb ot
Ġro se
Ġt able
ĠA R
um ble
p ar
1 2
Ġà¦Ľ à¦¯
Ġà¦ĩà¦¨ à¦¸
Ġlar ge
Ġc up
en cy
ci o
r ate
Ġturn s
Ġà§§à§¦ à§¦
ĠOn ly
Ġwat ers
Ġprin cess
Ġb as
Ġp ure
ĠN ap
ust ice
Ġà¦Ĩà¦« à¦Ĺ
Ġà¦ļà¦® à§İà¦ķ
Ġf ra
Ġre l
out s
Ġsw allow
à¦¯ à¦¤à¦®
is ing
ar ies
us es
ĠN one
Ġend s
Ġb ud
Ġv ent
Ġfa il
Ġsp r
Ġlook ing
Ġcall ed
Ġmark et
Ġcred it
c lock
Ġw ood
Ġd ies
Ġo pinion
Ġto mb
Ġg ru
Ġma king
Ġcom b
Ġsl ow
Ġway s
Ġshar p
Ġemp loy
Ġlangu age
re ase
Ġf le
Ġre ward
ĠF ather
ĠF rench
Ġcon duct
Ġun b
Ġint ent
Ġpart ic
Ġpre y
Ġrem ains
AL TH
Ġsm o
Ġatt empt
Ġadv ance
ĠMay or
Ġtem per
Ġgovern ment
v ish
he arted
Ġs qu
Ġs cept
Ġm ourn
Ġw ot
Ġw ond
Ġw its
Ġf ro
Ġf ash
Ġc alm
Ġd ign
Ġd ares
Ġd urst
Ġy onder
Ġp ainted
Ġp iteous
Ġh unt
Ġh orses
ĠA Ed
se qu
Ġhe ed
Ġg ate
Ġbe loved
Ġbe yond
ut ation
ĠB ear
ĠB ISHOP
ĠB ALTH
Ġme nd
ĠM ight
Ġst oop
Ġwe igh
our ish
Ġde bt
ĠP ERC
Ġse est
ĠN othing
ig ence
Ġpr onounce
ci an
Ġam en
Ġhat red
Ġhere after
Ġtheir s
Ġqu ench
Ġsp are
Ġho pes
Ġsee ing
à§© à§¯
Ġdis s
Ġdis cover
Ġdis content
Ġex pect
ĠMar shal
Ġfair ly
Ġad o
les ome
Ġper pet
Ġfe e
Ġhar k
Ġcrown s
Ġcour age
Ġend ure
Ġneed ful
Ġjoy s
Ġjoy ful
Ġserv ices
Ġmist ake
Ġfort unes
Ġbod ies
Ġhapp iness
Ġmis ery
Ġtre mb
Ġch ide
Ġass urance
Ġcur ses
len ess
Ġcommand ed
Ġsen ators
Ġsomet ime
Ġsomet imes
Ġwound ed
Ġspo ken
Ġinstru ment
Ġcurse d
AS AR
Ġshort ly
Ġwhi les
ĠBes eech
Ġgro an
Ġfoll y
Ġcompl ain
Ġcol ours
Ġprin ces
Ġdu ked
Ġgrie v
Ġappare l
Ġobed ience
Ġwre ck
Ġundert ake
Ġrememb rance
Ġexcell ent
Ġunnat ural
pic ion
ĠAR CH
ĠBALTH ASAR
ĠPERC Y
Ġduked om
Ġà¦ĩ à¦¬
à¦® à¦Ĺ
Ġà¦Ĩ à¦ĩà¦¸
Ġà¦ħ à¦¦
Ġ 8
à§Ģ :
à¦¿ ...
à§¦ à§®
à¦® à¦§
à§ģ à¥¤
à¦® à¦¹
ĠT it
ĠâĢ Ķ
à¦² à¦ľ
à¦¬à¦° à¦£
à¦¨ à¦¬à¦¨
Ġ 9
ĠUn c
ĠL ay
à¦ľ à¦Ł
Ġà¦Ĩà¦¸ à¦¤
ĠS et
Ġinstru ction
Ġà¦¨ à¦¨
Ġ ::
Ġv irg
Ġà¦¹ à¦Ł
Ġà§¦ à§®
à¦¤à¦¬ à¦¤
ĠPl ay
it a
Ġà¦ĭ à¦£
Ġb are
o e
Ġd i
Ġà¦ī à¦¡
à¦ī à¦ķ
ant s
Ġà§¦ à§©
à¦Ĥ ,
Ġà¦® à¦ŀ
âĢ į
Ġsk y
à¦°à¦¸ à¦Ń
Ġà¦¦ à¦«
our age
if ied
Ġh ost
Ġà¦ĸ à¦°à¦ļ
Ġtri ck
Ġth ird
à¦¥ à¦Ĺ
Ġà¦ı à¦¯
Ġst ol
s ing
âĢ ĵ
Ġà¦ľà¦¨ à¦¸
ĠE l
ĠJ ack
f er
à§ĭ -
Ġà¦² à¦¨
à¦Ľ à¦¡
à§¦ à§ª
in ation
at ic
ĠC al
Ġà§§à§ §à§
om p
Ġà¦°à¦ķ à¦®
ĠR os
Ġma g
Ġwant s
d o
l ar
Ġt ut
Ġj ourn
a fe
ĠR em
ĠYou ng
w he
ĠS on
Ġà¦ļ à¦°à¦®
Ġs ins
ub e
ĠG et
Ġal ter
Ġsc ene
à¦·à¦ķ à¦¦
Ġgre y
Ġt est
art s
um ent
Ġà¦ķà¦® à¦ª
n oon
Ġha z
Ġà¦¸à¦® à¦¨
OS S
c er
w hat
he st
Ġm ile
Ġit s
ĠL ong
ĠR et
Ġlead s
Ġm ill
à¦ķ à¦¶à¦¨
are nt
Ġfe ed
? --
Ġo dd
Ġre alm
Ġe ast
Ġbl ock
Ġim m
Ġwr ite
Ġdeg ree
Ġt ap
Ġo d
Ġg lo
Ġimp oss
ress ion
Ġinst ant
Ġprof ess
Ġcapt ain
C AS
r ous
Ġl ed
Ġp owers
ut ed
ad ed
ĠF our
ĠD ear
Ġbr ings
ol ute
Ġsa v
Ġfather s
Ġr ing
ĠSo ld
Ġro gue
Ġfriend ly
tle d
Ġtr ade
Ġrep air
Ġser ves
Ġbra in
Ġpass ion
Ġresol ution
Ġinc rease
Ġven om
Ġdro ps
Ġopp os
Ġter ms
ĠEx eter
Ġunk nown
Ġthie f
Ġpartic ular
Ġsmo oth
F OL
b ow
s ame
w ise
Ġs ink
Ġm aint
à¦ķ à¦ľà¦¨
is per
is hop
Ġf ame
Ġf lies
Ġc ease
en ces
Ġn ought
Ġh ouses
ĠA men
ĠW idow
ĠW orthy
Ġme re
Ġme ant
Ġre pe
Ġis le
Ġis land
Ġwe ather
Ġk in
id ence
ĠR OSS
Ġse ize
ĠD orse
Ġcon ce
ĠTh r
ĠTh ose
Ġv ault
Ġcom est
Ġkn ife
Ġsh un
Ġman ners
Ġbl ush
Ġhat eful
Ġqu al
Ġwor n
Ġsp ite
Ġen mity
Ġbet h
Ġint ell
Ġsl ay
Ġad vers
str ous
Ġsc ope
Ġarm our
Ġunt imely
Ġve x
Ġcons ider
Ġru le
Ġsle pt
Ġacc ord
Ġcomp an
Ġcomp ass
Ġpur cha
Ġapp rehe
Ġgl orious
Ġpass age
ĠBo atswain
Ġmaid en
ute ous
Ġseem ing
Ġbo ar
Ġstre w
ĠNOR FOL
ĠGentle men
Ġfree ly
Ġwind s
Ġcontent ed
Ġdru ms
Ġmon strous
ĠLu cio
Ġcho ler
Ġdeser ves
Ġgrow s
ĠWh ither
Ġgrant ed
ĠVols ce
Ġabs ent
Ġpriv ile
Ġrespect ed
Ġappro ach
Ġfr ame
Ġtor ment
Ġprosper ous
Ġsus picion
Ġpra ise
Ġcounter feit
ĠDOR CAS
Ġrevere nd
Ġbeha lf
Ġtreacher ous
Ġcam est
chan ce
Ġearn est
Ġdisd ain
Ġdag ger
ĠNap les
Ġscept re
Ġod ds
ĠDorse t
ĠNORFOL K
à§Ģ ?
à¦° à¦ĵà¦¯
ur b
Ġag o
à¦¨ à¦¹
ĠC ont
Ġfuck ed
1 0
ĠN ews
Ġà¦ļà¦² à¦®
Ġà¦Ĩ à¦ĵà¦¤
Ġà¦Ĩ à¦¡
k in
à¦¡ à¦²
Ġsu ck
Ġà¦Ĩà¦¹à¦® à¦¦
à§¦à§¦ à§¦
Ġà¦ī à§İà¦¸
à§¨ à§¯
Ġà§¦ à§§
Ġà¦ª à¦ŀ
Ġà¦ıà¦ķ à¦¬
à§« à§«
Ġà¦¯ à¦¶
1 1
j ust
à¦¼à¦¾ -
à¦¾ âĢ¦
Ġà¦ļ à¦ķ
a h
t ime
Ġà¦Ĺ à¦¤à¦ķ
Ġà¦ªà¦° à¦°
Ġà¦Ĩà¦® à¦¦
à¦ħ à¦¨
ĠB ra
à§© à§Ń
à¦°à¦¥à¦® à¦¬
Ġà¦īà§İ à¦ª
k er
Ġà¦ħ à¦®
Ġà¦ĩ à¦¸à¦°
ĠSt ri
Ġbab es
a ld
N S
Ġ1 2
à¦¨ à¦ª
à¦®à¦¨ à¦¸
Ġà¦Ĺà¦£ à¦®
al es
à¦Ł à¦Ł
Ġà¦¹ à¦ł
Ġà¦° à¦®à¦ľ
à¦ľ à¦Ń
Ġà¦ĸ à¦¨
ĠR om
Ġà¦Ĩà¦ĩà¦¨ à¦ľ
à¦ĩà¦¨ à¦¬
in y
à¦ĵ à¦¨
ĠCom m
l aw
Ġà§¨à§¦à§§à§ ¨
Ġm or
Ġà¦ķ à¦²à¦ķ
Ġà¦® à¦¦
Ġà¦¨ à¦ĵ
ĠB er
Ġcl am
Ġà¦¸à¦« à¦²
à¦Ń à¦¯
Ġstre ets
ĠS ave
ĠThan ks
Ġgiv ing
ĠB en
ĠP at
ĠAb out
Ġà¦° à¦¶
el t
Ġà¦« à¦Ł
ĠSu pp
Ġvirg in
ĠC ame
Ġdest roy
G H
ĠF uck
Ġà¦ĵ à¦ľà¦¨
Ġj ew
a f
Ġc hat
Ġd ress
ra in
Ġà¦¬à¦Ľà¦° à¦ĸ
al ine
Ġw a
Ġl at
à¦Ĺ à¦ľ
Ġl un
ĠG host
Ġsha m
arl et
ĠS m
ĠIt al
à¦¾à¦ĥ )
Ġfam ous
Ġb ird
ĠY e
Ġbo ots
Ġbu ild
p ul
Ġf ig
Ġà¦¬ à¦Ĺ
ĠR at
Ġlove ly
Ġ1 1
Ġnor th
Ġcha ract
Ġsil ent
Ġrec ord
Ġstud y
Ġeld er
R R
re land
er ve
ĠI reland
Ġd ig
Ġth orn
à¦¡ à¦¬
ĠH unts
Ġre vol
ru ly
Ġafter noon
Ġsupp osed
sp ir
Ġlust y
NS O
Ġa ble
Ġs outh
Ġd ying
Ġà¦Ĩ à¦ķà¦°
à¦¹ à¦«
ir ing
Ġwill ing
li ament
Ġconst ant
Ġen force
Ġtell s
Ġgreat est
ĠGRE EN
Ġwit ch
Ġput s
Ġcur rent
Ġmess enger
Ġes c
Ġavo id
Ġspeci al
Ġjourn ey
G od
S ET
f ret
Ġ ing
Ġt ame
Ġt aught
Ġt ide
Ġa like
Ġw ort
Ġb ury
Ġf al
Ġf urn
Ġc atch
Ġl ark
Ġp urse
Ġp arent
ĠA LO
Ġbe ard
ĠB ring
Ġme lt
Ġre de
Ġre com
Ġst amp
Ġwe pt
Ġwe alth
ri cians
ĠF ERD
Ġse ason
IN AND
Ġli on
ra ced
Ġcon ceit
Ġwill ingly
Ġv ows
Ġcom mitted
Ġam azed
Ġsw ell
Ġun less
Ġmust er
Ġsp ur
Ġshould er
Ġr uth
Ġdis per
Ġab oard
Ġab hor
Ġro ar
Ġwhere of
Ġcomm ission
Ġwar like
Ġfear s
Ġhast y
Ġad ver
Ġper j
Ġper force
Ġwr ought
Ġpres s
Ġbear ing
Ġra ise
Ġwh isper
Ġbeg un
Ġpe ers
Ġve ins
Ġacc used
Ġgri eve
Ġkind ly
Ġsm iles
Ġcount y
Ġfind s
cl iff
Ġbra w
Ġchar ged
Ġhold s
Ġass ured
Ġsound ly
Ġsend s
Ġreven ged
Ġhang ed
Ġadv ice
ici ans
Ġdare st
Ġinstru ments
Ġhard ly
ĠCon spir
Ġpar liament
Ġnob ly
Ġsing le
Ġaff li
Ġgar land
Ġpie ces
ĠPom fret
ĠUnt il
Ġforb ear
Ġgro ans
Ġest ate
Ġthri ce
Ġreb ell
ĠTY RR
Ġur ged
Ġaffection s
Ġhap ly
ĠDOR SET
Ġgent ly
Ġprotect or
Ġarri ved
ĠFr oth
aol er
ĠSic ilia
Ġimprison ment
Ġrasc al
Ġcircum st
Ġsanct uary
ĠAEd ile
Ġperpet ual
Ġgriev ous
ĠTit us
ĠRos aline
ĠSold ier
Ġmaint ain
Ġbeth ink
ĠRom ans
ĠRat cliff
ĠHunts man
Ġwort hi
ĠALO NSO
ĠFERD INAND
ĠTYRR EL
Ġà¦ī à¦ķ
à§¦ à§¬
Ġà¦Ĩ à¦¦à¦°
ð Ł
n ews
ri c
c on
à¦Ĩ à¦ª
à¦ĺ à¦¨
t ies
Ġ1 9
Ġà¦ĩà¦ī à¦ª
à¦¾ ]
T h
à¦¬ à¦ľ
om en
Ġà¦ªà¦¦ à¦¤
Ġ- -
à¦¥ à¦®à¦¨
e at
ĠA cc
ic al
ĠN at
ĠL au
à¦¦ à¦Ł
Ġà¦Ī à¦¶
iv ing
Ġà§¦ à§«
à¦ĵ à¦²
à§ª à§©
Ġ1 3
g u
g ar
à¦ĩ à¦ī
ĠU p
Ġd icks
ag es
Ġà¦ĩ à¦®à¦°
Ġf eet
ĠT r
à§¨ à§¦à§¦
Ġà¦® à¦¤à¦¬
Ġà¦¹à¦¯ à¦°à¦¤
ĠM in
Ġh orn
p se
Ġf ish
à¦¡ à¦®
Ġ1 5
à¦¼ !
à¦¸ à¦Ļ
Ġà¦¤ à¦¤
Ġà§§à§ª à§¨à§ª
Ġà¦ıà¦ķ à¦®
Ġd iffe
ĠF o
Ġst ret
à¥¤ âĢĿ
à§ª à§ª
Ġà§© à§«
à¦· à¦ľ
ĠS al
Ġà¦Ĩ à¦ĺ
Ġà§¦ à§¯
n al
Ġp ound
Ġà¦¸à¦° à¦¬à¦°
i ans
re y
ul ate
fe rence
ĠI m
Ġà¦Ĩ à¦Ļ
Ġà¦ļ à¦¨
à¦¤ à¦ª
ĠB us
l et
Ġà¦¬ à¦¸à¦¬
Ġà¦¨ à¦ķà¦²
Ġst ro
ĠT ar
m ore
ĠM il
ĠW r
à¦°à¦¸ à¦¹
ier ce
Ġag ree
en na
at ive
ĠV i
ĠCon f
Ġ er
Ġp u
har ge
Ġa unt
Ġme l
iv il
Ġboy s
Ġc at
P orn
Ġs al
Ġm ir
Ġm ult
ro ll
Ġbook s
i ate
es ar
Ġn ail
Ġp ot
ĠP ri
pe nd
est ed
Ġun e
Ġcha se
Ġmouth s
f all
Ġt all
à¦¦ à¦¦
our se
ĠG u
ĠD raw
ĠCon s
ĠAnt i
Ġs now
it ation
Ġre ce
Ġse ll
Ġim age
LI S
el ess
ac es
Ġnat ive
Ġentertain ment
f ather
o ved
u pt
Ġc aught
Ġd ri
Ġà¦¦ à¦£
Ġà¦ĩ à¦«à¦¤
Ġres ist
Ġfeel ing
v ior
Ġa pt
Ġf ood
Ġd im
ve t
Ġmy ster
ut en
ed er
ĠMar ian
Ġfi res
Ġsl aves
Ġpri ck
iet y
Ġinter c
Ġexc hange
d ig
m ory
Ġs ire
Ġw ide
Ġb ade
er ce
Ġh or
Ġha bit
ĠC ond
al us
Ġde pend
Ġse es
Ġcon ference
ig nt
Ġcom ple
Ġsay ing
Ġcl im
ĠQ u
Ġstand ing
Ġfl ood
ĠPro ceed
Ġsovere ignt
ouch s
face d
Ġrec on
Ġbeast s
shi re
Ġequ al
Ġimposs ible
ĠMil an
Ġcomple x
Ġsovereignt y
; --
g room
r rel
Ġt arry
Ġt ask
Ġs alt
Ġw ing
Ġw hip
Ġw aking
er by
is bury
Ġf row
Ġf ancy
Ġc her
Ġc ere
Ġd ow
es sel
Ġl ent
Ġl ength
Ġà¦ª à¦Ł
Ġy ond
Ġy oke
Ġo ak
Ġh ie
se mble
et ite
Ġbe low
Ġin qu
ĠS ix
ĠC ur
Ġre ck
Ġre jo
ĠM akes
Ġst ing
Ġst out
Ġst roke
Ġfor s
Ġfor ced
Ġfor feit
oo ping
Ġde ceit
ĠR ather
Ġso re
Ġso oth
ĠD erby
ru ction
Ġsu e
Ġall iance
Ġv essel
Ġkn aves
ak est
Ġman if
Ġbl unt
Ġun g
Ġun just
Ġset s
Ġdef ence
Ġsp le
Ġgra ves
ab ly
Ġnew ly
Ġwho lesome
Ġoff ended
Ġdis ple
Ġex erc
Ġab ide
ĠNo ble
Ġal ack
Ġal though
Ġdes ires
Ġdes cend
for th
for ced
Ġbet ray
Ġbet imes
Ġtw ain
Ġcont empt
Ġpart ing
Ġpart ly
Ġpre tt
Ġwr ink
ull us
Ġra re
Ġra ised
Ġrem orse
Ġbeg u
Ġhouse hold
Ġru st
Ġru led
os ing
Ġacc us
Ġacc ident
ĠTy rrel
Ġcommon s
Ġpower ful
Ġsm ell
cl am
Ġhel m
Ġbra ce
Ġapp etite
Ġmist rust
Ġbes ides
Ġdev otion
Ġtre asure
Ġtre mble
Ġpat ricians
Ġweep s
Ġass ure
Ġfalse hood
Ġvirt ues
Ġsec ure
Ġcra ft
Ġmer it
Ġoath s
Ġfaith ful
ĠCan not
Ġsure ly
Ġpoint s
Ġposs ession
Ġprof it
Ġbehold ing
Tw ere
Ġcor re
Ġwast e
Ġforg ive
Ġbreat hed
Ġweak ness
Ġsick ness
Ġreg al
Ġreg ard
Ġdire ction
Ġbride groom
so ever
Ġcompl aint
Ġbar ren
ĠCa esar
Ġpit ch
Ġtrump et
Ġshi eld
Ġforsw ear
Ġdisg race
Ġunk ind
Ġtemp est
Ġappare nt
gr im
Ġsus pect
Ġrevere nce
Ġobed ient
Ġsto pp
Ġdeterm ined
Ġfaire r
Ġfaire st
Ġsubst it
Ġhol p
Ġstab b
Ġtyran ny
anch oly
Ġrenown ed
Ġball ad
Ġpil grim
Ġunha ppy
Ġpenit ent
Ġfash ion
Ġdign ity
ĠFour th
Ġaccord ing
Ġrebell ion
ĠSal isbury
ĠVi enna
Ġmel ancholy
uten ant
Ġrecon ci
Ġfrow ard
Ġà¦¯ à¦¨
à¦¬ à¦¬à¦°
t om
or ies
Ġà¦ħ à¦¬à¦°
à¦¨ à¦ļ
Ġ1 4
à¦ķ à¦Ľ
à¦£ à¦¨
Ġ0 6
Ġà¦Ĺ à¦¨
à§© à§©
à¦¥ à¦°
Ġm om
à§Ģ âĢĻ
Ġà¦¬ à¦ī
à¦² à¦Ļ
à¦ķ à¦ª
à¦¤ à¦ľ
Ġà¦ī à¦ĩà¦¨
Ġbut t
à¦¹ à¦°à¦£
Ġà§Ń à§¦
à¦² à¦°
h in
Ġb rown
à§¨à§¦à§§à§ ¬
ĠR a
à¦¸à¦² à¦®
Ġà¦¦à¦¶ à¦®
Ġà¦¹ à¦ľ
à¦² à¦Ĺà¦ŀ
u c
iz ed
Ġsp y
à¦Ń à¦°
f old
Ġà¦¨à¦ĵ à¦Ĺ
ĠHa ppy
s ome
n es
à¦® à¦Ĺà¦ŀ
I T
ĠH o
ĠSo ft
Ġà¦² à¦Ĺ
Ġright s
Ġs y
Ġf em
à¦¸ à¦°à¦£
t een
à¦² à¦¶
à¦ĩ à¦®à¦¸
it t
ĠT ime
Ġà¦¤ à¦®
Ġà¦ĵ à¦¸à¦®
Ġà§¦ à§¬
à¦¦ à¦®
Ġà¦¦ à¦ĸà¦²
Ġà¦ĩ à¦¬à¦¨
Ġt akes
à¦ĩ à¦¸à¦¬
à¦« à¦¸
ĠA D
Ġà¦ħ à¦Ł
à¦¸ à¦¸
Ġsu per
ir ty
ĠV al
Ġtort ure
à§« à§¬
à§§à§¦ à§¦à§¦
ire ct
lic y
l u
Ġ2 0
b b
i am
n et
à¦¾ /
as es
Ġ2 4
Ġà¦īà¦ł à¦²
à¦ĩà¦¦ à¦¹
à§© à§¬
à¦Ĩ à¦ªà¦¨
Ġà§¦ à§Ń
pp er
Ġt im
âĢ¦ âĢ¦
Â ®
ci es
Ġ0 3
à¦° à¦Ĺà¦ŀ
ĠA f
an ing
Ġà¦ļà¦² à¦¬
Ġà¥¤ à¥¤
ĠA w
Ġà¦Ĩ à¦Ł
ing ers
à¦Ľ à¦¬
as p
ĠC le
Ġwith draw
Ġ0 7
m aid
w ife
x e
Ġà¦ĩ à¦ķà¦¬
Ġà¦¨ à¦·
Ġen g
g n
ot hes
Ġwind ows
à¦¨ à¦¶
Ġà¦ĩ à¦īà¦Ł
à¦¦ à¦¤
b ation
t ic
ill y
Ġà¦§ à¦°à¦£
Ġpo licy
ut s
Ġ1 6
Ġth ick
Ġin v
ist ing
Ġà¦Ĩà¦¬ à¦¹
ĠBet ter
b od
Ġb on
ĠS ound
ĠC ry
am ple
Ġlo ver
Ġcl othes
ase d
m ong
se ll
Ġde b
Ġv ol
Ġà¦Ĩà¦® à¦²
Ġyoung er
à¦ħ à¦ªà¦°
i pe
Ġy es
ĠL ie
à¦Ń à¦¬à¦¤
Ġsp it
Ġext re
ĠFo llow
e g
Ġw id
Ġl ap
Ġst umble
ĠF ort
us hes
ĠV en
Ġstr anger
Ġmeet ing
Ġsli p
w it
Ġt ail
Ġà¦ķ à¦£
Ġp ierce
à§Ģ )
ĠH im
Ġfa ct
li er
Ġspe ct
Ġad venture
ok ed
Ġstro kes
ĠAD R
g irl
t les
Ġa chie
Ġw est
Ġb ir
er ves
Ġde cl
ĠE ach
and al
Ġman age
Ġun p
Ġab used
Ġlea gue
Ġra in
Ġrem ove
Ġve l
Ġhum an
Ġcra ves
Ġeag le
ĠItal y
ĠMarian a
Ġ ze
Ġm ood
Ġw akes
Ġto il
ĠW IL
Ġme mory
Ġri de
Ġfi erce
Ġwh it
Ġrem oved
Ġhar sh
pi er
Ġsub tle
ĠCL E
ĠWill iam
Ġconf irm
Ġob ject
Ġcoun c
Ġbur st
Ġcor rupt
Ġbig ger
Ġpleas ing
ĠRet urn
Ġoppos ite
Ġmyster y
ĠADR IAN
. --
A y
U GH
b ear
c ary
c ceed
d ita
Ġ iron
Ġt res
Ġt aunt
Ġa xe
in ct
Ġm irth
Ġw ake
Ġw ink
on ation
Ġb uck
it able
Ġc ost
Ġc ivil
Ġn ap
Ġp ed
Ġp ause
Ġth read
Ġth irty
Ġo pe
ĠT ush
ĠT ullus
Ġto ad
Ġto oth
om ach
Ġg aze
Ġbe am
Ġbe get
Ġbe long
Ġin fection
im ble
ĠS omet
ĠH ail
ĠC ounty
Ġre ap
ĠM any
ill ain
her it
ĠL art
Ġde ck
Ġde arest
am ents
ĠF RO
Ġse ldom
Ġse pul
Ġli ft
Ġli ken
Ġsu itor
Ġsu llen
Ġsu cceed
Ġlo vest
Ġfa wn
Ġkn ot
Ġsh ri
Ġret ire
Ġj ot
Ġhat ed
LO UGH
Ġsw ain
Ġbr an
Ġun st
Ġpro clam
âĢĻ à¥¤
ĠWhe ther
Ġself same
Ġimp at
OM ENES
Ġdeath s
Ġheart ily
Ġri pe
Ġmar ks
Ġdes cent
utt ing
ĠBe hold
Ġwar ri
Ġgreat ness
Ġbre d
Ġheaven ly
Ġsweet er
Ġper haps
Ġwr iting
ĠAn on
Ġsc old
Ġra il
Ġfe ather
Ġrep ose
Ġbeg an
Ġgr at
Ġser ved
Ġkeep er
Ġacc ursed
Ġcommon we
Ġyoung est
Ġco ff
Ġdear ly
Ġmind s
Ġapp ointed
Ġmis chance
Ġsorrow s
Ġless er
Ġunc les
Ġste eds
Ġgrief s
Ġcur t
Ġcare less
Ġcountry men
Ġhang s
Ġbea uteous
ĠDid st
Ġyield ed
Ġappe al
Ġsupp ly
Ġmon ument
Ġsight s
Ġgrow ing
Ġsuff ici
Ġheir s
Ġtrust y
Ġvis age
Ġstrong er
Ġinf ant
Ġexec uted
Ġfore ign
Ġinc en
Ġabs olute
Ġplain ly
Ġprop ort
Ġfour teen
Ġsatisf y
Ġfrown s
Ġest im
Ġred ress
Ġservant s
Ġble m
Ġtriump hant
ĠAm ong
Ġgall ant
Ġocc up
Ġexecution er
Ġinj ur
Ġshad ows
Ġdisg u
Ġmod est
Ġmod esty
Ġignor ance
ban ished
Ġref use
eem ing
ĠPer dita
Ġdeterm ine
ĠBet w
Ġchast e
Ġdism al
Ġacqu aint
Ġextrem ity
Ġwag er
Ġshrew d
Ġprophe t
Ġed ge
Ġflat te
Ġshr oud
othe cary
Ġneg lect
Ġwond rous
Ġtremb ling
ĠUnc le
Ġrepe al
Ġconce al
ĠThr ough
Ġadvers aries
Ġpurcha se
Ġprivile ge
ĠComm end
Ġrede em
ĠConspir ator
ĠBus hy
ouchs afe
Ġdow ry
Ġexerc ise
ĠWIL LOUGH
ĠCLE OMENES
Ġtres pass
ĠLart ius
ĠFRO TH
Ġsepul ch
Ġflatte rer
ĠWILLOUGH BY
à¦ĸ à¦¸
à¦¤ à¦Ń
Ġà§§à§¯ à§Ń
Ġà¦¨ à¦¡
Ġà¦ĵ à¦¸
Ġà¦Ĩà¦ĩ à¦ª
Ġà§¬ à§¦
à§¯ à§¯
ham ed
i ps
Ġà§¦ à§ª
Ġà¦ī à¦Ńà¦¯
Ġà¦Ŀ à¦¡
Ġmon ster
à¦¥ à¦¤
Ġà¦Ĩà¦²à¦® à¦Ĺ
1 9
à¦¨ à¦ĩ
st ars
à¦Ĺ à¦¦
b angla
Ġà¦¦ à¦¯
âĢį à§į
à¦ıà¦ĩ à¦ļ
Ġa le
ĠG r
à¦ľ à¦Ĺ
à¦¨ à¦ľà¦¨
Ġ ðŁ
à¦® à¦¡
ri l
Ġà§© à§¨
Ġà¦° à¦Ļ
à¦Ń à¦ķ
an n
n el
à¦¬ à¦®
/ /
à¦¡ à¦ª
à¦ľ à¦Ĺà¦ŀ
e b
à¦ĥ )
à¦¯ à¦Ĺ
Ġ2 6
Ġà¦¸ à¦ŀ
Ġle z
ĠB re
à§İà¦¸ à¦ķ
is ion
à¦Ł à¦¤
Ġà¦ıà¦° à¦¶
. )
t a
à¦ª à¦®
à¦° à¦Ļ
Ġd ild
Ġà¦¶ à¦«
Ġà¦Ĺà¦£ à¦¤à¦¨
Ġpe e
Ġà§© à§¬
ĠW ed
Ġporn stars
à¦¿ âĢ¦
om es
Ġà¦ķà¦¤ à¦Ł
à¦¼ à¦ĥ
ĠS ur
1 7
ĠFuck ed
il th
Ġx xx
ĠA pp
à¦ļà¦¨ à¦ķ
Ġ ;
à¦Ł à¦°à¦¸
Ġange l
à¦°à¦ļ à¦£
Ġstret ch
ĠA tt
Ġn et
Ġ ï
oo ps
ac les
Ġa h
à¦ļ à¦¤
Ġmonth s
ab les
ĠGre en
Ġm il
Ġp age
à¦Ł à¦¬
id in
Ġ1 7
Ġà§¦ à§§à§®
ĠDo es
à¦¼ à¦Ĥ
ĠI mp
E P
ur g
ĠO ld
ol a
m as
er ing
it al
à§« à§¨
Ġab use
Ġbot tom
se y
ĠP art
Ġbea ut
Ġà¦Ĩà¦ĩ à¦¡
Ġl uck
ĠO h
à¦£ à¦Ń
us hing
am ing
ber t
ĠQ ue
Ġcont ro
Ġà¦¸à¦¬ à¦ķ
Ġpri ce
b io
Ġf ant
Ġth umb
Ġde ce
Ġsha re
Ġà¦ªà¦° à¦®
ĠK n
ic ers
ĠJ es
Ġà¦Ĩà¦¶ à¦°
c ue
à¦¿ /
ve red
ĠC ast
a ction
Ġc um
Ġà¦¦ à¦°à¦ľ
ĠS it
Ġsu ns
à§ª à§Ń
or ough
ĠW ife
ĠS end
her n
ĠP ur
ĠF ind
à§ĩà¥¤ âĢĿ
Ġsleep ing
Ġwrit ten
d ers
r atch
in ate
Ġp aid
Ġà¦® à¦°à¦¦
ĠF air
Ġlet s
ĠâĢ ¢
à§© à§¨
ĠAn ne
Ġrep ly
Ġrest ra
Ġban k
ran k
Ġmin ute
g han
m aster
Ġt ou
on st
Ġh om
Ġh oney
Ġhe at
Ġgo dd
ep ing
Ġsw eat
Ġoff icers
Ġfi x
Ġback s
Ġdra g
Ġstep s
ĠStri ke
Ġmor al
Ġcharact er
e ved
i ar
n ken
Ġt ig
Ġb ill
Ġf ard
ĠW it
ĠH ang
ĠP erc
IN E
pe ar
AR N
ĠJ ustice
ice d
ans om
Ġdru nken
Ġbeha vior
llen ge
ĠQue en
s ues
s op
Ġb ore
Ġc row
Ġd ate
Ġd ower
Ġy on
Ġto morrow
Ġhe els
ow l
Ġin k
ĠM aking
Ġst raw
Ġfor ty
ke ley
our ing
Ġà¦° à¦¹à¦¸
ĠG ree
ra id
Ġsha pes
Ġsu p
Ġà¦² à¦ľ
Ġher s
Ġar rest
Ġpr ime
Ġbl ast
ie ge
Ġor n
Ġsp l
Ġad mit
Ġchild ish
Ġcons ort
Ġcha llenge
Ġche ap
Ġchar m
Ġwo lf
du ce
Ġstri ve
Ġaction s
Ġpra ises
Ġunf old
Ġhung ry
Ġsens es
Ġjew el
ĠFort une
c ore
f ellow
h rew
l ves
n icious
p ardon
s ire
u ish
v ive
v ied
Ġ eter
Ġt ro
Ġt ren
Ġs ings
Ġs ought
ou bt
Ġm our
Ġm ethought
Ġw ore
Ġw ard
Ġw aves
Ġb ag
Ġb orrow
Ġb ait
er ity
Ġf ret
Ġf reed
Ġc ait
Ġn est
Ġn umb
Ġn upt
Ġl ur
Ġl eng
Ġl ower
Ġl ying
Ġp ear
Ġp ace
Ġp utting
Ġth in
Ġth irst
Ġh ig
Ġh ind
Ġh ire
Ġhe ap
Ġg id
ĠW oe
Ġbe re
Ġha re
Ġha ught
ĠB ARN
Ġnot ed
ĠM ethought
Ġst ale
Ġst ern
Ġst omach
ri ble
ĠL ici
Ġde af
ĠG race
ĠR UT
Ġli very
Ġli king
ra ge
Ġcon ceive
ĠE ly
ĠE sc
Ġdo ve
Ġdo gs
Ġdo zen
Ġwill s
Ġsu its
il ence
Ġne at
Ġan ointed
ĠV au
ĠV illain
Ġshall ow
li ed
Ġsh ook
Ġsh ines
Ġsh rift
Ġgood s
Ġam iss
Ġsir s
Ġthere by
ARD INE
Ġsw ore
un ate
Ġun m
Ġun se
Ġun fe
Ġà§¨à§¦à§§à§ §
Ġwor m
Ġgra in
Ġlike ly
Ġsa cri
Ġmad ness
Ġpl aces
orn ey
Ġtru nk
Ġup right
Ġsome what
Ġoff ices
Ġdis ease
har ged
Ġlook ed
Ġthink ing
Ġtell ing
Ġal ms
Ġwhere on
ag ues
ĠWhere fore
ĠWhere to
AM US
Ġfear ing
Ġbre ed
Ġbre ad
oc ate
Ġpart ed
Ġper nicious
Ġtr oops
ĠAn other
Ġsc atter
ont es
Ġmo ves
aint y
Ġra pier
Ġfl ow
Ġfl int
Ġfl ourish
ang ling
Ġgrace d
Ġrep utation
erc ing
ĠPro ve
Ġtri f
Ġser p
Ġbest ow
pen se
Ġforth with
tw ill
Ġlaw s
Ġlight ning
Ġroyal ty
Ġhapp ily
Ġmis fort
ĠSh ore
ĠAl though
Ġcourt eous
Ġcoun sell
Ġbo ast
Ġcare ful
Ġwant ing
Ġbreath ing
Ġadv ised
ĠDid o
Ġgre w
Ġyield s
Ġcar ried
Ġmon arch
Ġspo il
Ġsoon er
Ġmet al
ID AMUS
Ġsad ness
ĠCam bio
ĠHad st
Ġag es
Ġwoo ing
Ġexec ute
Ġnob ility
Ġcr am
Ġsuit ors
Ġburn s
Ġburn t
Ġburn ing
Ġcor onation
Ġdisc ourse
Ġliber al
Ġsucc ession
Ġviol ence
Ġbless ing
Ġble eding
Ġcap s
Ġsense less
Ġbitter ly
umb ling
Ġlim it
Ġlim bs
Ġreb els
Ġpit iful
Ġmid night
ĠWhi les
Ġur ge
Ġtor ch
Ġinj ury
Ġchurch yard
Ġmed dle
Ġgrand sire
head ed
Ġsaint s
Ġguest s
Ġimag ine
Ġdism iss
Ġsubst ance
ĠLe ontes
Ġbef all
Ġincl ined
Ġafford s
Ġcover t
Ġran k
ĠWilt shire
Ġnecess ity
Ġjoint s
Ġprevent ed
Ġtyran n
rib unes
Ġstat ue
Ġtrans port
Ġband s
Ġcens ure
Ġconj ure
Ġthreaten ing
ĠARCH IDAMUS
ĠEl bow
ĠRem ember
Ġimm ortal
Ġtap ster
Ġintell igence
Ġcompan ion
Ġapprehe nd
ĠBer keley
Ġclam our
Ġesc ape
Ġruth less
Ġdisper sed
Ġaffli ct
ĠLau rence
Ġcher ish
Ġrejo ice
Ġsple en
Ġprett iest
Ġbir ds
Ġvel vet
Ġze al
Ġliken ess
Ġproclam ation
Ġwarri ors
Ġcommonwe alth
Ġproport ion
Ġsepulch re
Ġpee vish
ĠSur rey
EP H
Ġfard el
Ġcait iff
Ġnupt ial
Ġgid dy
ĠBARN ARDINE
ĠLici o
ĠRUT LAND
ĠEsc alus
ĠVau ghan
Ġsacri f
Ġà¦Ĩà¦¶ à¦Ļ
ere st
Ġà¦Ĩ à¦ĩà¦¯
à¦ī à¦¯
à¦ļ à¦®
à¦ħ à¦°
à¦° à¦Ĺà¦¤
à¦ª à¦·
Ġà¦ķà¦° à¦£
Ġà¦¸à¦® à¦¬
Ġà¦¨ à¦°
à¦ĩ à¦Ľ
ĠS us
Ġà§© à§Ń
Ġà¦Ĩà¦ļ à¦°à¦£
à¦¨ à¦ľ
ac y
: //
b ad
Ġà¦Ĩà¦¬ à¦²
à§¨à§¦à§§à§ ¨
ĠS y
Ġà¦¶ à¦ª
Ġà¦ī à¦ľ
201 8
à¦® à¦Ł
Ġp m
Ġà¦ĵ à¦·
Ġà§¦ à§§à§¯
Ġà¦Ń à¦Ł
Ġgr ou
Ġà§§à§ª à§ªà§¦
Ġà¦Ĩà¦¹ à¦¬
Ġà¦¬ à¦ĩà¦¯
à¦Ĺ à¦Ľ
Ġà¦ı à¦ľ
Ġà§§à§¯ à§®
Ġà¦· à¦¡
à¦Ľ à¦¦
à¦¬ à¦¤à¦¨
à§ª à§¯
Ġà§© à§®
Ġd om
Ġp or
Ġà¦ļ à¦®à¦ķ
Ġà¦¦ à¦®à¦¨
à¦¤ à¦«
Ġà¦° à¦«
Ġ201 6
Ġp ant
à¥¤ à¥¤
ĠS I
ĠâĨ Ĵ
à§¨ à§§à§§
Ġà¦Ĩà¦¨ à¦¤
Ġw et
à¦® à¦ĺ
à¦ª à¦ª
ĠG ets
Ġà¦ķà¦ĸà¦¨ à¦ĵ
Ġà¦ľ à¦¹
à§ĩ à¦ĥ
Ġà¦ĵ à¦Ń
d es
à¦¼ âĢĻ
à¦£ à¦®
ĠL ive
Ġà§ª à§«
Ġà¦ı à¦°à¦ķà¦®
à§¯ à§¨à§«
à¦¤à¦¨ à¦¤
und ay
b r
ĠA dd
ĠF ull
Ġà§® à§©
uss y
à¦Ĩ à¦®à¦°
sha d
1 8
Ġcomm ent
Ġ0 2
0 7
O T
op y
à¦ķ à¦Ĺ
à§§à§« à§§à§ª
Ġg ap
Ġà¦ī à¦ªà¦¨
à§ª à§¬
à¦¨à¦¸ à¦¹
à§ªà§® à§§à§«
hin bangla
nes day
à¦° à¦·
up id
Ġà§®à§®à§¦à§§à§Ń à§§à§§
Ġà§®à§®à§¦à§§à§Ń à§§à§«à§§à§ª
à§¯à§¨à§« à§¨à§§à§§
shad hinbangla
Ġà§®à§®à§¦à§§à§Ńà§§à§«à§§à§ª à§ªà§®à§§à§«
Ġs au
Ġà¦ķ à¦¬à¦°
* *
Ġà¦ħ à¦¥
Ġà¦ħà¦¬ à¦¦
pse x
à¦² à¦®à¦¨
à¦® à¦£à¦¬
ĠWed nesday
c ing
Ġà¦ı à¦¸à¦®à¦¯
Ġà¦Ī à¦®
à¦¹ à¦ķà¦°
Ġà¦ĵ à¦ª
Ġà¦² à¦®
ac he
l ook
Ġs n
Ġà¦¶ à¦°à¦£
à¦¾ '
Ġt ied
ĠâĢĺ âĢĺ
Ġà¦ľ à¦Ł
à¦¯ à¦Łà¦¨
Ġn ice
per ience
Ġà¦¹ à¦ĩà¦¬
à§© à§§
Ġ0 4
Ġstol en
d al
à¦ķ à¦¡
Ġà¦¬ à¦ľ
Ġà¦¦ à¦ª
ĠE m
à¦¼ ...
Ġà¦® à§İà¦¸
Ġco p
f uck
on us
ĠW omen
Ġa ud
Ġc ent
ĠN ame
an k
Ġgrou psex
1 5
à¦¬ à¦ľà¦¨
à¦® à¦®
at er
ord er
Ġs ed
Ġlo ck
cher s
ĠAd v
Ġp ict
Ġà¦¶ à¦ªà¦¥
Ġlo ad
li p
Ġsm other
l ace
he n
ĠD ian
Ġpart ies
à¦¬à¦² à¦®
Ġdild o
à¦ĸ à¦¬à¦°
ag ed
1 3
l or
à¦ī à¦®
z ed
Ġf ingers
ck et
à¦°à¦¹ à¦¨
A G
à¦¬ à¦ļ
Ġcou ple
1 4
it ch
ar m
ĠT en
un s
à¦·à¦£ à¦ķ
Ġà¦Ĩà¦ĩà¦¨ à¦®à¦¨
ut ch
ed ic
ĠS C
ĠB ag
ĠC apt
ri el
Ġsp read
Ġtr im
ang ers
Ġà§¨à§¦à§¦ à§¯
c ate
f oot
s en
Ġà¦ķ à¦¨à¦¸
à¦ľ à¦¦
ĠS ub
ad v
Ġli kes
ign ed
Ġpur ple
w d
Ġlo vers
ak er
Ġbl ond
ĠWith draw
Ġà¦ķà¦° à¦ª
Ġwe ek
ĠP ers
ro g
Ġà¦ĩ à¦Ń
à§Ń à§Ń
is hes
ĠM is
Ġle g
ale d
b w
re et
Ġp ick
ĠF it
Ġal so
jo in
Ġeat en
Ġsho p
Ġ ice
Ġb ent
Ġf in
pe l
li o
Ġextre me
ĠCapt ain
B AN
d ed
o es
ha k
at he
ay ed
ĠS aw
Ġst ream
ter ing
Ġsp ot
anc ing
mb ers
Ġbu zz
bl ood
ĠRa ven
i ban
t hat
Ġb ol
Ġp aint
ĠT rust
Ġwe ars
Ġde m
ĠTh ings
ĠV irt
Ġr ate
ĠMar s
Ġpart ner
Ġkiss es
Ġbeat s
Ġgodd ess
b ey
k ind
w ing
he re
Ġw ax
Ġb ru
Ġc ook
Ġn ar
Ġp hi
Ġp ush
à¦Ł à¦ª
Ġre ar
Ġhis t
Ġli ck
Ġso ci
ĠE ver
ru ption
ull s
Ġle ct
Ġra ven
Ġbus y
Ġà¦Ī à¦°
Ġlate ly
Ġsk ill
ĠAp pear
med iate
M OR
c ure
g ot
r oof
Ġ ought
Ġt ree
Ġs illy
Ġw ave
Ġw ipe
Ġf res
Ġf elt
Ġto ps
Ġhe ight
ĠW EST
im ony
ĠS ly
ĠB urg
Ġme w
Ġnot ice
ĠH on
ĠC AR
Ġe ight
al ter
ri ch
ĠF alse
ĠG E
hi re
ĠE lse
ard y
ard ener
li ver
ast ers
iv eness
um ed
Ġpro ved
Ġr ansom
Ġex ample
Ġarr ay
Ġaf raid
Ġint e
Ġra g
Ġke ys
Ġacc om
Ġend ed
Ġhel ps
Ġtra in
Ġstri ct
Ġyouth ful
ĠBec omes
Ġdiv or
Ġprom pt
Ġsatisf action
Ġter m
Ġprov ide
Ġmid dle
AT ER
gr ity
Ġrob b
ĠDis p
Ġgift s
Ġow es
Ġsav age
Ġfig ure
gu ard
ĠVen ice
Ġfant ast
W ATER
Z WATER
g ive
o ble
v ided
w hich
Ġt ack
Ġt ired
Ġt akest
Ġa ged
Ġs ides
Ġs light
ou red
in ers
Ġm ould
Ġw aked
re ant
à¦² à¦ĵà¦¯
Ġb ay
Ġb alm
is ement
Ġf ray
Ġf rank
Ġc ab
Ġd rew
Ġl ance
Ġp ent
Ġp ill
Ġp alm
Ġp omp
Ġo mit
ĠT oward
ĠT ribunes
Ġh url
at hed
Ġhe ra
Ġg n
Ġg ains
Ġg oose
ĠW els
Ġbe ef
Ġha il
ay ing
ĠB AG
Ġme mbers
ĠH ie
Ġre nd
Ġre ach
Ġre vel
ĠM uch
Ġis su
Ġst ick
ur gh
Ġas pect
Ġas hamed
Ġde pose
Ġde arer
ĠF ive
ĠF IT
ĠG aoler
ĠG ardener
Ġse vere
Ġse ated
Ġse ized
Ġli vest
Ġli ons
Ġso il
ra cious
Ġcon sequ
Ġcon cer
ver ty
ĠY ield
Ġsu pre
il iar
Ġall eg
ĠTh ine
Ġv ast
Ġher d
Ġan ch
ĠV ouchsafe
Ġour self
ig ent
ig onus
em per
OR GE
Ġsh ru
Ġbl ot
Ġam ain
Ġam ends
Ġam bit
Ġam orous
Ġret ired
Ġgo ss
Ġknow ing
ie ce
Ġsw ears
Ġbr at
ick le
Ġun re
Ġà§¨à§¦à§§à§ ¦
Ġconst able
lo sop
Ġpro dig
LI BAN
ol ved
ol ks
Ġset tled
Ġho ar
Ġlike wise
Ġsa ved
Ġpo verty
Ġr ouse
Ġspeak ing
Ġout rage
à§ª à§§
Ġri ches
Ġmar vel
Ġmar vell
Ġdis in
EL AND
Ġab und
Ġbet ide
ĠWhere of
Ġfi end
ide red
Ġpre fer
Ġsweet ly
Ġple be
Ġtr oop
Ġle wd
RO OP
Ġpres ume
Ġpres erve
Ġsc andal
Ġsc ratch
Ġworld ly
Ġnight s
Ġdown right
Ġra ck
Ġfe ver
Ġcons p
Ġmight st
Ġstay s
Ġrest ore
Ġru e
Ġent rance
ĠPro claim
Ġtri cks
ĠDes p
ĠSha lt
Ġcomp ound
Ġco at
Ġco zen
Ġpur ge
Ġsm il
Ġcould st
Ġhope ful
Ġearth ly
Ġbid ding
vent ry
Ġhome ly
Ġtra vell
Ġbra ins
Ġche que
Ġconf ound
sha ll
Ġland ed
Ġmis c
Ġhold ing
Ġap ace
Ġfall s
Ġob sequ
Ġbri dal
Ġcourt ier
Ġste ed
Ġatt ain
Ġatt orney
Ġthank ful
Ġsound s
Ġsound ed
ran ch
Ġmerc hant
Ġreven ges
ĠCom es
ĠCom fort
Ġvillain s
Ġmer ri
Ġwin ters
ĠNe ither
ĠCan st
Ġlam bs
Ġbeat en
Ġcho sen
und y
Ġdevil ish
Ġlearn ed
Ġentreat ies
Ġbold ly
Ġbold ness
Ġinf er
Ġpar ce
Ġnob leness
Ġprof ane
Ġread iness
Ġcr ook
Ġmus icians
ĠCA LIBAN
Ġcloud y
ĠSw ear
Ġsign al
Ġsign ify
Ġprop hes
Ġwise ly
Ġcheer ly
ĠEL Y
ĠAb ove
vo ke
vo lio
Ġfav ours
Ġest eem
ĠPre pare
Ġexp ed
Ġbow els
Ġtown s
Ġflatter ing
Ġsudden ly
Ġusur ping
ĠBl unt
Ġappro bation
Ġcoward ly
Ġlament able
sp urgh
Ġdark ness
Ġkins men
ĠAd ieu
Ġdest ruction
Ġprov oked
Ġins ol
Ġdepart ure
Ġfond ly
Ġgrie ves
Ġgrie ved
Ġglad ly
oss ess
Ġshi ps
Ġmild ness
Ġtreason s
Ġsho es
ĠST EPH
Ġlist s
Ġtrouble d
Ġsentence d
ĠAnt igonus
Ġgrand am
Ġstor ms
Ġpet ty
Ġtemp les
Ġcondemn ed
ĠPer haps
Ġrob es
Ġconqu est
Ġsli pp
Ġeld est
Ġbastard s
Ġsto ps
Ġmut inous
ĠEX TON
Ġneighb ours
Ġgreet ing
Ġamong st
Ġminister s
Ġthie ves
Ġacqu ainted
Ġconcl ud
Ġconcl ude
arer s
Ġghost ly
Ġdesign s
Ġtempt ed
Ġdet est
Ġpi ercing
ĠCo ventry
Ġheav ier
Ġpersu ade
ilf ul
Ġele ven
Ġvan ity
Ġwander ing
Ġweapon s
Ġfra il
Ġfro st
Ġdiscontent ed
ĠCal iban
Ġhaz ard
Ġinstant ly
ĠBen volio
ĠPat ience
Ġrevol t
Ġfal con
Ġfurn ish
Ġparent s
Ġrecom pense
Ġcircumst ance
ĠNat ure
ĠMin ola
Ġer rand
LIS LE
Ġinterc hange
Ġcomplex ion
Ġcere mon
ĠCur tis
Ġreck on
Ġaccus ation
Ġunkind ness
Ġsubstit ute
Ġpilgrim age
Ġreconci le
Ġbeam s
Ġsuffici ent
Ġestim ation
Ġblem ish
Ġoccup ation
ĠJes u
onst ant
Ġfreed om
Ġmisfort une
Ġtyrann ous
ĠSI R
ĠSC ROOP
ĠBag ot
ĠPers u
ĠRaven spurgh
Ġnar row
Ġphi losop
MOR ELAND
ĠWEST MORELAND
ĠBurg undy
ĠCAR LISLE
ĠGE ORGE
Ġinte grity
ĠToward s
Ġhera ld
ĠWels h
ĠBAG OT
ĠFIT ZWATER
Ġalleg iance
Ġambit ious
ĠSTEPH EN
Ġphilosop hy
Ġà¦Ń à¦¦
Ġà¦ķ à¦®à¦¨
à§« à§¯
t ied
à¦ĩà¦Ł à¦Ł
ĠâĢ º
à§¬ à§¯
Ġà¦ħà¦¬ à¦¹
he t
Ġà¦¤ à¦¹à¦¬
Ġco ll
b ook
Ġà¦Ĩà¦¸ à¦°
ĠAr ch
à¦¥à¦¬ à¦Ľà¦°
Ġà§ª à§®
à¦¬ à¦¡
b ack
Ġà¦īà¦ª à¦¯
à¦ĩà¦« à¦¸
Ġà¦¤ à¦«à¦¸
à§« à§Ń
0 2
Ġà¦ıà¦¸ à¦ıà¦¸à¦¸
à¦® à¦Ľ
ay s
à¦°à¦¦ à¦²
do or
p ost
Ġsl ide
à¦¬ à¦£
à§Ģ !
ĠO ver
à§ĩ ;
à¦Łà¦« à¦°
ĠA c
à§« à§®
Ġà§ª à§¨
Ġà¦¸à¦¨ à¦¦
Ġà¦ıà¦®à¦¨ à¦ķ
Ġf u
co ck
Ġà¦Ĩ à¦¹à¦¸
Ġ0 8
ĠJ u
Ġà§« à§®
Ġà¦ħà¦¥ à¦ļ
0 5
? ?
ot idin
b oy
.... ..
à¦¦ à¦¬
p o
Ġà¦¶ à¦¯
à¦¬à¦¸ à¦®à¦¯
à¦ķ à¦Ĩà¦ª
Ġà¦Ń à¦ķ
à¦¶ à¦¦
Ġà¦¹ à¦°
à¦Ĩ à¦¬
0 8
a pp
Ġà¦ĵ à¦¦
ell a
y le
w ork
à¦¶ à¦®
à¦°à¦£ à¦¯
à§© à§ª
ĠP orn
angl ades
Ġà¦¸ à¦¬à¦¸à¦®à¦¯
Ġà¦¨ à¦°à¦¸
ĠC he
ide os
à¦¬ à¦Ľ
à¦£ à¦¦
ĠR el
Ġà¦ķà¦¨ à¦«
0 4
g l
Ġgirl s
Ġà¦ ĥ
ĠB angla
Ġà¦Ĺ à¦ł
à¦¿ '
à¦¾ ;
Ġl inger
à¦ıà¦® à¦ª
Ġà¦Ĩà¦ĩ à¦ıà¦¸
0 6
ĠS unday
ic s
Ġà¦ĩ à¦¶à¦¤
à§¬ à§¬
Ġ! !
e ens
à¦· à¦ķà¦°
Ġà¦¸ à¦¸
ct or
Ġà¦īà¦ª à¦¹
Ġà¦Ĩà¦ª à¦²
Ġà¦Ĺà¦£ à¦¹à¦¤
0 9
g le
Ġà¦° à¦ĩà¦²
à¦ĵ à¦¸
Ġà¦ħ à¦¯
ĠG ives
à¦¾. )
» ¿
in al
Ġà§Ń à§§
Ġà¦ı à¦ľà¦¨
à¦® à¦¸à¦®
Ġà§© à§¯
à¦Ł à¦¦
à¦Ł à¦¸à¦®
pp ed
à¦¨ à¦¸à¦®
ĠD ep
Ġ2 1
Ġcry ing
Ġm as
Ġth rees
Ġà¦Ĩ à¦ĩà¦«
Ġan n
Ġà¦¦à¦² à¦Ł
Ġà¦¸ à¦¦
Ġà§© à§©
Ġfe at
ĠT ra
Ġà¦ī à¦°
Ġ2 2
b oard
e x
g ory
l ine
Ġbl ue
r at
ĠB est
Ġà¦ĵ à¦ķ
âĢĻ -
Ġà¦Ĩ à¦ĸ
Ġà¦Ĩ à¦ŀ
Ġà¦® à¦®à¦¤
ong s
Ġ0 1
à¦¶ à¦«
ĠS un
Ġà¦Ĩà¦² à¦¹
Ġt aking
Ġà¦¸ à¦ľ
ĠH ar
à¦¿à¦Ĥ ,
à§¬ à§®
Ġ> >
ur ing
ĠAp ril
, ,
Ġas h
à¦Ń à¦¬à¦¨
Ġà¦Ĩà¦® à¦¨
in u
ĠW est
ĠM o
à¦ı à¦ķà¦Ł
Ġm ilf
b o
Ġà¦ī à¦®
Ġà¦ľà¦¨ à¦¤
à§¨à§¦à§§à§ «
Ġsupp ort
ĠIsab ella
go v
Ġà¦ľà¦¨ à¦¸à¦Ń
à¦ľ à¦Ľ
ĠThan k
Ġam az
Ġpo v
ĠD iv
Ġsh ot
e ves
v iron
Ġà¦¬ à¦¦à¦°
à¦¶ à¦ª
ĠB el
à¦¥ à¦ª
Ġà¦« à¦¯
à¦° à¦¬à¦°
à¦¬ à¦Ľà¦°
Ġb ald
à¦¡ à¦Ń
al ks
Ġse arch
à¦ĵ à¦ļ
ĠAn swer
Ġbra nd
à¦¦ à¦°à¦¬
ĠD el
Ġà¦¡ à¦¬à¦²
à¦¤à¦ķ à¦°à¦£
m ade
à¦Ĺ à¦¤à¦®
am y
ĠD est
à§« à§§
à¦¼à¦¿ ,
Ġget ting
Ġmin utes
Ġcr ush
pr ise
Ġtut or
anglades h
Ġb ul
ch ol
ra ft
ĠK ind
os es
à§§à§¨ à§§à§«
Ġbab y
ĠCont ent
Ġs and
Ġg ame
Ġu g
ĠF all
à¦ıà¦¨ à¦¡
ici al
Ġbreast s
Ġcle an
g ic
r ish
Ġf an
ĠB old
ĠC art
Ġ2 5
Ġmod el
ĠLe ad
W hat
b ot
c or
w ater
à¦¨ à¦¶à¦¨
in ent
ĠA riel
Ġin ch
ul es
Ġpo p
à¦¿à¥¤ âĢĻ
Ġke y
Ġà¦ħà¦ª à¦¬
Ġsub s
Ġdest iny
pr otidin
Ġc ro
ĠT un
ĠT alk
Ġg am
ic les
Ġsp ider
ap ed
à§¬ à§¦
ug g
Ġà§® à§¦
Ġcr im
à§§à§¬ à§©
Ġpop ular
l ain
ĠT ur
Ġste ward
chie f
Ġmil k
b our
w er
Ġ ir
Ġs ixt
à¦¤ à¦Ł
er p
en ing
ĠT each
ĠA ff
à¦¶ à¦¯
à§Ń à§¯
à¦¨à¦¬ à¦¤
Ġmount ain
ĠSc ot
Ġnail s
Ġt ie
Ġc ool
Ġd ar
ĠT ouch
at ri
ĠB ound
Ġe ff
ĠR ed
Ġv ul
Ġà§ª à§ª
Ġconf ession
ĠAl ban
Ġlearn ing
the re
stand ing
Ġdrink ing
lect ed
Ġglass es
ĠBre ak
u ally
Ġm ask
Ġf if
Ġd ot
Ġn amed
à§ĭ à¦Ĥ
ĠT ruly
ĠM ur
id ers
ĠN ed
Ġbut ter
and ers
ort hern
à§« à§ª
Ġsum m
Ġser ious
Ġcha mp
ĠRe ady
Ġwonder ful
ĠBr itt
ĠAnt on
ĠFl or
ĠScot land
b ric
c est
g ues
l ast
w ear
Ġa ck
Ġw ol
Ġc ord
Ġd rift
Ġy ester
ĠT roy
Ġhe el
Ġà¦ı à¦®à¦¬
Ġre in
Ġst iff
ĠL end
ĠL ies
as ant
ĠP em
ĠF ell
Ġcom mit
Ġbl iss
Ġthem e
Ġbr anch
un ger
Ġpl an
ave d
Ġsc ore
Ġru m
Ġru ns
Ġgr im
Ġco ast
Ġdou bl
Ġtalk ing
av our
mp h
Ġwind ow
Ġchan ging
Ġclo ck
Ġappe ars
Ġtem ple
ĠHa pp
Ġdist urb
Ġcor ruption
Ġsing ular
Ġact s
Ġbow l
Ġsecret s
Ġdu kes
Ġfr ont
Ġmed ic
Ġbend ing
Ġloyal ty
Ġpin ch
Ġwait s
Ġsong bad
Ġvent ure
Ġadvance d
ĠAtt end
Ġhist ory
ĠAnton io
B ISHOP
H ic
Z ounds
d one
h orse
k est
l ance
l iness
m y
r ament
t rees
u ing
Ġt row
Ġt orn
Ġt ardy
Ġa pe
Ġa fe
Ġs ow
à¦¯ à¦Ł
in ies
in ces
Ġm ouse
Ġm ates
Ġm urde
ha ge
Ġb ail
Ġb ows
Ġb ounty
Ġf rant
Ġf ount
Ġf ift
Ġf olks
Ġc ush
Ġc rows
Ġc ords
Ġd ine
Ġd ug
Ġd ried
Ġd ash
Ġd ined
Ġd umb
Ġd iest
Ġd ancing
en ches
Ġn igh
Ġn imble
Ġn orthern
Ġl ace
Ġl ute
Ġy are
Ġp ow
Ġp est
Ġp up
ar ried
Ġth w
Ġth rown
ĠT ew
Ġh ill
Ġto ads
à¦ª à¦Ĺ
se th
Ġhe inous
Ġg ust
Ġg ather
Ġg aunt
ĠW ert
ĠW alter
Ġin ward
Ġin vent
Ġha g
Ġha unt
im ents
ĠB ishop
Ġme ed
Ġme al
ĠC ourage
ĠC upid
Ġre semb
Ġre vive
Ġst ink
Ġst ag
Ġst ark
ad venture
Ġfor so
Ġe vent
ri cian
Ġas p
Ġas hes
Ġde er
am ity
Ġk ites
ĠF oul
ĠF etch
ro ach
Ġli ef
pe ach
pe ian
ĠN ept
Ġsha de
Ġcon c
Ġdo le
Ġno d
Ġno on
ĠTh row
Ġv ass
Ġv ial
Ġv ouch
Ġv arlet
Ġan cest
ĠK ent
Ġlo dge
Ġlo athed
Ġfa ction
em ption
li hood
ous ins
Ġwhat soever
Ġsh own
Ġar ise
Ġpr at
Ġpr ate
Ġpr ating
iv ant
Ġman hood
Ġbl own
Ġbl aze
Ġbl ushing
ive ly
ea rer
Ġthere to
Ġsw oon
Ġhere in
Ġor ator
un ed
Ġun pro
Ġun like
Ġun ruly
ure r
Ġwor ser
Ġwor ms
Ġim peach
ĠJ up
Ġdef y
Ġdef or
Ġmust ard
Ġsp ark
Ġsp urs
Ġgra ces
Ġsee ks
Ġshould ers
Ġlike lihood
Ġsa p
Ġsa ck
Ġpl aint
Ġen forced
Ġen rich
Ġr anc
Ġr ush
Ġr oof
Ġr ushes
Ġri g
Ġmar shal
Ġoff ences
Ġdis o
Ġdis semb
Ġcl er
Ġbrother hood
Ġex ceed
Ġex cept
Ġfo x
Ġro ses
Ġro aring
Ġal ar
Ġal oud
Ġcomm ends
ult ing
Ġà¦¸à¦° à¦ŀ
Ġint ents
Ġlea p
Ġlea ving
Ġsweet est
Ġper d
Ġper fection
Ġwr ing
Ġle vel
aw ful
Ġother wise
Ġmean er
Ġmo e
Ġmo ving
Ġmo iety
Ġnight ing
Ġdown fall
Ġra ce
Ġwh ist
Ġmother s
Ġever last
Ġpe er
Ġfriends hip
Ġve il
Ġcons idered
ks bury
Ġrest s
Ġhar l
Ġhar vest
Ġhar bour
Ġgr ass
ĠPro sper
Ġbest ri
che th
Ġacc omp
Ġhence forth
Ġface d
Ġcomp are
Ġend ured
Ġpur sue
ĠThy self
Ġdear th
tw ould
ister ous
Ġconf idence
Ġconf eder
Ġchar ges
Ġà§¯ à§©à§«
Ġlight s
Ġbes ide
Ġroyal ties
Ġfull y
Ġafter ward
Ġwrong ed
Ġlast ing
Ġap art
Ġthousand s
Ġtre es
Ġpat ron
Ġfall en
Ġfall ing
Ġob sc
Ġste ad
Ġste ep
Ġstri fe
Ġhum ility
Ġbo isterous
Ġdeli cate
Ġbeli eved
Ġdoubt ful
Ġreven ue
Ġhang man
Ġcommand s
ĠCom mand
Ġadv ocate
Ġproud est
Ġchan ces
Ġbreak s
Ġclo ak
Ġclo sed
Ġyield ing
Ġcra b
Ġcar ries
Ġsit ting
Ġrequ ire
Ġperson s
Ġlen ity
Ġtender ness
Ġsad ly
Ġreport ed
Ġcho se
ĠMont agues
Ġbur den
Ġgrow th
Ġask ing
Ġwat ery
Ġsil k
Ġbat tles
Ġdevil s
Ġentreat y
Ġmur ders
Ġrevenge ful
Ġquar ter
Ġdr am
Ġspeed y
Ġdist ress
Ġdesp ised
Ġfore head
Ġbosom s
Ġguilt less
Ġattend ed
Ġmurder ous
ĠVols cians
ĠVols cian
Ġharm ony
Ġmus ician
Tw ixt
Ġconfess or
Ġdisc harge
Ġlad s
Ġlead en
Ġbegg ars
Ġsuffer ing
Ġsuffer ance
Ġev ils
Ġwed ded
Ġrec reant
Ġemb ass
Ġgro om
Ġtrou bl
Ġfeast s
Ġund o
Ġred emption
Ġknock s
Ġsafe ly
Ġsafe guard
ĠStand s
Ġopp ression
Ġappro ved
Ġign oble
Ġlament ation
Ġvisit ation
Ġpit ied
Ġsmall est
Ġprov ided
Ġmid st
Ġmid wife
Ġins inu
Ġunw orthy
Ġunw illing
Ġdamn able
ĠTw ice
Ġeas ily
Ġproceed ings
Ġinnoc ence
Ġfr amed
Ġinj ustice
Ġmild ly
Ġdisg raced
Ġfam iliar
ĠMist ake
Ġreign s
Ġut most
Ġtemp or
Ġprosper ity
Ġsli ly
Ġsac rament
Ġlow ly
Ġslander ous
ĠCapul ets
Ġplant s
go vern
ĠAB RA
Ġimag ination
Ġextrem es
Ġconcl usion
Ġprophe cy
Ġunl ook
Ġunl uck
she aring
Ġeag er
Ġavo ided
Ġloath some
Ġstock s
Ġchief est
Ġsens ible
Ġcre pt
Ġstat utes
Ġaim s
Ġpil ot
Ġinfect ed
Ġca uses
Ġange ls
Ġcrack ing
Ġcal amity
Ġlod ged
Ġlod ging
Ġpursu it
Ġconquer or
Ġwhore son
Ġspr ings
Ġfle et
Ġfro zen
ĠARCH BISHOP
Ġmag ist
Ġcompass ion
Ġmaiden head
ĠSupp ose
Ġlun atic
Ġswell ing
Ġabhor r
Ġadver se
Ġperj ured
Ġwhisper ing
ĠTar peian
ĠConf ess
Ġpu iss
Ġmult itude
ĠAnti um
Ġclim ate
Ġinqu ire
Ġmanif est
Ġdisple asure
Ġwrink led
Ġcorre ction
Ġmom ent
Ġsuper f
ĠLie utenant
Ġmood y
Ġtaunt s
Ġped lar
ĠSomet ime
Ġbran ches
Ġincen sed
Ġflatterer s
Ġtig er
Ġorn aments
Ġeter nal
Ġnumb ers
Ġpear l
Ġhind er
Ġbere ft
Ġunse en
Ġtrif les
Ġserp ent
Ġcounsell or
ĠSy cor
adv ised
ĠVirt ue
Ġcab in
Ġconsequ ence
Ġconcer ns
Ġmarvell ous
Ġplebe ians
Ġprophes y
Ġceremon ious
Ġfu lf
ĠCart hage
ĠTun is
Ġsixt een
ĠMur der
ĠBritt any
Ġack now
ĠPem broke
Ġafe ard
Ġmurde red
Ġfrant ic
Ġfift een
ĠTew ksbury
Ġforso oth
ĠNept une
ĠJup iter
ĠABRA HAM
ĠSycor ax
ow girl
à¦ħ à¦ª
2 5
à¦ĺ à¦¦
Ġà¦ıà¦ķ à¦¸à¦Ļ
Ġà¦¦ à¦¶à¦ķ
à¦ī à¦ĩà¦¯
ĠR o
à¦Ĺ à¦Ĺ
à¦Ń à¦¨
u ge
Ġà¦ľ à¦Ĺà¦¨
à§Ń à§®
à¦²à¦ª à¦®
ill ed
à¦¬ à¦Ń
à¦ī à¦¶à¦¨
à¦ĩà¦² à¦Ł
à¦Ĩ à¦ĩà¦¸
Ġà¦ıà¦ķà¦¦ à¦®
protidin bd
Ġsongbad protidinbd
" à¥¤
à¦¼ .
Ġà¦¬ à¦¦
Ġà§ª à§©
à¦Ŀ à¦¡
ĠâĢ Ŀ
à¦°à¦£ à¦¤
3 0
Ġb bw
Ġà§ª à§¬
Ġà¦ıà¦ĩà¦ļ à¦¡
à¦ª à¦¬
Ġà¦ħ à¦¸à¦®
Ġà¦« à¦ľà¦²
ĠY o
Ġà¦ıà¦ķ à¦ķ
ĠJ un
Ġc owgirl
Ġ2 3
Ġp ussy
ce mber
ri on
Ġho le
ĠâĨ ĳ
Ġl ink
Ġà§© à§ª
à¦¬ à¦Ł
Ġà¦ĩà¦¨ à¦ķ
Ġà¦Ĺà¦£ à¦ª
à¦¼ âĢ¦
à¦ĵ à¦¦
à¦ı à¦Ł
à§®à§® à§¦
Ġà¦° à¦®à¦¨
Ġà¦Ł à¦ķ
Ġdog gy
0 3
à¦ª à¦¶
Ġblond es
Ġh d
Ġà¦Ĩ à¦ªà¦¤
Ġà¦ļ à¦¯
à¦¤ à¦¯
à¦¶ à¦ĸ
¿ ½
Ġj an
ĠJ an
2 7
Ġa v
à§ĭ !
Ġg ets
ĠAs s
à§ģ '
à§ĭ âĢĻ
ĠYo bt
e ad
à¦¤ à¦ļ
à¦¹ à¦¯
Ġà¦² à¦Ļ
oul et
à¦ĵ à¦¸à¦¹
Ġà¦ıà¦¸ à¦ıà¦®
T he
i vers
cri be
à¦¾ (
à§ĩ '
Ġà¦ħà¦¬ à¦¤à¦°à¦£
m in
Ġt ur
Ġà¦® à¦²
ĠDe cember
à§§à§¦ à§¦
ĠB an
ĠO pen
à¦ī à¦ª
Â »
Ġb ust
Ġà§ª à§Ń
Ġà¦ħà¦ª à¦¹à¦°à¦£
à¦£ à¦«
5 5
p or
Ġà§¬ à§®
ept ember
à¦¯à¦¬ à¦¦
ĠT ag
Ġà¦ħà¦¨ à¦¨
ic ation
à§« à§©
Ġà¦Ł à¦¸
Ġà¦ıà¦®à¦¨ à¦Ł
Ġà§¯ à§¦
à¦Ī à¦¦
à¦¤ à¦ĩ
Ġà¦¤ à¦°à¦²
ĠâĢ Ļ
Ġmast urb
X xx
à¦²à¦¨ à¦ķ
Ġà§¦à§§à§Ń à§§à§¨
5 9
Ġà¦ķ à¦¨à¦Ł
à¦Ĺ à¦ł
à¦ Ĳ
à¦® à¦Ļ
Ġà¦ľ à¦Ĺà¦¤
ine w
Ġà¦ıà¦ª à¦¸
B e
à¦¯ à¦¹
ll y
Ġg ay
i k
t its
Ġà¦ķ à¦«
Ġt een
Ġf re
à¦ĵ à¦¬
Ġà§« à§«
Ġà§§à§¯ à§Ńà§§
Ġà¦ Ķ
à§į ...
à§ª à§¨
Ġà§© à§¦à§¦
à¦¶ à¦¸
2 3
à¦¯ à§İ
Ġà¦Ĺ à¦Ļ
âĢ ľ
Ġà§© à§©à§®
Ġà¦ıà¦ĩà¦ļ à¦ıà¦¸à¦¸
Ġm uff
Ġà¦Ĩ à¦ĩà¦Ł
ĠC hat
han ews
Ġà¦ıà¦ķ à¦°
à¦¼à¦¾ à¦Ĥ
Ġà¦ĩà¦ī à¦ıà¦¸
ww w
2 8
at o
Ġà¦ĩ à¦Ļ
as y
ĠF ree
à¦¾à¥¤ âĢĻ
à¦® à¦£
Ġn on
id s
à§¬ à§«
Ġ0 9
Ġfem ale
Ġà¦ Ĭ
à¦¹à¦¬ à¦§
ĠS im
ĠD r
is her
Ġà¦ĩ à¦¹
à¦« à¦Ł
3 6
e le
er d
ĠA g
ĠH oll
as ing
p ress
Ġf et
st yle
à¦ĵ à¦Ł
à¦¾à¦ģ ,
Ġà§¬ à§«
Ġà¦ħà¦¬ à¦ķ
ĠD u
Ġà¦ħà¦ª à¦¸
p les
à¦¿ à¦ģ
et e
Ġà§« à§¦à§¦
Ġà¦īà¦ł à¦¤
201 7
i qu
p h
Ġà¦® à¦ĩà¦¨
ĠB ad
ĠC y
à¦¥ à¦ªà¦¥
id d
ĠE r
lo ve
ĠJ er
Ġstrong ly
Ġdoggy style
Ġp uff
Ġà¦® à¦¶
ĠB ack
ĠF e
à§¦à§§à§ ¯
Ġex perience
Ġâ ĸ
à¦¨ à¦Ĺà¦ŀ
ak ant
e ks
à¦ª à¦¯
ĠG rand
ĠIn s
Ġbreak ing
c ast
à¦¨ à¦ľà¦Ł
Ġto y
Ġà¦¨ à¦¥
Ġà¦ī à§İà¦ķ
ver se
ĠE M
ab eth
ĠAn y
a is
Ġà¦¸ à§İ
ĠH igh
Ġst aff
Ġar ch
Ġj ade
ĠJ ust
ac c
m ing
à¦° à¦°à¦«
à¦² à¦ľà¦¬
ad em
ĠG old
iz abeth
) -
m iss
Ġà¦ı à¦ıà¦®
ol it
Ġà¦ĺ à¦¡
Ġà¦ķà¦® à¦ªà¦ķ
H e
Ġà¦° à¦ª
as ite
Ġà¦¸à¦® à¦Ŀ
um s
à¦°à¦§ à¦°
Ġà§« à§Ń
Ġà¦ĩà¦¨ à¦«
Ġ3 0
à¦· à¦ª
à¦ļ à¦¶
ke y
id ing
ĠD ef
à¦Ĩ à¦Ĺ
ĠAdv ance
ĠH ost
Ġà¦¸à¦¬ à¦ľ
uck old
ĠPro f
whe re
Ġlat est
c at
Ġà¦¸ à¦°à¦¸
ĠC her
ad o
ĠD irect
ĠE nd
iv al
Ġex act
Ġà¦Ĩà¦ĩà¦¨ à¦¶
à§§à§© à§§à§Ń
Ġug ly
ĠI ll
Ġd er
Ġà¦ľ à¦²à¦¬
ĠP A
ĠR en
Ġv i
ho le
res sed
Ġob ser
Ġ201 5
Ġbless ings
Ġdom in
Ġà§©à§©à§® à§¦
g ers
Ġc ard
Ġh ttp
ie l
Ġà§Ń à§«
Ġhol id
Ġpict ure
c raft
is k
Ġn aught
à¦ª à¦ļ
ĠR un
ĠJ ud
ĠU r
erv ation
av ish
Ġphys ic
Ġà§®à§© à§§à§¬à§©
Ġà§¯à§©à§« à§§à§©à§§à§Ń
Ġjan akant
Ġà§®à§©à§§à§¬à§© à§©à§«
Ġjanakant hanews
Ġt on
Ġm um
à¦¶ à¦ĩ
Ġha w
Ġre n
à¦ĸ à¦¯
ĠP res
pe ci
th ing
Ġsh ower
à¦Ŀ à¦¬
Ġdev ice
Ġthro ats
Ġcre ate
ĠWr ite
b ri
b ble
g rown
p orn
s ide
u pon
w ill
in er
ha ll
Ġc and
Ġc ave
Ġd il
Ġd edic
Ġl oose
Ġh y
ĠS in
est ival
Ġsu gg
Ġma le
ive d
um ps
Ġsw im
co very
Ġstre et
Ġact or
Ġfill s
Ġrece ives
Ġrestra int
b ut
b les
i ber
j ud
p ret
y our
Ġf ilth
en y
Ġo ce
Ġg az
et ition
Ġbe ads
ĠL am
as ures
ĠP ha
ĠP ho
ĠF if
ĠR est
ĠE very
ath om
qu et
Ġqu eens
ol ve
à¦Ĩ à¦ľ
Ġro de
Ġhigh way
Ġbus h
Ġappe ared
Ġden ial
Ġprof ession
Ġfore st
ĠAr m
Ġpay s
ĠJo in
Ġchast ity
ester n
ĠSm ile
gn ant
d ent
h ur
h ine
i pt
Ġt ax
Ġs chol
Ġm iles
Ġc uckold
Ġp ounds
Ġh ood
Ġà¦® à¦²à¦¦
Ġha ll
Ġre cover
Ġde fect
ght s
ĠF ill
ĠF ly
ĠD or
Ġsu ed
Ġsu ng
Ġsu gar
ate ful
um ents
Ġus ing
AN I
ĠThou ghts
Ġsweet s
str ong
aw s
ail ing
Ġcha ins
anc is
Ġhusband s
Ġkill ed
Ġturn ed
Ġover th
Ġfight ing
ĠCom mit
az on
Ġag reed
Ġdraw s
Ġsign s
Ġpen ny
Ġcreat ed
sc ape
Ġgrand father
ĠFr ancis
par ation
Ġthorn s
Th is
Ġmir ror
Ġcum sh
Ġdrag on
Ġlect ure
post er
Ġbutter f
ĠPA GE
Ġton ight
b ell
c us
g ood
g age
o pher
r itor
Ġt ink
Ġt reat
Ġs iege
ou ches
Ġw estern
Ġb ache
Ġl in
Ġp ull
Ġh unger
Ġto e
Ġto wer
st one
Ġg ape
ĠW ales
ĠS uff
ĠH oly
ĠC old
Ġre nt
ad ise
al ty
Ġas semb
ĠL eft
ĠD are
Ġv ig
Ġan sw
ul ous
ous ly
Ġsh out
iv en
ci p
Ġwhe el
Ġqu ake
Ġwor shi
Ġim mediate
Ġimp ression
Ġpo ll
ĠU ns
Ġri dd
Ġri val
ful ness
Ġro cks
Ġwar ning
Ġsl ack
Ġmo an
Ġfl ame
Ġtri ed
ĠSha me
Ġco al
Ġapp ly
Ġconf usion
Ġsleep y
Ġcur ious
Ġbo x
Ġmatter s
ener ate
vers y
ĠNe ighb
Ġbeat ing
Ġpatter n
Ġdeep ly
Ġprof its
Ġcounsel s
pl ish
Ġev ents
Ġemb ra
Ġble ed
Ġlim its
ĠChrist opher
ĠMerc y
ĠTw enty
Ġshi ft
Ġgovern or
Ġunderstand ing
Ġremed ies
Ġdelight s
iffe rent
Ġrel ig
Ġreward s
Ġdi adem
ĠEl izabeth
Ġvol ume
Ġcounc il
Ġspl it
Ġcent re
Ġdivor ce
Ġwol ves
Ġmedic ine
G ain
R EY
b earer
f ranch
k ens
l ter
p han
r iment
Ġ @
Ġ ire
Ġt ents
Ġt ainted
Ġt amed
Ġt ailor
Ġt umble
he ard
Ġa fore
Ġa ug
Ġs ith
Ġs inew
Ġm ant
Ġw aken
Ġw ilful
Ġw enches
ha bit
Ġb ought
Ġb ount
Ġb ishop
à¦® à¦°à¦¤
er ns
is ome
Ġf its
Ġf lock
Ġf estival
ll ing
Ġc rew
Ġc rest
Ġc ousins
Ġd ame
Ġd iet
Ġd rows
Ġd angers
Ġn ourish
Ġl our
Ġl ends
Ġp our
Ġp ate
Ġp ine
Ġp edant
Ġp run
ar ison
Ġth res
Ġo bt
Ġto ken
st rel
ĠA gain
se em
Ġhe igh
Ġhe dge
om enes
ow ick
Ġg ait
Ġg aol
Ġg eld
Ġg aoler
ĠW orse
Ġbe et
Ġin ve
Ġin du
Ġin herit
Ġha lt
ed iment
ĠS UR
ĠB ON
Ġme llow
Ġnot es
Ġnot orious
Ġnot with
ĠH erc
ĠC arry
ĠC ursed
Ġre nder
ĠM asters
Ġst em
Ġst ub
Ġst ooping
Ġfor n
Ġfor ces
ent ious
ur vy
oo fs
Ġwe ed
Ġwe al
Ġe lo
Ġe bb
al o
al ion
ri ef
ri eve
her ited
ĠO bey
ĠL od
Ġde ceive
ĠG room
Ġse ar
Ġse qu
Ġli ar
Ġli qu
Ġso lic
ra ils
ra ught
ĠD ION
ĠD arest
ĠN ATH
Ġcon ge
ain ing
ter ate
ver ing
th w
th rift
Ġdo ct
Ġdo ves
Ġdo ors
Ġno ses
Ġsu nder
Ġall ies
Ġv ine
Ġher bs
Ġan al
Ġan tic
Ġlo ins
Ġlo cks
ize l
Ġkn it
Ġar bit
ant ime
Ġbl ister
Ġbl ade
ĠWhat e
Ġam end
Ġshe lter
end ing
Ġwas p
ĠFor b
ĠFor th
ĠFor bear
Ġreturn ed
um es
um ny
Ġj oc
ĠHe ctor
Ġus urer
Ġhat ch
Ġknow est
Ġcan n
Ġcan ker
Ġcan opy
are th
ven ient
Ġsay est
fe its
ec her
ec hes
Ġbr ass
Ġor phan
all el
pt ory
Ġqu aint
Ġun ple
Ġun sw
Ġun rest
Ġun born
Ġpro cure
pp et
Ġmust y
Ġsp ed
Ġsp ilt
Ġsp ices
Ġsp iders
Ġgra ft
Ġho p
Ġaw ry
Ġimp art
Ġimp erial
Ġimp ud
Ġimp ediment
el ting
Ġmad ly
Ġmad est
Ġmad man
Ġpl ate
Ġres ort
Ġres cue
Ġpo x
Ġpo cket
Ġen s
Ġr he
Ġr ats
Ġr ites
Ġr ising
ap able
Ġtru er
ĠIn fer
Ġri pen
Ġri vers
Ġmar r
Ġmar ble
Ġmar iners
Ġdis semble
Ġdis order
à¦Ĩ à¦¤
Ġcl ap
mit ies
Ġhear s
ac hes
Ġex claim
Ġab st
Ġab od
Ġfo ld
Ġfo il
Ġear l
Ġear ldom
Ġlook er
Ġal to
Ġal oof
erv ing
ĠBe like
tis ed
Ġwar n
Ġcont ri
Ġbre eding
Ġaf oot
Ġint ended
Ġad mitted
ss es
Ġpre c
Ġpre ced
Ġpre rog
Ġpray s
Ġple dge
Ġper f
Ġper mit
Ġtr ades
Ġnoble man
Ġwr angling
Ġle vy
Ġway ward
Ġhead strong
Ġpres erved
Ġimport une
ĠSe ize
Ġsc our
Ġsc ru
Ġsc ape
Ġsc arlet
Ġchi val
Ġra ges
Ġra ging
Ġra iment
Ġfe eding
Ġarm ed
Ġrep lied
Ġrep roof
Ġrep ossess
Ġrep etition
Ġbeg ot
Ġpe rem
Ġlong est
Ġcons umed
Ġent ire
Ġent rails
Ġlie utenant
Ġstru mp
Ġcha f
pi cious
ken bury
Ġcomp osition
Ġgu lf
xt on
Ġco z
Ġco als
Ġpri vy
Ġsub du
Ġcount ed
Ġpeace ful
Ġelse where
Ġback ward
eth on
Ġneed le
Ġneed less
Ġlady ship
ns ion
Ġbra ved
Ġban quet
Ġmind ed
Ġapp oint
Ġshow ers
Ġche st
Ġconf er
Ġconf ines
Ġwo eful
Ġcause d
Ġgl ories
Ġmist aking
Ġbod es
sha pen
Ġlight ly
Ġlight ness
Ġnat ures
Ġdev our
Ġunder ne
Ġunder go
Ġpardon s
Ġhapp ier
Ġfollow ing
Ġfar m
Ġinter rupt
Ġob st
Ġbri be
à¦ħ à¦Ń
Ġcomfort s
Ġcomfort able
Ġsleep s
Ġass ault
ĠHer ald
Ġatt ent
Ġfalse ly
Ġwel comes
Ġbo on
Ġdeli vered
Ġfight s
Ġvill any
hold s
Ġprison ers
Ġmerc iful
Ġdream t
Ġcommand ing
Ġchan ges
Ġstra it
Ġsister hood
Ġfoul er
Ġmer riment
Ġappe ll
Ġsupp li
Ġsupp ose
Ġrequ ired
Ġrequ ires
Ġtender ly
Ġfoot man
Ġdeep er
Ġcho p
Ġnurse d
Ġdare d
Ġcold ly
ĠGre gory
Ġpluck s
Ġair y
Ġsil ken
Ġpast ime
Ġinf ring
Ġfast ing
Ġfit ted
Ġposs essed
Ġpost erity
Ġnob ler
Ġprof an
Ġdist ing
Ġdist ressed
Ġfore t
Ġmin strel
Ġdiv ided
Ġdiv ines
Ġdiv ision
Ġresol ute
Ġmock ing
Ġmock ery
Ġinc onstant
the ns
Ġwhi pt
Ġharm less
Ġtrib une
Ġtrib ute
Tw ill
ĠAr ise
Ġdisc ords
Ġdisc harged
Ġaff right
Ġstir s
Ġstir ring
Ġsk ulls
Ġforg iveness
Ġbreat hes
Ġreg iment
ĠBes hrew
Ġcheer fully
Ġpoison ous
Ġdire ful
Ġwis est
Ġemb raced
Ġsur feit
ĠAb hor
Ġclose ly
Ġfoll ies
Ġsucc or
we igh
ĠAp othecary
Ġmal ign
bl own
Ġble eds
Ġcap ital
Ġcap arison
Ġbro ad
Ġchamber lain
Ġreb el
Ġreb uke
Ġcreat ures
Ġwitness es
Ġcoward ice
Ġscorn s
sh ining
Ġter rible
Ġter ritor
Ġid ly
Ġins ulting
Ġhide ous
Ġbeast ly
Ġfam ish
Ġhur ried
Ġsole ly
Ġdrunk ard
ĠMe asure
ĠMe antime
Ġsaf er
Ġlust ful
Ġthreat s
ĠEn ough
ĠVer ily
Ġcapt ive
Ġmount ing
Ġmut iny
Ġcontr ad
Ġdemand s
Ġgreet ings
Ġgent ler
Ġtriumph s
Ġscarce ly
ĠFl ore
Ġfart hest
Ġdeg rees
Ġchast isement
Ġfaint ly
Ġdwell s
Ġmiser ies
Ġcondition s
Ġschool master
Ġboot less
Ġextrem est
Ġfirm ly
Ġbef al
Ġbef its
Ġincl ination
Ġfruit ful
ĠLove l
Ġind irect
Ġind ifferent
Ġunl awful
Ġnecess ary
Ġarg os
Ġround ly
act ors
Ġknight ly
Ġknight hood
Ġdec ay
Ġshr ink
Ġfright ed
Ġtreacher y
Ġassist ance
Ġutter ance
Ġstar ve
Ġloud er
Ġamb ition
Ġjealous ies
Ġrasc als
Ġpersu asion
Ġphys ician
Ġcal umny
Ġneg l
Ġweight y
Ġbew are
Ġpursu ed
Ġpenit ence
Ġsolemn ity
Ġpublic ly
Ġadm ir
ĠRep ent
Ġbas eness
Ġbud ge
Ġcomb at
Ġwond ers
Ġpronounce d
Ġtremb les
ĠCal ais
whe l
Ġgrey h
Ġtest imony
Ġhaz el
Ġmill ions
Ġglo ves
Ġmere ly
Ġapprehe nsion
Ġcholer ic
ĠBra kenbury
ĠPat rician
Ġlun gs
Ġwitch craft
Ġing rate
Ġadver tised
Ġperj ury
Ġbraw l
Ġbraw ling
Ġcircumst ances
Ġworthi ly
Ġdiffe rence
ĠTar qu
Ġpu ppet
ĠCons ider
ĠAnti ates
Ġhor ror
Ġclim b
Ġwing ed
ĠSix th
Ġfors ake
Ġbegu ile
Ġcorre ct
Ġsy ll
Ġtim eless
ĠAf fection
ĠCle omenes
mong st
Ġdeb ase
Ġwid ows
wit ted
Ġachie ve
Ġachie ved
Ġcounc ils
Ġnap kin
Ġshri ek
Ġimpat ience
Ġimpat ient
Ġscold ing
Ġcurt ain
ĠAmong st
Ġinjur ies
Ġinjur ious
Ġdisgu ised
ĠBetw een
ĠBetw ixt
eb us
Ġcontro versy
ĠKn ock
Ġsuns hine
ĠPur su
Ġbank rupt
Ġhom age
ĠPerc y
ĠGree ce
Ġconsort ed
Ġmour ning
Ġbag gage
Ġleng then
Ġhig her
Ġhaught y
Ġunfe igned
Ġtransport ed
Ġsau cy
ĠEm ilia
Ġsoci ety
ĠEver more
Ġrag ged
ĠDisp atch
Ġissu ed
Ġsupre me
Ġanch or
Ġconsp ir
Ġrestore d
Ġsmil ing
Ġmerri ly
Ġinfer ior
Ġexped ition
Ġinsol ence
Ġconclud ed
Ġreckon ing
ĠWelsh men
ĠOver done
gl ass
ĠHar p
Ġash ore
Ġamaz ement
Ġsand s
Ġdar ken
ĠTouch ing
Ġvul gar
ĠFlor izel
Ġcord ial
Ġpest ilence
Ġpup il
Ġvass al
Ġplaint s
Ġranc our
Ġdiso bed
Ġnighting ale
Ġwhist le
Ġharl ot
Ġtroubl ous
Ġpuiss ant
Ġacknow ledge
iqu ity
ĠGrand am
ĠEM ILIA
ĠRen own
ĠUr ge
peci ally
ĠPha ethon
ĠPho ebus
ĠFif th
Ġschol ar
ĠDor icles
ANI EL
poster ous
Ġbache lor
Gain st
Ġprun es
Ġobt ain
ĠSUR REY
ĠBON A
Ġnotwith standing
ĠHerc ules
Ġelo qu
ĠLod owick
Ġsolic it
ĠNATH ANIEL
Ġvine yard
Ġjoc und
Ġalto gether
Ġpreced ent
Ġprerog ative
Ġperem ptory
Ġstrump et
Ġunderne ath
Ġterritor ies
à¦¡ à¦Łà¦ķà¦®
Ġà¦ħ à¦¸à¦¹
âĢĿ à¥¤
Ġà¦¨ à¦ľ
à¦ī à¦¤
Ġà¦¬à¦¸ à¦¤
ĠDe v
y ah
à¦¹à¦¤ à¦¦
Ġà§¨à§¦à§¦ à§®
Ġsex y
Ġfem dom
ï ¿½
ro s
Ġà¦Ī à¦ķ
Ġà¦Ĺà¦£ à¦¸
Ġà¦ıà¦ĸà¦¨ à¦ĩ
Ġb ang
à¦² à¦¥
Ġint erest
Ġ2 7
2 2
m o
à¦ĩ à¦ľà¦¨
Ġà¦ıà¦° à¦ĩ
Porn o
Ġà¦ª à¦¨
à¦Ľ à¦²
Ġà¦¬à¦¨ à¦¬
ĠSun Porno
à¦Ĩ à¦°à¦¸
ĠL at
Ġà§§à§ª à§©à§¯
à¦¦ à¦«
à¦ļ à¦¬
à¦¬à¦ķ à¦ķ
4 5
à¦¬ à¦Ļ
à¦§ à¦Ł
ide o
l het
Ġà¦īà¦ª à¦Ń
ĠC ut
Ġà¦ıà¦ķ à¦¥
à¦ħ à¦¬
ok ing
Ġà¦Ĺà¦£ à¦¤
oulet te
Ġmasturb ating
r oulette
à¦¯ à¦Ń
à¦¼ )
it ting
à¦ĸ à¦ª
à¦°à¦¹à¦£ à¦¯
T ube
à¦« à¦¨
à§® à§«
Ġà§¯ à§¯
ĠT akes
Ġsm oking
Ġc ele
Ġà¦¸à¦« à¦²à¦¤
Ġcumsh ots
in o
Ġ2 8
ĠD ou
Ġà§ª à§§
ĠChat roulette
yah oo
İ ¯
Ġl es
Ġà¦¦ à¦²à¦ķ
Ġà¦¡ à¦ķ
!! !
à¦§ à¦Ń
Ġà¦ĩ à¦Ł
Ġà¦ĩ à¦ª
Ġà¦īà¦ł à¦¬
à¦° à¦¡
à¦² à¦ļ
em ail
ĠIn f
ĠâĨ Ĳ
ers ha
à¦¦à¦° à¦¬à¦¨
ĠÂ ·
Ġprotect ed
ĠArch ives
Ġà¦Ĩà¦¤ à¦Ļ
à¦¦ à¦Ĺ
at t
Ġà¦® à¦£
à¦£ à¦°
Ġà¦ĩ à¦ĵà¦°
ĠB ea
Ġà¦§ à¦¸
Ġà¦ªà¦° à¦ĵ
Ġà¦§ à¦°à¦¤
à§¨à§¦à§§à§ §
Ġà§¦à§§à§Ń à§§à§Ń
Ġï »¿
ĠH ard
ĠâĢ į
ro id
à§§à§¯ à§¯
Ġà¦Ł à¦¯
à§İ à¦ª
Ġà¦¨à¦Ĺ à¦¦
Ġà¦¨ à¦ĵà¦¯
ri an
à¦Ń à¦Ł
à¦°à¦ļ à¦²
Ġà¦Ĩà¦ķ à¦¬à¦°
âĢ İ
Ġà¦ľà¦¨ à¦¬à¦²
à¦¦à¦¨ à¦ķ
Ġà§¯ à§§à§©
ri ck
Ġà¦² à¦¤
à¦ªà¦Ł à¦ª
à¦¸à¦¹ à¦ķ
Ġà¦ħà¦¬à¦¸ à¦°
C om
b u
Ġà§¨à§¦à§§à§ ¯
à¦¼à¦¾ :
Ġà¦ĩ à¦ľ
Ġà¦ıà¦ķ à¦¨
Ġà¦ħà¦¬ à¦®
Ġà¦ĩà¦ī à¦¸
4 4
ĠS eptember
Ġà¦ħà¦ª à¦¶à¦¨
à¦®à¦ĺ à¦Ł
2 9
Ġt e
à¦ĵ à¦®
Ġà¦¸à¦® à¦®
à¦ħ à¦¤
Ġà¦īà¦ł à¦Ľ
2 6
3 3
y lhet
à¦¯ à¦ĵ
Ġres erved
Ġà¦¬à¦° à¦ĸ
Ġà¦²à¦Ĺ à¦ĩà¦¨
l am
ĠW or
Ġà¦ĵ à¦²
Ġà¦®à¦¹ à¦²
à¦ĩ à¦ĵ
Ġro pe
Ġà¦Ŀ à¦°
Ġbond age
Ġà¦¦ à¦¨
à¦īà¦ľ à¦¬
ĠQu ick
w omen
Ġà¦ķ à¦¡
Ġà¦ıà¦¸à¦ıà¦® à¦ıà¦¸
5 8
à¦¾ "
à¦ļ à¦¡
à¦ıà¦¸ à¦ıà¦«
Ġc li
Ġà¦¶ à¦Ļ
Ġà¦ĵ à¦®à¦°
Ġà¦Ń à¦Ļ
à¦¯à¦¬ à¦§
à¦ķ à¦¥
Ġà¦¸ à¦²
le x
Ġà¦ķ à¦Ł
Ġà¦¨ à¦ķ
à¦® à¦Ń
ĠP e
Ġ2 9
v ies
Ġto ys
ol n
Ġà¦ķà¦® à¦²
à¦ĩà¦Ł à¦¸
à¦ªà¦ķ à¦¥
Ġb d
Ġà§¦à§® à§¨à§§
ĠPlay er
/ -
ag o
Ġ* **
Ġà§¨à§¦à§¦ à§¦
à¦¬ à¦¦à¦²
Ġà¦ļ à¦¡
ĠE ur
à¦ī à¦ĩ
Ġà¦ħà¦¸ à¦¤
à¦®à¦¬ à¦Ļ
ĠAc qu
Ù İ
à§ĭ ...
à¦¦à¦« à¦¤à¦°
à¦° à¦¥
Ġà¦ª à¦¤à¦¨
ĠO ct
Ġà¦ªà¦° à¦ķ
à¦°à¦¹ à¦°
ret ion
Ġà¦¬à¦¹ à¦¨
Ġmat ure
I t
o ff
Ġà¦Ĩà¦ľ à¦¹
à§§à§¨ à§¦à§«
Ġask ed
Ġà¦¨à¦¬ à¦¬à¦°
g ia
m ast
o b
à§ĩ ),
à¦°à¦¦ à¦¤
à¦¸à¦« à¦Ł
Ġà¦Ķ à¦·
à¦¯ à¦ľ
à§Ģ ...
lo g
Ġà§ª à§¯
ĠX xx
2 1
Ġg ear
Ġles b
ce ives
Ġà¦ıà¦ķ à¦¸
Ġdisc retion
Ġà¦¬ à¦Ł
ĠS ad
Ġà¦ħ à¦¬à¦²à¦®
Ġà¦Ĩà¦® à¦ľ
Ġà§¬ à§¨
Ġà§¬ à§¯
Ġà¦Ĩà¦ĩà¦¨ à¦Ĺà¦¤
Ġenc ourage
ĠLat in
3 7
à¦¸ à¦Ĺ
à¦ª à¦ļà¦°
Ġà¦Ĩ à¦ĸà¦¤
am i
Ġà¦ĵ à¦Ł
ĠD ream
à¦ĺ à¦£
ĠVal ent
Ġt ea
Ġg ang
5 7
b or
ill e
ul ation
ab b
Ġ ..
à¦¶ à¦ķà¦¤
Ġà¦Ĩà¦¬ à¦¶
Ġenjoy s
Ġn a
Ġwe b
ens ion
Ġà§§à§¦ à§¦à§¦
ĠGr am
Ġf ile
Ġg y
à¦¹ à¦ķà¦¦
ĠF ar
à¦ī à¦¥
Ġà§« à§§
à¦Ĺà¦ľ à¦ªà¦¤
d ur
ur ity
Ġà¦ī à¦¹
Ġà¦Ĩà¦¨ à¦¸
ĠBl ack
' !
er man
it che
Ġà¦ıà¦ķ à¦¤
ĠTr ans
à¦¤ à¦¬à¦°
à¦¼ ;
Ġn y
Ġà¦® à¦ķ
ut o
ĠR oss
à¦°à¦¬ à¦²
à§¬ à§Ń
Ġinf lu
Ġà¦ķà¦¨ à¦Ń
m ission
Ù Ħ
à¦¯ à¦Łà¦ķ
à¦² à¦ĸ
es e
à¦¼à§ĩ âĢĻ
ĠB ar
Ġk itche
âĢ¦ .
à¦¿ ;
à¦ĩ à¦¸à¦²
Ġe l
Ġcl ub
Ġà§Ń à§¨
ĠCom ment
Ġha b
ĠS ent
ĠO pp
Ġà¦ľà¦¨ à¦ķà¦¨
Ġho ot
âĢ¦ ]
C I
M y
n ey
Ġf ut
ĠT ube
à¦ľ à¦¡
Ġà¦« à¦¸à¦²
Ġà¦Ĩà¦¸ à¦¸
3 5
b at
Ġm ass
ĠS l
ĠB rand
ĠD hak
à¦¾à¥¤ âĢĿ
ĠSt ep
ress ing
Ġà¦ķà¦² à¦®
Ġplay s
Ġeat ing
se c
ĠS i
Ġà¦¯ à¦®
Ġr am
Ġad ult
ĠSt aff
Ġà¦¬à¦° à¦Ĺ
ud dy
à¦Ĩà¦ĩ à¦ª
ĠC are
Ġà¦ĸ à¦¸à¦¡
Ġà¦ıà¦ķ à¦®à¦¤
ĠJ ames
Ġinstruction s
m et
m ak
à¦ķ à¦ĩ
Ġà¦¸ à¦ļà¦²
ĠC hi
ter nal
à¦ĩà¦¨ à¦®
Ġà§« à§ª
ĠPro v
cript ion
ĠDe ep
ĠEn viron
Ġlat in
d ro
in ance
Ġf en
Ġà¦¬ à¦ĩà¦Ł
Ġp ark
Ġà¦Ĩ à¦Ń
Ġg ames
ĠM an
Ġà¦Ł à¦¨
Ġà§« à§¨
Ġ201 3
ĠMus ic
ĠAss ist
a us
r im
x y
Ġ utt
à¦² à¦¸à¦¹
Ġo m
im on
ĠAnd roid
Ġà¦ªà¦° à¦ªà¦°
iv ity
à¦¦à¦ķ à¦°à¦£
ĠAl one
Ġà¦¸à¦ķ à¦²à¦ķ
Ġlez bo
Ġà¦Ķà¦· à¦§
d ra
r is
Ġb is
Ġà¦¸ à¦¶à¦¸
ar ks
à¦ª à¦Ĺà¦ŀ
ĠS A
Ġà¦ľà¦¨ à¦Ĺ
Ġà¦īà¦ª à¦ªà¦¤
à§¬ à§ª
Ġru b
ĠWh ite
ĠDest roy
mak ers
h ra
i able
s chool
Ġh ook
Ġg orge
Ġà§ ·
ĠH al
Ġst art
ĠR uss
Ġcon ver
Ġun ivers
Ġà¦īà¦ª à¦ķà¦°à¦£
ĠBe g
à¦¤à¦¬ à¦¯
Ġà§¨à§« à§¦
Ġsk in
Ġbeaut iful
Ġcontro l
Ġà¦Ĭ à¦°
c an
d is
p ter
Ġc y
Ġc as
Ġc av
ĠS leep
ĠB angladesh
ĠL ess
ĠL ast
ĠG irl
ast ed
ic ing
un ch
Ġ[ âĢ¦]
ff ic
Ġstri p
201 6
? âĢĿ
c as
c up
i ction
l as
s ong
Ġa ust
ĠT end
an ks
ĠB L
ĠL ad
Ġk en
ĠG all
pe ll
Ġà¦ªà¦° à¦ĩ
ho s
ction s
ĠSe b
Ġmo ans
Ġhands ome
Ġdeli very
Ġsec urity
à¦°à¦¹à¦£ à¦ķ
pl ine
bod y
ĠKn ows
à¦Ĳ à¦¤
s erv
t est
Ø §
Ġm ot
ld ren
Ġà¦ħ à¦·
ĠC arl
ĠP hi
ĠR ef
ĠD ro
ĠD ick
il ver
Ġan t
à¦¬à¦¨ à¦¯
Ġdesire d
Ġpost s
ĠAd am
Ġview s
Ġpunish ment
Ġsubs cribe
ĠChi ldren
f lix
l ink
o is
Ġ iv
on ed
Ġl ane
Ġp oo
at ory
ĠC ot
ĠF ound
ĠF ool
ĠN ight
all s
ack s
ĠSt op
ĠCon st
Ġbig tits
Ġviol ate
ĠBl ind
à¦Ī à¦¨
Ġband y
Ġmag ic
Ġjew els
Ġwa iting
ĠVal er
Ġny mph
Ġfut ure
W e
a cious
h ill
l ord
o ver
p oses
t ree
à¦¯ à¦¸à¦®
in ite
Ġd ial
Ġh ilt
Ġg le
à¦· à¦¸
im s
ch o
ch ild
ĠB ase
ĠP it
ĠF ur
us ing
th is
em p
um n
io d
Ġun us
ol our
Ġsp ace
Ġri p
Ġfair ies
atter y
Ġra w
ious ly
Ġcha in
Ġpass es
co vered
ject s
à§İà¦¸ à¦°
az y
Ġwear ing
ĠBl ood
Ġpain ful
Ġstud ied
Ġdet ect
à¦¸à¦« à¦°à¦®
Ġsham eless
ĠSm all
Ġbeaut ies
Ġpaint ing
Ġoce an
ĠEur ope
ĠHal f
ĠRuss ia
' --
F ore
T y
U NT
c ats
m ary
t hi
w h
in et
Ġw ra
re ement
ha st
Ġb au
Ġb ug
Ġb attery
Ġf li
Ġc ot
Ġl ain
Ġo x
Ġu pper
ĠM eet
ĠM ount
Ġst uck
ent ing
ĠL ittle
am ine
ĠP il
pe ople
qu is
qu al
li v
ast ian
iv ious
Ġreturn s
od ity
Ġsee king
el ing
à¦°à¦® à¦¹
Ġri b
à¦Ĩ à¦īà¦Ł
ber ing
Ġab uses
Ġro y
ag ine
Ġà¦¢ à¦²
Ġpre gnant
Ġra p
Ġpe ck
Ġco llect
Ġhapp en
irt ing
Ġact ing
Ġwis hes
ĠAm azon
Ġsho ot
Ġsho ck
asc ivious
ĠRep air
Ġhost ess
ĠAf ric
Ġsumm ers
min ster
Ġfilth y
Ġbutterf ly
ĠSeb astian
G ood
a very
a ving
b es
b rain
d ict
f end
f ix
g om
m ind
m mer
p hos
r ates
t ake
v ity
z ine
Ġt unes
Ġb one
Ġb ind
Ġb iting
Ġb ench
er th
Ġf ate
Ġn uns
ĠT ong
Ġh ills
Ġto ss
st ool
ĠA E
Ġha ven
ĠB ret
Ġis sues
ent ly
ke ep
Ġe g
ĠL uke
ĠL ift
à¦Ń à¦®
ĠF ellow
ĠD ion
ĠN ear
if ter
ge ms
Ġno v
ĠTo gether
Ġne arer
Ġma p
han ce
Ġfa bric
ig ation
ust ers
Ġman s
ble d
Ġus age
pt ed
Ġqu est
Ġhand le
Ġimp re
ass ad
Ġr ings
ap es
ise ases
Ġcl othe
ber y
Ġro d
Ġro ad
oul s
ens ive
Ġcall ing
Ġpre d
Ġpre paration
Ġle ader
Ġpres ses
ĠSe al
Ġsc ars
per or
per ation
ff er
Ġcons ume
Ġhar der
Ġsle nder
Ġpur ses
Ġpur poses
ach ing
Ġhel ping
Ġtra ffic
Ġbra zen
Ġopen ing
Ġless on
ĠUn b
ĠCom ments
Ġkiss ing
ĠPl ain
ĠPl ace
ĠPr oud
Ġpar adise
Ġdr inks
Ġdist rib
Ġdisc reet
Ġenter prise
Ġwast ed
Ġbegg ing
Ġfour th
hem atic
Ġest ab
sc ore
Ġbec ame
Ġinj ured
Ġeffect s
Ġfru its
ĠEn force
ĠShow ing
Ġartic les
Ġamb ush
Ġheav ily
Ġsong s
Ġdirect ly
Ġele ction
Ġrose mary
Ġrel ation
Ġspr ites
ĠSet ting
ĠGu ild
ĠCond ition
Ġspect ators
ĠSus an
Ġaccom plish
ĠWest minster
Ġchamp ion
ĠDu kes
Ġworshi ps
Ġimmediate ly
Ġembra ces
ĠPhi lip
ĠValer ia
Ġunus ual
gom ery
hematic s
? âĢĻ
H ear
S ouls
T ell
b red
b ham
c et
c hard
c ued
d ue
e ress
f avour
g her
g one
g led
g reed
h oop
j ourn
l ous
l orn
l ings
l ause
m ony
n it
n ut
o a
o ided
p ate
p ence
p iece
s ick
s ylhet
t sey
t erest
w ench
w orth
w arn
z water
Ġt um
Ġt ire
Ġt atter
Ġt ides
Ġt ales
Ġt eeming
Ġt umbling
he ar
Ġa qu
Ġa ery
Ġa ches
Ġs ly
Ġs urn
in able
Ġm ing
Ġm ow
Ġm art
Ġm ute
Ġm use
Ġw are
Ġw aning
Ġw alks
re ef
on ce
on our
Ġb ate
Ġb ide
Ġb aw
Ġb ale
Ġb arr
Ġb ier
Ġb ash
Ġb ills
nd ers
er ate
er able
er whel
is le
Ġf ed
Ġf ence
Ġf ester
Ġf owl
Ġf ickle
Ġf athom
ĠI rish
Ġc ed
Ġc ert
Ġc left
Ġc uff
Ġd un
Ġd aint
Ġd aring
Ġd astard
Ġd ances
Ġd uteous
Ġd ainty
Ġd iseases
Ġn erves
Ġn iece
Ġn inet
Ġl ame
Ġl ass
Ġl aughter
Ġl echer
Ġl azy
Ġy ard
Ġy ew
Ġy ellow
Ġp ir
Ġp ith
Ġp ul
Ġp otion
Ġp ines
Ġp als
Ġp iled
Ġth ra
Ġth rew
Ġth orough
Ġth reef
Ġo st
ĠT rem
ĠT iber
Ġh int
Ġh ounds
at iate
st ood
Ġhe n
Ġhe w
Ġhe al
Ġg ilt
Ġg ild
Ġg iant
Ġg inger
ĠW ent
Ġbe ho
Ġbe com
le ven
le hill
ce ls
Ġin habit
ut us
ut ches
ĠS orrow
ĠS land
ĠS ilence
ĠB ore
ĠB reat
ĠB rist
ĠH ap
ĠH allow
ĠC ros
Ġre vers
Ġre lish
Ġre lease
Ġre vell
Ġre lieve
Ġre hear
ĠM ab
ĠM ere
Ġst age
Ġst int
Ġst eter
Ġst arts
Ġfor ms
Ġfor lorn
ur bs
Ġe w
Ġe gg
Ġas cend
ĠL ud
ĠL ives
as hy
Ġk ern
ĠP ale
ĠF RAN
ĠG iven
ĠR ago
Ġse vent
Ġse par
us ale
ly sses
Ġli ars
Ġso ar
Ġso ber
Ġso lace
ra ign
ĠD ight
ĠD ie
ĠN ine
Ġsha med
Ġcon y
Ġcon vent
Ġcon du
Ġcon vers
AR L
ver ns
ĠY onder
ĠE xton
ĠE ARL
iz ard
ge on
ge ia
th ren
Ġdo l
Ġdo it
Ġdo ings
ru ng
ru ised
Ġsu es
Ġsu ret
Ġsu lp
Ġbut che
ĠTo ld
Ġne arest
Ġall ay
ĠTh ither
Ġv est
Ġv ap
Ġv ices
han iel
Ġher ds
ard ed
qu ess
qu iet
ell ows
Ġfa ils
Ġcom pell
Ġkn ell
Ġkn avery
em inate
li ction
li ces
Ġwhat e
Ġsh ine
Ġsh outs
Ġpr y
Ġpr oofs
ant ial
Ġgood man
res seth
Ġman ly
Ġman acles
Ġman kind
Ġman gled
Ġbl ots
Ġbl asp
ci ble
Ġwhe t
Ġwhe res
Ġwhe els
Ġam ity
Ġam ended
Ġshe pher
Ġshe ets
ea v
end om
Ġgo est
ĠFor get
ĠFor rest
ĠFor give
Ġj ump
ĠHe len
Ġhat ches
Ġsw ine
Ġsw ifter
ec ess
Ġbr ine
Ġbr ittle
ata gems
Ġor chard
pt ure
ic ide
Ġun ity
Ġun man
Ġun aw
Ġun av
Ġun pre
Ġun sc
Ġun acc
Ġun thrift
Ġspe ll
Ġspe ar
Ġspe eches
lo yal
lo cks
Ġpro g
Ġpro ver
Ġpro duce
Ġpro ffer
hy me
ĠWhe nce
Ġsp urn
Ġsp aring
Ġho ped
Ġaw e
Ġaw ful
Ġimp ose
Ġimp osition
Ġsa ils
Ġpl ent
Ġres p
Ġres idence
Ġen com
Ġen sue
Ġen roll
Ġen join
Ġen franch
Ġr ood
Ġr ates
Ġà¦®à¦¨ à¦¸
Ġout st
Ġhow l
Ġtru dge
ĠU lysses
ĠWe ep
Ġsome body
Ġmar quess
Ġstr ang
Ġstr atagems
ack et
Ġdis ci
Ġdis pro
Ġdis hes
Ġdis like
Ġdis posed
Ġdis covery
Ġdis loyal
Ġhear th
ac key
Ġex ha
Ġex ternal
Ġab ility
Ġfo aming
Ġday light
Ġro gues
Ġtell us
Ġwhere upon
ag ate
Ġdes c
Ġcomm odity
à§Ń à§¨à§¬
ĠMar iner
Ġwar y
for ward
ace d
Ġcont em
Ġfear less
Ġfi ends
Ġgreat ly
Ġbre thren
Ġint ends
ĠYour self
ough by
Ġpart ake
Ġpart ial
Ġsl anders
Ġad ul
Ġad orn
Ġad der
Ġpre posterous
ĠSt ir
Ġsweet en
Ġper t
Ġper used
Ġper chance
Ġper adventure
Ġper iod
Ġle vied
Ġpres um
Ġsc ra
Ġsc are
Ġsc outs
Ġmo lehill
Ġnight ly
Ġra ze
Ġra rest
Ġra bble
Ġke en
Ġrem iss
Ġrem ote
Ġfe es
Ġright ly
Ġfl our
Ġfl ag
Ġfl ayed
ilt y
per y
Ġrep aid
Ġrep rieve
Ġpe asant
Ġlive ly
Ġlong s
Ġlong ing
Ġve he
Ġcons erves
Ġmight ily
com fort
ĠSir s
Ġrest eth
Ġrest rain
Ġhar ms
Ġsum mon
Ġcrown ed
Ġcour ses
Ġent ers
Ġi bat
ĠPro dig
cri ed
Ġkeep ing
Ġcha ff
Ġhour ly
Ġcomp lices
Ġend ow
Ġend eav
Ġco ats
Ġpri cks
ield y
Ġpur ged
Ġpur sues
Ġsub orn
Ġsub mission
Ġsub due
Ġsub urbs
Ġsm iled
Ġsm elt
Ġtongue less
ason able
ĠWill oughby
Ġhus h
Ġhope less
Ġneed y
Ġhel ms
Ġtra ged
Ġtra gic
Ġbra gg
Ġapp lause
Ġche ers
Ġconf ined
Ġchar ms
Ġchar ters
Ġchar itable
Ġserv ing
Ġgl ister
Ġmist ook
Ġfort night
Ġfort unate
ĠRe vol
Ġbring ing
Ġplease th
Ġbes eem
Ġbes iege
Ġbes hrew
Ġthr ong
Ġjust ly
Ġjust ify
Ġwrong fully
Ġplace d
Ġmis chief
Ġap othecary
Ġeye b
Ġtre ble
Ġch id
Ġch ides
Ġch ron
Ġbus ied
Ġfool ing
Ġinter cept
to ck
Ġunc ertain
Ġob dur
Ġob liv
Ġcourt s
Ġstri de
Ġstri pes
Ġwoman ish
ĠUn w
ĠUn ha
ices ter
Ġturn ing
Ġhum ane
Ġtalk ed
Ġover heard
Ġinst ance
Ġinst ead
Ġatt ach
Ġseem ed
Ġseem eth
Ġcur s
Ġcur bs
Ġwel com
Ġwel kin
ĠWould st
Ġstre ak
Ġvill an
Ġcountry man
Ġsend ing
Ġdoubt ed
Ġdoubt less
Ġwish ing
Ġreason able
ĠRes cue
Ġcommand ment
Ġbreath s
Ġport s
Ġport ion
Ġwind ing
Ġsen is
Ġremem be
Ġswear ing
Ġtend ing
Ġstra in
Ġgre ed
Ġgre ets
Ġclo g
Ġsupp le
Ġtem perate
Ġcar rion
ey ed
Ġrequ ite
Ġrequ ital
Ġspo ils
Ġlam p
ĠJul ius
Ġsoon est
Ġmet e
ĠPl uck
ĠPl ashy
Ġfoot ing
Ġwarrant s
ters hire
Ġsad dle
Ġthrough ly
Ġmarry ing
Ġcho ke
ĠMont gomery
Ġdep th
Ġbur ial
Ġcold er
Ġstrange ly
Ġbu ilt
Ġsuff ice
Ġpluck ed
Ġag ony
Ġag reement
Ġhard y
Ġbat s
Ġentreat ed
ĠSen ators
Ġvis or
Ġvis iting
Ġord ain
Ġord inance
Ġang uish
Ġquick en
Ġtit les
ĠGl ad
Ġinf irm
Ġinf ancy
Ġinf amy
Ġinf inite
ĠSee king
Ġwoo ers
Ġfit ter
Ġfit ting
Ġexec ut
ĠPr inces
Ġpost erns
Ġpar le
Ġpar ch
Ġpar asite
Ġpar lous
Ġprof ound
Ġquar re
Ġdr oop
Ġdr ooping
Ġspeed ily
Ġdist inct
Ġdist emper
ĠBec ome
Ġstreng then
Ġfore run
Ġfore father
Ġdiv ide
Ġcr ad
Ġcr imes
Ġcr utch
Ġcr utches
Ġshort en
Ġinc ur
Ġinc apable
Ġwhi pped
Ġwonder ing
Ġmurder ing
Ġwatch ful
Ġchange ling
Ġdisc red
Ġenter ing
Ġcloud ed
Ġstir ru
ĠCh urch
Ġbit es
Ġsign ories
Ġgar lic
Ġbegg ary
Ġdeliver ance
Ġsick ly
Ġorder ing
Ġorder ly
Ġsoft en
Ġsoft ly
Ġreg ion
Ġreg reet
Ġev ident
Ġcheer ful
ĠLORD S
Ġconsul s
Ġrec ount
Ġmove ables
Ġliber ties
Ġsur m
Ġsur ly
Ġsur pr
Ġsur vey
Ġbegin ning
Ġconsent ed
ĠAb bot
Ġgro ve
Ġfeast ing
Ġfrown ing
Ġdro pp
Ġvict orious
Ġmal icious
Ġspeech less
Ġbrief ly
Ġthri ft
so e
Ġpen ury
Ġgot ten
Ġexp ost
Ġcap able
Ġcompl ete
Ġrespect s
Ġbro ils
Ġworship ful
ĠBl ush
Ġbar b
Ġbar gain
ĠStand ing
Ġlim b
Ġopp osed
Ġcreat ion
Ġappro aches
Ġbawd y
Ġpatient ly
Ġlament ations
sp o
Ġlab oured
sc aped
ĠChrist endom
ĠMerc ury
Ġdark ly
ĠThink ing
Ġlack s
ĠEx cept
Ġunw ill
ĠBr ought
Ġdu cats
Ġbirth s
Ġfavour able
Ġcertain ly
Ġproceed ing
Ġinnoc ents
Ġinnoc ency
Ġwild ly
Ġur ging
ĠEnglish man
Ġtor ches
Ġtor ments
Ġpleas ures
Ġmed itation
Ġem ulation
Ġcontin ued
Ġdoom s
Ġref uge
ĠMe aning
Ġpra ised
Ġcounter mand
Ġcounter po
Ġswift ly
Ġdesperate ly
Ġdrown ing
ĠEn joy
Ġstud ies
Ġauthor ities
Ġeld ers
Ġbastard y
Ġsto le
Ġmut inies
Ġcorn ers
Ġsever ity
Ġwretched ness
Ġbeggar ly
Ġsim p
long s
ĠHeaven s
Ġgent ry
Ġsteal ing
ĠLo ved
Ġadd ed
Ġcustom ary
Ġdeg enerate
Ġprivate ly
Ġdwell ing
ĠSp oke
Ġver ge
Ġver ity
Ġdeal ing
Ġwag on
Ġunf it
Ġshore s
Ġarri val
Ġprophe cies
Ġed ict
Ġstab bed
Ġbutcher s
Ġnecess ities
Ġarg ument
Ġarg uments
Ġjoint ure
Ġprevail s
Ġembrace ments
Ġes pecially
Ġdec ree
Ġdec rees
Ġsail ors
Ġplot ted
Ġball ads
Ġdet ested
Ġcre eping
Ġpi kes
Ġamb assad
ĠCo bham
Ġheav iness
Ġexpress ly
rehe nd
Ġoffend ers
Ġpersu aded
Ġbond s
Ġtrans g
Ġphys icians
Ġmat hematics
Ġcal f
Ġline al
Ġline aments
Ġele ments
Ġvan qu
Ġvan ish
Ġaffect ed
Ġcens ured
Ġbew ray
Ġbew itch
Ġdesert s
Ġlean ness
Ġpetition s
port ion
Ġbas il
Ġgru b
Ġgru mb
Ġadvance ment
Ġtemper ance
Ġfash ions
ĠBear ing
Ġfee ble
ita e
Ġdi vers
do ing
Ġalter ation
Ġblock s
Ġglo ve
ĠThr ong
Ġshun n
Ġqual ity
Ġqual ities
Ġqual ify
Ġvex ation
Ġconsider ing
Ġcompan ions
ĠBra ve
Ġmor sel
Ġclam orous
Ġdig est
Ġthorn y
Ġenforce ment
Ġmelt ed
Ġwealth y
Ġdisper se
Ġaffli ction
Ġworthi er
Ġworthi est
ĠAcc ursed
ĠNat haniel
Ġdiffe ren
ĠIm agine
Ġsal ute
Ġune ven
Ġrece ipt
LIS BURY
Ġdri ven
Ġresist ed
Ġinterc ession
Ġhor rible
ĠCond emn
Ġflood s
Ġcomplex ions
Ġcere mony
Ġreck less
Ġfors ook
Ġmanif ested
Ġung entle
Ġunjust ly
Ġdisple ased
Ġbegu iled
Ġaccus ations
Ġhelm ets
Ġcomplaint s
Ġreconci led
Ġtim orous
ĠAw ake
ĠAw aked
Ġeng ross
bod ing
Ġbon ny
Ġbon net
Ġstumble d
wit hal
Ġfact ious
Ġspect acle
Ġbuck le
Ġbelong s
Ġgrat is
Ġcoff in
Ġcoff ers
Ġincen se
Ġdisgu ise
Ġacquaint ance
Ġnet tle
Ġdece ased
ĠCast le
Ġtou cheth
Ġhom icide
ĠWit ness
ĠWit hal
ĠPerc hance
Ġblast s
Ġtro d
Ġtren ches
Ġtren cher
oubt ed
Ġfret ting
Ġlur k
Ġlur king
Ġleng thens
Ġthirst y
Ġhig hest
Ġflint y
Ġsacrif ice
Ġpor ter
ĠFit zwater
Ġspot ted
Ġbuzz ard
Ġfres her
Ġfres hest
ĠHon est
Ġrobb ers
Ġfantast ic
Ġfantast ical
Ġgn aw
Ġgoss ips
Ġunre vere
Ġprodig y
Ġprodig al
Ġdisin herit
Ġdisin herited
Ġabund ant
Ġabund ance
Ġobsequ ies
Ġattorney s
Ġparce l
Ġdetest able
ĠPersu ade
ĠPersu ades
ĠJu le
ĠChe er
Ġmas qu
Ġann oy
rat itude
ĠDel phos
Ġbul k
Ġcro pp
Ġgam ut
Ġcrim inal
ĠTur ks
Ġeff eminate
ĠRed eem
Ġfif ty
wear y
Ġyester night
Ġplan et
Ġrum our
Ġdoubl et
ĠHapp ily
Ġcush ion
Ġpow der
Ġinvent ion
Ġresemb lance
Ġstink ing
Ġasp iring
Ġdole ful
Ġancest ors
Ġunpro vided
Ġdefor mity
Ġspark ling
Ġrig our
Ġdissemb ling
Ġcler gy
Ġeverlast ing
Ġaccomp any
Ġconfeder ate
Ġafterward s
Ġobsc ured
Ġinsinu ate
Ġunluck ily
Ġmagist rate
Ġmoment ary
ĠJun o
Ġav ouch
Ġtur tle
ĠBan ish
Ġbust le
ĠEr r
ĠJer usale
ĠHost ess
ĠCher tsey
Ġder ived
Ġcand le
Ġdil igence
pret ation
ĠLam mas
Ġoverth row
Ġtink er
Ġtreat y
Ġlin en
Ġassemb ly
Ġvig our
Ġmant le
Ġdrows y
Ġthres hold
seem ing
Ġbeet le
Ġinve terate
Ġinherit ance
Ġstub born
Ġforn ication
ĠForb id
ĠForth with
Ġcann ib
Ġorphan s
Ġunple asing
Ġrhe um
Ġexclaim s
Ġprec ise
Ġscour ge
Ġchival ry
Ġchaf ed
Ġsubdu ed
Ġappell ant
Ġsuppli ant
Ġinfring e
Ġdisting uish
Ġforet ell
Ġminstrel s
ĠAbhor son
Ġmalign ant
Ġargos y
Ġingrate ful
ĠTarqu in
ĠPursu ivant
Ġconspir acy
ĠRenown ed
Ġeloqu ence
Ġà§¯à§§à§© à§©
ĠAcqu aint
CI SC
ĠBrand on
Ġadult eress
ĠStaff ord
Ġom inous
ĠSA LISBURY
ĠBL UNT
Ġken nel
ĠCarl isle
Ġpoo rest
Ty balt
Ġbau ble
Ġfli ers
Ġrib bon
Ġroy ally
bes eeming
mind ed
ĠTong ue
Hear t
Ġtum ult
Ġaqu a
Ġsurn ame
Ġbash ful
erwhel m
Ġninet een
Ġthreef old
ĠBreat he
ĠBrist ol
ĠHallow mas
ĠCros by
ĠMere ly
Ġsteter at
ĠLud low
ĠFRAN CISC
ĠRago zine
Ġsepar ated
ĠDight on
Ġsulp hur
Ġshepher ds
Ġunaw ares
Ġunav oided
Ġunacc ustom
Ġobdur ate
Ġobliv ion
Ġremembe red
Ġinfirm ity
Ġdistinct ly
Ġsurpr ised
ĠJerusale m
à¦° à¦ļà¦¨
à¦¨ à¦¤à¦®
à¦¤ à¦¶
à¦¦ à¦ªà¦¤
9 9
Ġà¦ĩ à¦īà¦ľ
Ġà¦Ĩà¦Ĺ à¦·
à¦¦à¦ķ à¦¬
Ġà¦Ĺà¦£ à¦Ńà¦¬à¦¨
Ġdaily sylhet
k y
à¦°à¦£ à¦¬
Ġà§« à§©
Ġ201 4
ĠPost ed
Ġà¦® à¦ĵà¦¦
à¦· à¦Ł
à§¯ à§ª
Ġà§¬ à§ª
Ġà¦Ĺà¦Ń à¦°
à¦Ī à¦®
3 1
à¦° à¦°à¦®
Ġhe nt
à¦ĩà¦ķ à¦°à¦£
à¦ħ à¦ķ
Ġà¦¨ à¦ĩ
à¦¯à¦ķ à¦¥
a i
à¦¨ à¦«
Ġà¦² à¦ŀ
ho bor
à¦¿à¥¤ âĢĿ
à¦¨ à¦Ľ
Ġà¦° à¦¨
ĠE mp
ĠIn ter
Ġà¦Ĩà¦Ĺ à¦®à¦¨
Ġà¦ħà¦¨ à¦¶à¦¨
à¦°à¦¸ à¦°
à¦² à¦ĺ
à§ģ ...
Ġà¦Ń à¦°à¦¸
Ġà¦ĩ à¦ķ
à§® à§¯
Ġà¦ıà¦° à¦¦
3 4
à¦ķ à¦ľ
Ġà¦ı à¦¨à¦Ł
Ġà¦¹ à¦ĩ
Ġà§« à§¬
Ġà¦°à¦¹ à¦®à¦¤
n o
à¦¨ à¦¤à¦°
ĠP M
ĠH ot
ĠðŁ İ¯
Ã ¿
à¦ĩ à¦ĵà¦¯
à¦ł à¦¸
Ġà¦Ĩ à¦īà¦¯
à¦ĩ à¦ĺ
Ġà¦¹ à¦ĩà¦¤
Ġà¦ļ à¦ķà¦°
à¦ı à¦ĸà¦¨
__ __
à¦¾ âĢĺ
à¦¤ à¦¦à¦¨
Ġf isting
Ġà¦¤ à¦¨
Ġà¦« à¦ľ
à¦ĩà¦ķ à¦®
X X
m a
Ġà¦ªà¦¦ à¦¬
Ġcut ie
ĠH D
Ġà¦ħà¦ª à¦®
Ġ* *
3 9
Ġà¦¨ à¦¬à¦¨
Ġà¦¦ à¦¤
Ġà¦ľ à¦ľ
Ġà¦¶ à¦Ł
Ġà¦° à¦®
à§¨ à§§à§«
Ġà¦Ĩà¦² à¦Ĺ
3 8
Ġà¦¬ à¦ŀ
à§Ģ âĢ¦
Ġj er
Ġà¦¦à¦² à¦Ĺ
Ġà§¨à§¦à§¦ à§¬
201 3
ĠEmp flix
o ber
à¦ª à¦ķà¦²
ĠB D
Ġà¦« à¦ķ
Ġà§¦ à§¦
7 1
Ġà¦¨ à¦ķà¦¶
à¦¬à¦ķ à¦¦
à§¬ à§§
à¦¿) à¥¤
à§ªà§© à§¨à§©
Ġà¦¸à¦¬ à¦Ĺ
à¦ıà¦¨ à¦ľ
à¦² à¦ĩ
à¦² à¦Łà¦¨
Ġà¦ĵ à¦ĸ
âĢĻ ,
Ġà§§à§« à§¦
Ġnext door
5 0
à¦® à¦ŀ
à¦ļ à¦Ĺà¦¡
à¦Ń à¦¸
à¦¦à¦¨ à¦ªà¦¤
à§§à§¨ à§§à§ª
Ġsqu irting
c am
: -
y ou
à¦¹ à§İ
à¦¬à¦¸ à¦®
à¦Ŀ à¦²
à¦ħ à¦¨à¦²
Ġbd news
ĠOct ober
à¦¤ à¦Ĺ
à¦Ĩ à¦¦
ĠJu ly
v ate
Ġà¦ķ à¦¬à¦²
Ġà§« à§¯
Ġà§§à§ª à§¬
Ġporn o
à¦¾ âĢĿ
li ps
N o
à§ĩ âĢĿ
Ġà¦īà¦ª à¦²à¦¬
à¦ĥ -
ag ging
Ġà¦¸à¦¬ à¦ĩ
Ġà¦Ĩà¦ľ à¦ĵ
Ġhid den
à¦¯ à¦ľà¦¨à¦ķ
à¦ĵ à¦¹
Ġà¦ıà¦¤ à¦¦
Ġà¦¶à¦¹à¦° à¦Ĺ
h ot
Ġà¦¸à¦® à¦Ĺ
Ġà¦Ĺà¦£ à¦§à¦°
ĠJan uary
M e
à¦¿ (
à¦¿à¦Ĥ :
à¦ıà¦¸ à¦ĩà¦¸
Ġà§¨à§¦à§¦ à§«
à¦ľ à¦ķà¦²
à§İà¦ª à¦°à¦¤
à¦Ĺ à¦Ł
à¦¼à¦¾ âĢĻ
à¦ł à¦ķà¦¦
à§§à§¨ à§§à§¨
b ang
à¦Ĺ à¦¸
Ġà¦¹ à¦°à¦¤
à¦°à¦¤ à¦ķ
ĠJ oy
à¦°à¦¬ à¦£à¦¤
Ġà¦ĩà¦ī à¦ķ
Ġà¦¦à¦« à¦¤à¦°
à¦£ à¦¯
à¦Ĩ à¦ĩà¦¬
Ġà¦Ĩà¦¨ à¦²
ĠX XX
Ġà¦īà¦ª à¦¬
à§® à§©
Ġà§§à§¦ à§¨
4 9
se x
à¦ī à¦ļ
Ġà¦® à¦Īà¦¨
ĠW ond
Ġà¦ī à¦ĸ
oo gle
ĠP ub
Ġâĸ º
à¦®à¦¦ à¦ª
ĠAcc ount
à¦Ĺ à¦ª
Ġk am
ra ham
à¦¬à¦² à¦¤
Ġà¦¨à¦¬ à¦®
ĠAb raham
ĺ ħ
à¦ľà¦¨ à¦¶
Ġà¦ıà¦ķà¦ľà¦¨ à¦ķ
à§¦à§¨ à§¯
p ur
à¦ĩ à¦¶
à¦¡ à¦Ł
iz z
à§¬ à§¨
ĠGet ting
5 6
à¦Ĩ à¦¯
à§¯ à§«
à§¦à§¦ à§¦à§¦
Ġà§¯ à§«
Ġ %
à¦¥ à¦ķà¦¦
à¦ĸ à¦®
à¦Ń à¦ľà¦¨à¦ķ
Ġà¦ļ à¦®à¦¤
à§® à§¦
Ġà§® à§«
5 2
in c
à¦² à¦¹
on line
à§Ń à§¦
Ġco cks
à¦ħ à¦«
Ġà§¨à§¦à§¦ à§Ń
iew s
à¦¨à¦ª à¦ª
4 0
on z
à¦¦ à¦Ĺà¦ŀ
ĠFuck s
à¦ķ à¦²à¦¨
à¦¬ à¦¦à¦¨
à§Ģ /
Ġà¦° à¦£à¦¬
Ġà¦ĩ à¦ľà¦¤
Ġà¦Ł à¦®
à¦°à¦¨ à¦Ĺà¦°
à§ĩ ..
à¦ķ à¦Ĺà¦ŀ
Ġd ick
à¦¼à§ĩ âĢ¦
Ġà§© à§ªà§«
Ġass hole
9 7
à§ģ !
à¦¶ à¦Ń
ĠR ec
à¦Ĩà¦ĩ à¦¡
Ġà¦Ĩà¦ĩ à¦ľ
+ )
u ly
Ġà¦ķ à¦ļ
à¦§ à¦¸
ĠC opy
ĠN ew
Ġ1 00
uss ian
ĠPlay s
J uly
e v
Ġà¦¤ à¦¦
Ġà¦¤ à§İà¦ªà¦°à¦¤
Ġà¦ĵ à¦®
Ġà¦ĩ à¦¶
à¦¬à¦° à¦¦
lo gy
à§® à§¬
à¦¦à¦¨ à¦Ł
à¦·à¦ķ à¦ķ
à¦ħ à¦¸
4 6
u k
à¦Ł à¦Ń
à¦¼à¦¾ )
ort s
à¦ıà¦¸ à¦ıà¦®
ĠBl iss
ĠCopy right
ve mber
ĠD ay
ĠNo vember
re en
à¥¤ ...
Ġà¦¹ à¦ĩà¦²
à¦¡ à¦°
à¦Ľ à¦¤
à¦§ à¦®
ĠL and
Ġà¦ħà¦¬ à¦¤
Ġà§® à§Ń
Ġà§Ń à§Ń
day s
Ġhair y
' m
Ġà¦ľà¦¨ à¦¨
Ġr ussian
tt ps
Ġà¦Ĩà¦¹à¦¤ à¦¦
ĠSp read
Ġà¦ı à¦ıà¦«
à¦ĵ à¦¡
à¦ı à¦ª
ĠA lex
à¦¬à¦¨ à¦ķ
Ġà¦ĩà¦¨ à¦¶
Ġass ign
4 2
4 7
à¦² à¦¡
ĠD aily
Ġà¦ī à¦²à¦ķ
Ġà¦¸à¦¹ à¦¬
Ġà§¬ à§©
Ġà¦ħà¦¤ à¦ıà¦¬
Ġstock ings
à¦²à¦¨ à¦ķà¦°
az ar
Ġà¦ĩà¦ī à¦ıà¦¨
à¦ķà¦¸ à¦ĩ
f o
f à¦®
à¦¨ à¦·
à¦¯ à¦°à¦ķà¦®
Ġà¦ľ fà¦®
à¦Ń à¦Ļ
Ġà¦² à¦¬à¦£
à§¦à§§à§ ®
à¦ıà¦¸ à¦Ĩà¦ĩ
à¦¤ à¦¸
ĠL im
ĠV id
orn er
ĠIn st
Ġà§¬ à§Ń
Ġà¦Ĩà¦ķ à¦¸
sh ot
Ġadm in
c le
Ġt ight
Ġd ped
Ġà¦ħ à¦¬à¦¨
à¦£ à¦¹
ĠP ass
Ġà¦ĸ à¦¸à¦°
à¦Ļ à¦ļ
ci al
à¦¦à¦ķ à¦¦
irt s
Ġà¦¬ à¦¶
ri d
am ster
Ġà¦ī à¦Ĺ
à¦Ĩ à¦°à¦Ł
ret ty
Ġdiffe rent
t es
v ideos
ĠC our
Ġà¦ī à¦ĩà¦²
Ġà¦² à¦Ń
à¦°à¦ķ à¦°
ĠâĢ Į
bl ack
Ġencourage ment
à¦¶ à¦ľ
ir s
ĠS um
Ġà¦ī à¦·
ĠE ar
Ġà¦« à¦°à¦¹
ĠFl ower
H amster
Ġb i
ĠD ig
ĠN ic
Ġà¦ľà¦¨ à¦¸à¦®
od es
à¦¤à¦° à¦¨
Ġà¦ıà¦¨ à¦ľ
8 5
h um
t imes
w ood
ĠT aking
à¦¹ à¦Ń
ĠS k
art a
ĠU s
Ġle zz
Ġà§¬ à§§
Ġà¦ıà¦¸ à¦Ĩà¦ĩ
Ġà¦¤à¦ĸà¦¨ à¦ĩ
ĠAd o
p an
Ġn ur
ĠC H
ĠF ace
Ġx Hamster
Ġ0 0
à¦¬ à¦¹à¦°
ĠT hi
Ġà¦¹ à¦ĩà¦¯
Ġà¦¹ à¦Łà¦²
ĠG ra
Ġà¦ĸ à¦¤
ink y
à¦¿à¦Ĥ -
à§¯ à§Ń
Ġà§ª à§¦à§¦
à¦ıà¦¨ à¦ıà¦¸
à¦ıà¦¸ à¦ĩ
Ġà¦¨à¦¬ à¦ľ
Ġà¦¬ à¦¸à¦¨
Ġà¦¨ à¦°à¦®
ĠS ed
ĠD W
ust y
Ġj ay
Ġsecond s
uc ation
Ġgang bang
5 4
à¦Ĺ à¦ĩ
ab y
Ġà§¨à§¦à§¦ à§§
Ġimag es
Ġà¦· à¦·
à¦® à¦ªà¦°
à¦ľ à¦īà¦¦
ĠH ouse
ĠL ight
Ġà¦« à¦¨
Ġà¦« à¦¤
Ġà¦ıà¦ķ à¦¦à¦²
out look
Ġj izz
à¦ĺ à¦ķ
ĠSha m
Ġà§¬ à§¬
ĠRe qu
à¦ħ à¦¬à¦¶
Ġà¦ĺà¦Ł à¦²
Ġà§¦à§§à§Ń à§©à§¦
à§®à§® à§¬
Ġwhore s
h ow
à¦¾ __
Ġ- --
Ġà¦Ĩà¦ľ à¦®
az z
Ġâ ľ
Ġà§¦à§§à§® à§§à§¯
or o
Ġc u
ĠA im
ĠM am
Ġst ates
à¦£ à¦ª
à§Ĥ à¦ģ
Ġsm oke
à¦ħ à¦§
Ġpen et
âĢį âĢį
Ġkitche n
Ġwe eks
ac ulate
Ġtw ink
Ġà§® à§¯
à¦°à¦ªà¦° à¦ĵ
A n
b re
in ter
à¦¼ à¦¿à¦Ĥ
it ter
à§ĭ âĢ¦
à¦Ĺ à¦ªà¦¤
à¦¡ à¦ĵà¦¯
Ġà¦ħ à¦¹
ĠM ond
ue l
à§« à§¨à§Ń
ab s
ĠNot e
à¦ıà¦¸ à¦ıà¦¸
ĠTag s
S E
g ger
Ġà¦ķ à¦¦à¦°
ĠS ister
ad d
à§© à§§à§¦à§¦
à¦¶à¦¨ à¦ķ
à§«à§¦ à§©
ĠTut or
ĠEar th
ĠMond ay
g ent
y r
Ġc od
ĠT or
hi c
Ġà¦ĸ à¦²
ic le
ĠIn c
Ġà§¯ à§®
Ġstra pon
Ġcop y
4 1
c orner
m ark
v ille
Ġb ub
Ġà¦¬ à§İà¦¸à¦°
ĠA ug
à¦ĩ à¦®à¦¬
ĠM er
Ġwe bs
ĠP le
ĠF an
Ġà¦ī à¦¸
ist ed
à¦Ĩ à¦¸
à§¯ à§¬
ĠSt r
à¦ıà¦¸ à¦ª
Ġpost ed
Ġbrook s
Ġsed u
e z
à¦² à¦ľà¦¯
Ġp s
ĠA L
à¦¼à§ĩ ...
ĠF red
and a
à¦ŀ à¦°
ol ution
Ġshow ing
à§¨à§¦à§§à§ ©
Ġà¦Ĩà¦« à¦°
à¦°à¦« à¦ķ
à¦¿ __
Ġà¦ª à¦ª
ĠA ut
à¦ĩ à¦ĸ
ĠB ro
ĠL a
ĠF am
Ġbr oo
pp le
Ġà¦ıà¦ĩ à¦Ł
ĠDo ing
Ġà§¨à§¦à§¦ à§ª
Ġbub ble
ĠFred er
u x
Ġm am
ha w
is c
à¦Ł à¦Ľ
Ġg e
à¦ĩ à¦ļ
ut iful
ad ing
as hing
ĠD i
ĠE s
à¦ı à¦®à¦¬
ist s
âĢĻ âĢĻ
Ġà¦ıà¦ĩ à¦¸à¦¬
ac ent
à§¨à§¦à§§à§ ª
Ġta pe
ĠFri end
Ġver ified
Ġfinger ing
Ġinform ation
Ġpict ures
Ġcele br
M EN
m od
Ġt ab
or g
Ġp ump
ĠH u
ĠM ir
ĠL earn
ĠR oy
ak y
pp ers
ĠJ ew
à§® à§ª
ĠSh ort
Ġà§¦à§© à§§
e ction
m us
n z
Ġl a
Ġth igh
ot hed
à¦¶ à¦¸à¦¹
ut or
ĠH ung
ĠC hange
ĠM E
her s
Ġso l
ĠD ra
Ġà¦Ł à¦Ļ
Ġbr ut
Ġwor king
ĠNot ice
ud es
ier ced
Ġhol es
à§¨à§¦à§¦ à§¯
ĠQu it
uc ing
' '
H ow
b out
Ġc oc
Ġà¦¬ à¦¸à¦²
Ġn ation
st it
ĠB are
à¦§ à¦ķà¦¤
ĠM aid
ĠL O
ĠR ain
han k
ĠV ar
à¦°à¦£ à¦ķ
Ġho g
Ġà¦Ĩà¦¸ à¦ķ
Ġru bs
ĠLu cy
à¦Łà¦¸ à¦ħ
ĠTurn s
à§¬à§® à§§à§¨à§§à§ª
Ġà§¦à§§à§Ńà§§à§¨ à§®à§®à§¬
Ġà§¦à§§à§Ńà§§à§Ń à§¬à§®à§§à§¨à§§à§ª
Ġgorge ous
à§Ńà§¨à§¬ à§«à§¨à§Ń
Ġà§¦à§§à§Ńà§§à§¨à§®à§®à§¬ à§«à§¦à§©
l ate
he art
is he
Ġf el
ĠI ng
Ġc ats
Ġà¦¸ à¦ĩ
Ġl an
Ġha ck
ir y
Ġà¦¦ à¦°à¦¬
ĠC ount
ĠC oun
ĠF erd
ĠD ru
ĠN ort
ĠV is
od y
de x
à§İ à¦¸à¦¬
cc ess
Ġà§® à§ª
aster n
Ġchan nel
Ġenjoy ing
Ġluck y
perience d
boy s
Ġholid ay
ĠThi eves
u ct
w een
à¦¿ âĢĿ
Ġa ut
in ish
Ġb al
or ks
Ġf ours
it le
Ġd iff
Ġh ttps
at isf
om y
Ġà¦® à¦®
Ġe p
ĠF ore
Ġse xt
hi ps
ho d
Ġsh y
Ġj ug
ull ing
Ġru bb
ors hip
ĠBo ot
ĠAl b
pl us
Ġsur prise
Ġcitiz en
Ġstor ies
Ġune x
ĠGold en
ĠAlex ander
K inky
m or
m outh
à¦ķ à¦«
Ġto t
om ing
Ġin dex
à¦¹ à¦¦
im er
ĠS ure
ĠS afe
à¦ĸ à¦£
am our
ĠP ot
Ġli c
âĢ ĭ
ĠFor ce
à¦ı à¦¸à¦¬
ĠIn j
Ġstr angers
Ġal t
Ġart s
ĠAr g
Ġcast ing
oun cing
ĠSu ccess
Ġeng ine
ĠAc cept
ĠDiv ine
ĠXXX Kinky
ĠAL L
o ps
o logy
w est
w all
Ġt u
Ġs all
à¦¤ à¦¥
er al
Ġc ities
Ġc amp
Ġd ul
Ġp ins
Ġp olit
at al
st al
ĠW ear
Ġà¦¦ à¦°à¦ªà¦¤
ĠS pl
ĠS ugg
Ġe astern
ri de
ĠP ast
ck ed
Ġà¦Ĺ à¦®
ĠD aughter
ter n
ĠK iss
Ġpr ank
lo pe
atch ing
à§® à§Ń
à¦¼à¦¿ à¥¤
Ġle ather
Ġsm ack
Ġapp le
ild ing
ĠUn f
ount s
ĠNe g
ash ion
Ġfield s
Ġcr ot
Ġwatch ing
ĠCa pel
ĠHear t
act ive
br ary
ĠProf ess
ĠDro p
Ġcoc ke
ĠNort ham
S ir
c ad
e ce
o ise
p he
t age
w ind
Ġa vail
à¦¤ à¦ķà¦°
or able
Ġc el
Ġc lip
Ġo il
ot ed
Ġin vest
Ġha y
ĠS out
Ġà¦ľ à¦¸
ĠL aid
as sed
ĠF ast
ĠG oogle
Ġà¦Ĺ à¦ľ
Ġcon n
il ities
ul s
ig ate
Ġshe et
un ction
ound ing
Ġcont ain
Ġà¦Ĩà¦¨ à¦¬
Ġsc ri
Ġà¦Ĩà¦ľ à¦ĩ
ug ging
read ing
ud ing
Ġgl ance
ĠWas h
ĠLook s
be li
pl ain
Ġà¦ĺà¦Ł à¦¤
Ġgar ter
aris m
Ġvict or
à¦°à¦« à¦°à¦®
UR E
ĠAd rian
Ġhur ry
Ġpub lish
ĠItal ian
there a
por ate
Ġhy p
' ve
C or
H ER
W hen
c reat
f ast
m aker
p oint
p hin
Ġt alks
Ġs ci
à¦¬ à¦Ĺ
Ġb ull
Ġf ay
Ġc ri
à¦¸ à¦¯
Ġd awn
Ġn ut
Ġl ave
Ġp ies
ĠT aste
ĠT IT
ĠA llow
se ed
ĠW ood
Ġin ches
im y
ĠS ea
ĠS orry
ĠH our
Ġre li
Ġst y
oo sing
Ġe ats
ri p
ĠL ascivious
am ps
Ġk er
ome o
ro ying
Ġse ct
ra ve
à¦ĵ à¦ª
ĠD one
th read
Ġv ar
Ġv ideos
Ġà¦¸à¦® à¦¤
ĠV iews
em ents
art ing
one ly
Ġshe er
fe red
all ey
ĠAs k
Ġset ting
reat ion
Ġr at
Ġ2 00
ag on
à¦°à¦¸ à¦¬
ouse d
Ġfe els
Ġbeg s
Ġpe ep
com b
ĠDes ire
Ġsub mit
ĠEng age
dom in
Ġord ers
Ġpost ure
Ġpay ment
ĠKeep s
Ġdest roying
Ġins ide
Ġwalk ing
Ġfuck s
ĠPer form
Ġed ucation
Ġbot tle
Ġmag n
Ġdri ve
Ġinv ite
Ġtail s
ĠSit ting
ĠRo bert
Ġdefect s
ĠHu gh
ĠLO V
7 7
R em
T han
b ler
c row
e ing
f low
g oose
h ors
i pher
l ant
m end
o at
p ile
p ray
r oth
r ons
v iol
he arts
Ġs out
in ary
Ġw i
it ary
ĠI ron
Ġc ull
Ġd au
Ġd ump
Ġp ang
ar ling
ĠT ick
Ġà¦Ĩ à¦ķà¦¤
an ed
Ġg un
et ry
ĠW ish
ĠW ords
ce ll
Ġha l
Ġha mmer
ay n
ĠS ith
ĠB een
Ġme as
ĠH oo
ĠC ertain
Ġst if
ad ition
ent ation
ur re
ur ies
ur ious
ri ff
Ġit ch
ĠO ly
ĠP retty
ĠF ine
ĠG ave
ĠG onz
id ity
ĠR ise
Ġse ed
us hed
Ġli brary
ĠD ull
ĠD eny
if s
if ies
if icial
ĠE ns
ĠE mb
iz es
th ree
Ġdo ff
Ġwill ow
Ġà¦ªà¦° à¦¸
Ġne phe
and on
ĠK ill
ĠK ings
ĠK illing
qu er
li ct
ant ing
Ġbl oss
Ġgo bl
au cas
Ġor ange
Ġpro c
Ġsp ies
Ġho ll
de ath
Ġen viron
ap ert
ĠWe igh
Ġri ce
ave l
Ġey ed
rown s
utt on
Ġtw in
Ġcont end
Ġcont ains
path y
Ġcou ch
Ġany thing
Ġstand ards
Ġsc and
Ġsc ale
Ġsc ared
Ġra v
ang le
sw eet
Ġrep len
ĠPro cure
Ġsle eves
pi an
ĠDes ires
ĠDes erves
Ġacc ent
Ġco x
Ġco in
Ġcount s
Ġfunction s
Ġlaw y
Ġgl it
ĠRe ward
ĠRe ceive
Ġmeet s
Ġkill s
Ġless ons
Ġch in
Ġsun set
ĠHer bert
Ġvo id
Ġeven ing
Ġcare er
Ġblow ing
Ġclo s
ĠLook ing
Ġcar bon
Ġà¦ıà¦¤ à¦Ł
Ġsin cer
ours es
Ġfly ing
Ġord ered
Ġtouch ing
Ġfit ness
Ġnob ody
be at
Ġmin im
ĠDe ad
lic al
Ġprom ot
Ġ! !!
Ġbab ies
Ġtrou bles
Ġdread ed
à§®à§® à§¦à§§à§Ń
Ġopp ort
Ġprin cip
Ġunw ise
Ġencoun ters
Ġref er
Ġteach ing
Ġlaugh ing
amp les
Ġroot ed
vell ing
Ġes p
she ll
Ġdelight ful
Ġpin ched
Ġpi pe
Ġswallow ed
Ġconduct ed
ĠJack s
Ġmill ion
Ġfig ured
ĠLau gh
Ġpot ent
Ġfact or
ĠGr im
ĠGree k
Ġnice ly
ĠEm peror
Ġgam b
Ġchamp ions
Ġyester day
ĠCy therea
idd ler
Ġvi per
ĠPres ent
bri dge
Ġansw ers
Ġrelig ion
ĠSad dle
ĠBar b
Ġiv y
Ġcollect ed
ĠBret on
Ġbi as
ĠFreder ick
ĠCoun sel
ĠVis it
orks hire
Ġlic ence
ĠSugg est
Ġhyp oc
Ġvar iable
Than ks
Ġsout hern
ĠCertain ly
Ġnephe w
Ġsincer ity
Ġprincip al
A las
B less
C ome
C itiz
C ourage
C harge
F aith
H ave
H old
H EY
R omeo
S ic
T rue
V er
W hoop
Y ea
b ling
b ishop
c ass
c old
c ote
d ish
d ges
d oubt
d hak
f es
f ond
f ied
f ellows
g ess
g entle
g ments
h ings
h onour
l ars
l uous
m uch
m ock
m acy
m asters
m pathy
n ant
n ity
n ock
o ever
p light
p ointed
p olit
r ine
r oop
r imony
s im
s orrow
s ilver
t ong
t ide
u ance
u ities
u iced
v ial
v oc
v ors
w ould
w hy
w orn
z es
Ġ ess
Ġ ounce
Ġt esty
Ġt ush
Ġt arget
Ġt ires
Ġt ilth
Ġt ables
Ġt aming
Ġt haw
he res
he athe
he asant
Ġa ed
Ġa us
Ġa che
Ġs ce
Ġs ainted
Ġs ip
ĠĠ Ċ
ou ched
ou rest
in est
in and
in ence
Ġm oth
Ġm ol
Ġm alm
Ġm uddy
Ġm utton
Ġw ive
Ġw ool
Ġw ield
Ġw aded
re th
re gs
re cy
re gia
Ġb out
Ġb ower
Ġb ough
Ġb its
Ġb led
Ġb ars
Ġb aked
Ġb orough
Ġb unch
or ged
or porate
er ness
er cies
er bear
is ans
Ġf ert
Ġf url
Ġf ade
Ġf ined
Ġf ume
Ġf aded
Ġf ishes
Ġf uel
it ied
it ution
it eful
ll ed
Ġc oy
Ġc able
Ġc ured
Ġc akes
Ġc ures
Ġc ape
Ġc ipher
Ġd art
Ġd ive
Ġd all
Ġd ub
Ġd ough
Ġd ates
Ġd irt
Ġd aunt
Ġd ally
Ġd aff
Ġd urance
Ġd arts
Ġd umps
Ġd regs
en ious
es nes
Ġn im
Ġn uts
Ġl ear
Ġl ure
Ġl ime
Ġl atter
Ġl ump
Ġl ances
Ġl ouring
Ġl ackey
Ġl itter
Ġp ly
Ġp ru
Ġp ea
Ġp out
Ġp ond
Ġp ence
Ġp ile
Ġp onder
Ġp light
Ġp elting
Ġp hra
Ġp ensive
Ġp heasant
Ġth imble
ĠT ears
ĠT read
ĠT emper
Ġh ound
Ġh ides
Ġh oop
Ġh unts
Ġh ugg
Ġto re
Ġto es
Ġto kens
hat ing
st ain
st ones
st aring
ot ent
ve x
ve ls
Ġhe wn
Ġhe ated
Ġhe arers
Ġhe aved
om inable
an or
an ied
an ched
Ġg as
Ġg ore
Ġg est
Ġg ale
Ġg ird
Ġg av
Ġg azed
Ġg asp
Ġg illy
Ġg hast
à¦ľ à¦Ļ
ĠW ot
ĠW ind
ĠW ise
ĠW orth
ĠW rench
ĠW ipe
Ġbe ck
Ġbe de
Ġbe ards
Ġbe headed
Ġbe mo
ce ase
ce iving
Ġin her
Ġin forced
Ġin ex
Ġin hum
Ġha gg
Ġha unts
à¦· à¦Ń
ld st
ch ion
ĠS pare
ĠB ER
ĠB less
ĠB rief
ĠB ayn
ith met
Ġme ek
Ġnot able
Ġnot hings
ĠH ann
ĠH acket
ĠC ARD
ĠC ret
ĠC uts
ĠC ulling
ĠC rowns
Ġre ins
Ġre ek
Ġre duce
Ġre voke
ĠM ort
ĠM atter
ĠM ortal
Ġst ake
Ġst ings
Ġst ation
Ġst ew
Ġst air
Ġst ains
Ġst aves
Ġst ony
Ġst icks
Ġst umbling
Ġst alls
Ġst amps
Ġfor k
Ġfor ged
Ġfor ges
Ġfor feits
Ġfor fend
ur ally
oo ing
ke eping
Ġwith holds
Ġwe an
Ġwe alt
Ġe lected
ill ius
ill ars
ri us
her ds
Ġas ks
Ġas under
Ġas semble
ĠO urse
ĠL ed
ĠL ament
Ġde em
Ġde ity
Ġde ign
Ġde put
as ury
ĠP ed
ĠP ra
ĠP ity
Ġhis s
ĠG ro
ĠG rief
id eth
id els
ĠR age
ro ses
ĠThe e
Ġse w
Ġse mb
Ġse eds
Ġse ats
Ġse als
Ġse lves
us est
us pect
Ġli ver
Ġso ps
Ġso ever
Ġso othing
Ġso othe
ra ction
ra ins
ĠD ry
ĠD uring
pe er
ĠN ea
Ġsha ped
Ġcon v
Ġcon venient
hi ly
ĠY orkshire
ĠE cho
ĠE thi
ĠE leven
ge nders
th ou
Ġdo ers
Ġno st
Ġno dd
Ġno isome
il ess
il iments
ath s
Ġà¦ĩ à¦¦
Ġne cks
Ġall y
Ġall ied
Ġma w
Ġma im
Ġma kest
ĠTh rew
Ġv ail
Ġv aunt
Ġv ouchsafe
Ġv ouches
Ġv izard
Ġv itae
Ġv alley
ĠK ates
Ġlo gs
Ġlo sing
Ġlo lling
Ġlo gger
ĠV ile
ĠV AU
ort ive
qu es
qu ent
qu ire
ell ist
Ġfa ster
ig s
ig en
ig ree
Ġcom for
ho lesome
Ġkn ack
Ġkn ots
em ns
em aker
li est
Ġlet har
Ġlet ting
urn ed
urn ish
Ġsh in
Ġsh ining
Ġar rog
Ġar raign
Ġar ithmet
Ġpr one
Ġpr oro
Ġat one
Ġman ors
Ġbl ench
Ġbl ushes
Ġbl ank
Ġbl anks
one ous
ĠWhat ever
Ġam ple
Ġam pl
Ġshe ath
Ġshe lves
Ġshe arers
ea f
Ġret ail
ĠFor s
ĠFor ward
ĠFor sw
ĠFor ced
Ġj ar
Ġj ars
Ġj aunt
Ġj ades
ĠHe ld
Ġus est
Ġus ual
Ġhat es
Ġthere on
Ġthere withal
Ġcan on
Ġcan cell
are ll
are well
ven er
ven ged
fe w
fe iting
Ġsw an
Ġsw ept
Ġsw arm
Ġlove th
Ġlove lier
Ġhere of
Ġhere tic
Ġbr ood
Ġbr ats
Ġor b
Ġor ison
Ġor ators
Ġor atory
all ible
pt on
ic at
ic eth
Ġqu ond
Ġqu aff
od ils
Ġun ho
Ġun res
Ġun able
Ġun fort
Ġun king
Ġun gr
Ġun set
Ġun par
Ġun govern
Ġun advised
Ġun people
Ġun quiet
lo ving
lo sed
ĠAs cend
Ġpro ves
Ġpro pose
Ġpro lix
Ġpro long
Ġpro bation
Ġpro voke
Ġhand led
Ġhand ker
KE LEY
ol ate
ol ation
ol erable
Ġset ter
Ġdef iance
Ġdef aced
Ġsp right
Ġsp ray
Ġsp awn
Ġsp arks
Ġsp acious
Ġsp rung
Ġgra ver
Ġgra ins
Ġgra vity
Ġho ard
Ġho ping
Ġaw aking
Ġaw aken
Ġaw aked
Ġimp ute
Ġimp iety
de liver
Ġsa ves
Ġsa ving
Ġmad men
Ġpl ough
Ġpl ots
Ġpl ume
Ġpl agues
Ġres cued
ab ond
ab outs
Ġpo ets
Ġpo etry
Ġen su
Ġen genders
Ġr ar
Ġr ite
Ġr ang
Ġr ange
Ġr ounds
Ġr ayed
Ġr hyme
Ġout side
Ġfri vol
Ġhow ling
ap h
Ġup holds
ĠWe eping
Ġwho ever
ign ation
ĠIn cl
ĠIn iquity
ĠIn quire
Ġri ot
Ġri ft
Ġri der
Ġri bs
Ġri cher
Ġmar ches
Ġoff icious
Ġdis b
Ġdis li
Ġdis fig
Ġdis pose
Ġcl out
Ġcl oth
Ġcl ime
Ġcl ang
Ġcl utch
Ġcl usters
ub bering
ĠOf t
ber ate
ber ries
Ġhear ken
Ġhear kens
ac re
Ġex iled
Ġex amples
Ġab ound
Ġab ides
Ġab andon
Ġab ominable
Ġab ortive
Ġblood s
Ġfo em
Ġfo ison
Ġear ls
Ġro e
Ġro be
Ġro ots
Ġro ared
ĠHow e
ens ible
ag ion
ag ued
ag abond
Ġdes iring
Ġdes erving
Ġdes peration
Ġdes cried
Ġgentle women
Ġart ificial
Ġcomm une
ĠBe hind
ĠBe gg
ĠMar quis
Ġwar p
Ġhonour ably
Ġbet ake
ĠWhere by
Ġtw os
Ġtw igs
Ġcont agion
Ġhast ily
ĠWho ever
ict ment
Ġcou ched
Ġbre ech
Ġbre eder
Ġmen ace
Ġaf ire
Ġaf resh
ree ch
Ġpart isans
Ġsl ower
Ġsl ug
Ġsl umber
Ġsl avish
Ġad ds
Ġad mon
etch y
ST OP
Ġpre cept
Ġpre cip
Ġpre nz
Ġpre domin
Ġstand ers
ĠSt abb
Ġpray ing
Ġpray ed
Ġsweet ing
Ġper ch
Ġper fid
Ġper ceives
uck le
Ġtr ample
str ate
ĠThere in
ĠThere on
ĠThere of
Ġle ash
Ġhead long
Ġmean est
Ġpres ag
Ġpres ervation
Ġpres cription
Ġimport s
Ġimport ance
Ġimport uned
ĠAn ointed
ĠSe em
Ġsc arr
Ġsc athe
Ġsc urvy
ont ed
aint ies
ĠLet ters
ces ter
Ġra pt
Ġra ged
Ġra gs
Ġra ising
Ġra zed
Ġrem nant
Ġfe ign
Ġfe igned
Ġright eous
Ġfl ing
Ġfl out
Ġfl ap
Ġfl ung
ang led
Ġgrace ful
Ġgrace less
Ġunt r
Ġunt aught
Ġunt ainted
Ġunt hank
Ġeyes ight
ps a
per ly
land ers
ĠShe d
ĠShe riff
sw oln
Ġrep ro
Ġrep roach
Ġrep rehend
INA L
Ġbeg n
Ġchild hood
Ġwom bs
Ġve in
Ġcons ents
Ġrest ing
Ġrest less
Ġru ng
Ġru ff
Ġhar p
Ġsum s
Ġent ail
erc y
erc harged
os sed
Ġgr in
Ġgr ateful
Ġbetter s
ĠPro vided
ĠPro portion
Ġtri be
Ġtri dent
Ġtri vial
Ġbest ir
Ġbest rew
che st
che ss
che ts
Ġsle eve
Ġcha os
Ġcha pel
ĠDes erved
ĠDes erve
Ġacc ents
Ġacc users
Ġacc ustom
ĠSha ke
Ġgri pe
Ġcomp et
Ġend less
Ġkind le
Ġkind est
Ġgu ile
Ġgu ide
Ġgu ides
Ġtwo fold
Ġco g
Ġco il
Ġco ven
Ġco vet
Ġpri g
Ġpur g
Ġpur ity
Ġpur bl
Ġwit less
Ġwit ty
me ant
Ġfun eral
Ġsm ear
Ġsm ock
led ged
Ġsession s
Ġfind ing
St ay
cl oth
Ġtra ck
Ġtra ined
Ġtra vel
Ġhigh ly
Ġhusband ry
Ġimpl ore
Ġbra ke
Ġbra ving
Ġban ns
tw enty
ĠDo gs
right ed
Ġche at
Ġche ques
Ġconf ine
Ġconf essed
Ġconf ounds
Ġconf ident
Ġconf lict
Ġchar ter
rer s
aster y
Ġlaw less
Ġserv itor
Ġmist a
Ġevery thing
Ġopen ly
ĠRe ason
ĠRe bell
Ġdou bly
RI STOP
Ġpass ages
Ġpass ado
sha ped
Ġlight ed
Ġlight ens
Ġnat ivity
Ġbes eeming
Ġthr ongs
co ff
Ġjust ices
Ġjust ified
Ġdev out
Ġdev ised
Ġdev oted
Ġunder stood
Ġpardon ing
Ġlast s
Ġlast ly
Ġstate ly
Ġmis led
Ġmis deed
Ġmis be
Ġmis chie
Ġmis adventure
Ġmis doubt
Ġkill ing
Ġap es
Ġap ish
Ġap ology
ild ly
Ġless en
Ġfollow ed
Ġanswer ing
Ġtre asures
Ġtre asury
Ġch url
Ġch oosing
Ġpat rimony
Ġfar mer
Ġfool ery
Ġhither ward
Ġinter r
Ġinter ior
Ġinter pretation
Ġhelp ed
ĠAl most
Ġà§§à§¨ à§¦
Ġunc rown
Ġunc onstant
Ġbri ck
Ġbri ers
Ġbri dle
Ġthrow s
Ġcourt ship
Ġste e
Ġste er
Ġste alth
rant s
Ġstri ving
Ġstri kes
Ġstri fes
ĠUn fold
alt ies
Ġworth less
Ġhum ours
Ġhum orous
Ġass ay
Ġover ta
Ġover board
Ġinst inct
Ġinst igation
ĠHer self
Ġthank ings
Ġsound ing
av ius
Ġplay ers
Ġplay fellow
Ġprove th
Ġcur b
Ġcur ds
Ġcur sing
Ġcur rish
Ġcur few
Ġbo at
Ġbo il
Ġbo atswain
Ġdeli cious
Ġdeli vers
Ġdeli berate
Ġcare fully
Ġbeli e
Ġmerc iless
Ġdoubt s
Ġwant ons
ere th
pect ing
Ġreven ues
Ġtruth s
Ġhang men
ok est
ĠRes ign
ĠRes olved
ĠRes olve
ĠCom pare
Ġsec recy
Ġnumber ing
Ġadv antag
Ġfree ze
val ued
Ġproud ly
Ġbea ver
Ġchan ts
Ġstra ins
ĠPOMP HEY
Ġclo y
Ġclo ven
Ġclo ister
Ġcra cks
Ġmer its
Ġmer ited
Ġappe ach
Ġden ies
Ġden ier
Ġhorse man
Ġsupp oses
Ġdru gs
Ġdru dge
Ġcar ver
Ġcar ved
Ġcar ters
Ġcar riage
Ġcar cass
by a
Ġmon astery
Ġwin ning
Ġperson ally
Ġspo iled
ĠHast e
Ġuncle an
Ġmet tle
Ġmet hod
Ġsin ful
Ġsad d
Ġgener ation
Ġgener ally
Ġthrough out
Ġpurpose d
ĠLi bya
Ġcho ked
Ġdep osing
ĠJuliet ta
Ġpluck ing
Ġag ue
Ġloss es
Ġcry stal
Ġtrust ed
Ġentreat s
ĠCon venient
ĠCon ceiving
Ġfound ation
Ġvis its
Ġdisp ute
Ġbold er
Ġang le
Ġnear ness
Ġremember ing
Ġtit he
ixt ure
Ġwear isome
Ġinf idels
Ġinf allible
ĠSee ing
Ġfast s
Ġwoo er
Ġfit ly
Ġgrant s
ĠPr onounce
Ġpost ern
Ġpar ks
Ġpar ley
Ġpar allel
Ġpar agon
Ġfur red
Ġfur ious
Ġfur the
Ġquar ters
be it
be ard
be ards
Ġread iest
AS URE
Ġspeed s
Ġdist ance
Ġdist aff
Ġdist illed
Ġdist raught
Ġdist raction
ĠBec ame
ĠGlouces tershire
Ġfore most
Ġfore go
Ġfore warn
pare d
Ġbehold ers
Ġjud ged
Ġmock s
Ġmock ed
Ġdam ask
Ġinc aged
Ġinc orporate
Ġbound s
Ġbound less
Ġhonest ly
ĠDe uc
ĠDe liver
Ġten or
Ġwhi pping
Ġrun n
Ġrun ning
Ġrun agate
Ġguilt iness
Ġattend ance
Ġattend ants
Ġharm ful
Ġtrib es
Ġcor al
Ġcor pse
Ġcor mor
Ġsing ing
Ġsing led
Ġstrength s
Ġdisc ern
Ġdisc ourses
Ġact ed
Ġlad der
Ġaff able
Ġaff iance
Ġbrave ly
Ġstir r
ĠCh ide
Ġbit terest
Ġext ir
Ġext ol
Ġext emp
Ġsign ified
Ġlead ing
Ġgar ish
Ġgar ment
Ġsk ies
Ġsk ull
Ġsk ins
Ġpie ced
ĠUnt imely
Ġprom ises
peak able
Ġweak er
Ġjest s
Ġplain ness
Ġrich ly
ĠPo ison
Ġblack er
Ġac re
Ġreg ent
Ġev idence
Ġven uto
Ġforget fulness
Ġwed lock
Ġrec reation
Ġmove able
Ġwis er
Ġsur feits
Ġsur plus
Ġsur cease
Ġdangerous ly
Ġbattle ments
Ġprot ection
ĠAb ate
vo kes
Ġenc amp
Ġpay ing
Ġgro ats
Ġclose t
Ġfoll ower
Ġquarrel s
Ġpriv ily
Ġund es
Ġdro ve
Ġviol ation
Ġviol ets
Ġvict ors
Ġmal ady
Ġmal content
Ġmal apert
Ġred oubted
Ġsigh ing
Ġthri ves
Ġthri ving
ĠPre fix
Ġpen alty
Ġexc used
Ġexc uses
Ġble ared
Ġcompl ots
Ġcompl iment
Ġmortal s
Ġmortal ity
Ġflatter y
Ġdeny ing
Ġbro il
Ġbro ach
Ġdra in
Ġjo g
Ġjo lly
Ġappear ing
Ġusur ps
Ġdishon est
Ġdishon ours
Ġcross es
Ġcross ing
Ġbar ber
Ġbar ne
Ġlim ed
Ġopp ose
Ġopp ress
Ġappro ve
Ġcoward s
Ġkingdom s
Ġlament ed
sp ring
Ġlab ours
Ġgall ed
Ġgall ows
Ġgall ops
sh ine
ĠThink est
Ġpit ies
Ġforward ness
ĠEx ceed
ĠEx amine
Ġdest ined
Ġprov ince
Ġprov ision
Ġins atiate
Ġins urre
Ġins ensible
Ġben e
Ġunw ieldy
Ġunw holesome
Ġunw onted
Ġdepart ing
Ġdepart ed
ĠTw elve
Ġdu ellist
Ġfill ing
Ġbirth right
Ġform al
Ġform ally
Ġbase ly
Ġwrit es
Ġeas ier
ĠHold ing
Ġperform ed
Ġfavour ites
Ġproceed s
Ġwild erness
Ġcle ave
Ġshi pp
Ġshad es
ĠStay s
Ġmild er
Ġforsw ore
Ġquiet ly
Ġquiet ness
Ġdisg racious
Ġleisure ly
Ġmed d
Ġmed lar
Ġem m
Ġfam ed
Ġlist en
Ġhur ts
Ġcontin ency
Ġcontin uance
Ġhap less
Ġunk nit
Ġforbid s
ĠInt ends
ĠInt ended
Ġref resh
Ġref lect
Ġcru pper
Ġpet tic
Ġut ters
Ġsort ed
Ġproclaim ed
Ġhair s
pr oud
Ġbell s
Ġtent h
Ġrob bed
Ġrob bery
Ġbend ed
Ġconqu ered
Ġsuccess es
Ġsuccess ful
Ġfine ly
Ġdrown ed
Ġlow est
Ġdespair ing
Ġwisdom s
ĠEn forced
ĠDis pose
ĠDis miss
Ġpun k
Ġpun y
Ġpun ished
ip ly
ip odes
Ġstud ying
Ġcapt ives
Ġdance d
Ġmount ed
Ġmount ains
Ġplant ed
Ġmut ual
Ġmut ually
Ġcorn s
Ġmanner ly
Ġabro ach
Ġcontr ar
Ġstruck en
den ly
ĠSc orn
ĠSc urvy
ĠSc roop
Ġaccount ed
long eth
ĠVin cet
Ġcred ent
Ġcred ulous
Ġcruel ty
Ġgent leness
Ġguard s
ĠFl atter
ĠFl avius
Ġadd ers
Ġadd ition
Ġrid ges
Ġimag ined
Ġcustom ers
Ġcirc led
Ġpack ing
Ġpack thread
Ġexce ls
Ġpriest s
Ġwail ing
Ġdwell est
Ġease d
Ġenvy ing
Ġsubst antial
Ġfellows hip
Ġbenef actors
ĠSp ur
Ġprotect ors
Ġschool boys
ĠLe icester
Ġsport ful
Ġver ily
Ġver iest
Ġver dict
Ġacqu it
ĠBarn et
Ġdeal ings
Ġwre ak
Ġwre aths
Ġwag ging
Ġfirm ament
Ġconvey ance
Ġdull est
Ġbef ell
Ġincl ine
ĠHence forth
ĠHence forward
Ġformer ly
Ġarri ve
Ġcover ing
Ġcounten ances
Ġdouble d
Ġind ust
Ġind ignation
Ġind ictment
Ġran ks
Ġtread s
Ġgross ly
Ġstab les
Ġnecess aries
Ġarg ues
Ġarg ued
Ġarg uing
Ġundert aking
Ġlar gess
Ġshar per
oly cus
Ġknight s
Ġrock y
Ġdec reed
she et
Ġlangu ish
Ġeag les
Ġallow ing
Ġallow ed
ĠSic ils
ĠSic inius
Ġrude ly
Ġshr ill
Ġsail or
Ġcommend able
Ġassist ed
run ning
Ġcam bric
Ġstar ved
dy ed
Ġdet ain
ĠKnow ing
chan ging
Ġchief ly
Ġcre ep
Ġow l
Ġow ed
Ġow est
Ġamb ling
Ġdew s
Ġinfect ious
Ġuns k
Ġuns uspect
Ġuns peakable
Ġinstruct ed
Ġdisposition s
Ġexcell ence
que ath
Ġtrans form
Ġca user
Ġtort ures
Ġtort oise
Ġtop mast
ib al
Ġstore d
Ġdirect ed
Ġmat tock
Ġshut s
Ġchair s
Ġaccept ance
Ġequ ally
Ġspeci ally
Ġaffect s
Ġaffect ing
Ġmurderer s
Ġcens ures
Ġconj ur
Ġconj ured
Ġsway s
Ġunha pp
Ġunha llow
Ġrash ly
Ġrash ness
Ġdisd ains
Ġcontract ed
Ġpursu ing
Ġpursu ivant
Ġsolemn ly
Ġconquer ors
Ġcock le
Ġcock atri
Ġadm ire
Ġadm ired
Ġadm iring
Ġbot tled
par able
Ġcup bearer
Ġpure st
Ġfra ught
Ġfra ilty
Ġrel ent
Ġbud s
Ġspr ang
Ġwood cock
Ġgru dge
Ġcomb ine
Ġcomb ined
Ġfle ece
Ġunb ruised
Ġsqu ire
Ġsqu ared
Ġhunt ing
ĠAEd iles
Ġmend ed
Ġweigh ing
Ġdiss olute
Ġdiss olved
Ġdiss olve
Ġdiss entious
Ġdiss ension
Ġdiss olution
Ġexpect ed
Ġado pted
Ġcourage ous
Ġgroan ing
Ġcomplain ing
Ġhost ile
Ġtut ors
Ġtest ify
Ġtest imon
ĠLong er
Ġmill stones
Ġimm od
Ġimposs ib
Ġprofess es
Ġsav our
Ġsav ours
Ġincrease th
Ġoppos ers
Ġmeant ime
Ġrepe at
Ġshun s
Ġqual ified
Ġintell igen
Ġadvers ary
Ġpurcha sed
Ġearnest ness
ĠStri ve
ĠBen edic
ĠSupp osing
GH AN
Ġchat tering
Ġwa ist
Ġwa ft
Ġwa ving
Ġsham est
Ġsham ef
Ġsham eful
Ġfamous ly
Ġbuild s
Ġbuild eth
pul ous
Ġcharact ers
Ġrecord ed
Ġdig g
Ġrevol ted
Ġsouth ward
Ġwilling ness
Ġesc aped
Ġing ratitude
Ġing enious
Ġfal ter
Ġfal chion
Ġfurn ished
Ġparent age
Ġmelt ing
Ġrecom fort
Ġswell s
Ġbraw ls
ĠConspir ators
Ġgarland s
Ġforbear ance
Th ou
Th us
ĠTr oth
Ġhorn s
ĠIm mediate
more land
ĠWr ath
ĠWr ong
Ġagree ing
Ġer r
Ġcat erp
Ġsal ve
Ġsal utation
Ġmir acle
Ġmult it
Ġmult iply
Ġpot ency
ĠPri ck
ĠPri ami
Ġune asy
fall ing
ĠDraw s
ĠCons ort
Ġrece iving
Ġapt ly
Ġdim m
Ġprick ing
Ġdepend s
Ġdepend ing
Ġinqu ired
Ġrejo icing
Ġsting ing
Ġstout ness
Ġfors aken
Ġung racious
Ġprett ily
Ġwrink le
Ġwrink les
Ġrust y
Ġsmell s
Ġbrace let
Ġsecure ly
Ġcraft s
Ġpossession s
Ġshield s
Ġsubstit utes
ĠHo ver
ĠSoft ly
Ġsy mpathy
lu ity
maid s
gn able
bod ied
mong er
Ġvol umes
Ġextre mities
Ġwid ower
ĠVen us
Ġtail ors
Ġwest ward
Ġdecl ined
Ġdecl ines
Ġdecl ining
Ġunp itied
Ġbuck ler
Ġped igree
Ġbeget ting
ĠSomet imes
Ġsucceed ing
Ġsucceed ers
Ġfawn s
Ġshri eks
Ġunst ain
Ġunst anched
Ġgrat ify
Ġgrat ulate
Ġcurt ains
Ġcareless ly
Ġsuffici ency
Ġestim ate
Ġprophet ess
Ġneglect ing
Ġneglect ed
Ġconceal ment
ĠðŁ Ļ
Ġnet tles
Ġpage ant
Ġluck less
Ġdece iving
Ġrestra ined
Ġtou ches
Ġfix ed
Ġmoral ize
Ġtig ers
Ġdate less
Ġstraw berries
Ġarrest ed
Ġorn ament
Ġadmit s
Ġeter nity
Ġtro dden
Ġmour ner
Ġmethought s
Ġbait s
Ġbait ed
Ġheap s
Ġstomach s
Ġunfe lt
Ġworm wood
Ġmonarch y
Ġcram ps
Ġcovert ure
Ġrank le
Ġapprehend s
Ġafflict ed
Ġsacrif iced
Ġpant ing
ĠAdd ing
Ġgap es
ache th
Ġcop est
Ġaud ience
Ġaud ible
ĠName ly
Ġsed ition
Ġsed ges
Ġtrim m
foot ed
Ġfin est
Ġfin ish
Ġstream s
Ġspot less
Ġbol t
Ġbol ted
Ġdem i
Ġdem esnes
wing ed
Ġbru ising
Ġlect ures
ĠHon our
ĠFalse ly
Ġdivor ced
Ġprompt s
Ġtack le
Ġmould ed
Ġpill ow
Ġpalm ers
Ġgains ay
Ġissu ing
Ġsupre macy
Ġanch ors
Ġshru g
Ġgoss ip
Ġhoar se
Ġprefer ment
Ġfever ous
Ġconsp ire
ĠDesp ised
Ġcompound ed
Ġtravell er
Ġmisc arried
Ġobsequ ious
Ġattain der
Ġlearned ly
Ġparce ls
Ġcrook ed
Ġinsol ent
Ġslipp ery
Ġinterchange ably
Ġherald s
ĠWelsh man
ĠArch bishop
app arell
ĠRel ent
Ġlinger ing
Ġmas ks
Ġfeat ly
ĠBest ride
ĠWest moreland
ĠMo psa
ĠBel ow
Ġbrand s
ĠDel ay
Ġfan cies
ĠBold ly
Ġcrim son
Ġsteward ship
Ġir ks
erp ast
ĠAff liction
Ġdot ing
Ġdot ard
wear ied
ĠFell ows
Ġdoubl ets
avour y
Ġfount ain
Ġcush ions
Ġdug s
Ġthw ack
Ġgust s
Ġresemb les
Ġrevive d
Ġstag gers
Ġconc ern
Ġvial s
Ġprat est
Ġprat tle
Ġunlike ly
Ġcler k
Ġexceed s
Ġalar um
Ġalar ums
Ġperd ition
Ġeverlast ingly
Ġpeer less
ĠProsper o
ĠProsper ity
Ġbestri d
Ġbestri de
Ġaccomp anied
Ġconfeder ates
Ġpatron ess
Ġcrab bed
Ġembass age
Ġembass ies
Ġinsinu ating
Ġunwilling ness
Ġtempor al
Ġunluck y
Ġmagist rates
Ġmaidenhead s
Ġsuperf luous
Ġsuperf luity
Ġfulf il
Ġfulf illed
ĠRo ger
Ġfre quent
Ġmuff le
Ġmuff led
ĠSim ois
ĠHoll a
Ġfet ter
Ġexperience d
miss ive
ĠEnd ured
Ġexact ly
Ġvi and
Ġobser ve
Ġdomin ions
Ġholid ame
ĠJud as
Ġren ew
Ġren ounce
Ġdedic ate
Ġsugg ested
jud ged
Ġgaz ing
Ġcuckold s
Ġpenny worth
ĠSuff olk
Ġansw ered
ĠUns heathe
Ġridd le
Ġrival s
ĠNeighb our
ĠNeighb ours
ĠChristopher o
Ġrelig ious
Ġire ful
Ġtumble d
Ġaug ment
Ġsinew s
Ġbount iful
Ġbount eous
Ġdiet ed
Ġindu ced
Ġsequ el
Ġliqu or
Ġliqu id
Ġconge al
Ġconge aled
thw art
thw ack
Ġdoct ors
Ġdoct rine
Ġarbit rate
Ġamend ment
Ġunsw ay
Ġgraft ed
Ġimpart ial
Ġimpud ent
Ġens ign
Ġabst inence
Ġabod e
Ġcontri ve
Ġcontri ved
Ġperf ume
Ġperf umed
Ġtrades men
Ġscru ple
Ġappoint ment
Ġchest s
Ġinterrupt ed
Ġobst acles
Ġattent ive
Ġstrait ly
Ġprofan ation
weigh s
Ġcontrad ict
Ġcontrad iction
ĠFlore nt
ĠFlore nce
Ġindirect ly
Ġnegl igence
Ġnegl igent
Ġadmir al
Ġgreyh ound
Ġgreyh ounds
Ġsyll able
Ġsyll ables
Ġdisobed ience
Ġdisobed ient
ĠDou bly
ersha des
att ling
ĠWor cester
Ġna vy
ĠGram ercies
Ġgy ves
Ġinflu ences
Ġel bow
Ġclub s
Ġhab iliments
Ġmass acre
ĠDhak a
ĠStep hen
ĠSi geia
ĠEnviron ed
Ġutt ered
Ġbis son
Ġconver ts
Ġunivers al
dis p
Ġcy press
Ġcas que
Ġcav il
Ġstrip ling
Ġaust erity
ĠTend ering
ĠLad ies
Ġmot ive
ĠCot us
ĠNight ly
Ġgle an
ĠPit chers
ĠFur ther
Ġrip est
ĠBlood y
Ġwra pt
Ġcot tage
ĠPil ate
ĠAmazon ian
Ġeg gs
Ġnov ice
Ġmans ion
Ġimpre gnable
Ġpred ecess
ĠPlain ly
Ġestab lish
ĠGuild hall
Ġming le
Ġbale ful
erate ly
Ġced ar
Ġcert ainty
Ġlecher y
Ġpir ate
Ġpul ing
Ġpals ied
Ġthra ll
Ġthorough ly
Ġost entation
ĠTrem ble
Ġgild ed
Ġbeho ve
cels a
ĠSland er
ĠHap ly
Ġrevers ion
Ġrelease d
Ġrehear se
Ġstint ed
Ġew es
Ġkern els
Ġsevent een
Ġconvent ed
Ġcondu it
Ġconvers ation
Ġdol our
Ġsuret y
Ġbutche ries
Ġvest al
Ġherds men
Ġblasp hem
Ġwheres oe
Ġunpre pared
Ġunthrift y
Ġprog ress
Ġprover b
Ġplent eous
Ġresp ite
Ġencom pass
Ġenroll ed
Ġoutst ret
Ġstrang eness
Ġdisci pline
Ġexha les
Ġdesc ant
Ġcontem pl
Ġadul ter
ĠStir r
Ġpert inent
Ġpresum ption
Ġvehe ment
comfort able
ĠProdig ious
Ġendeav ours
Ġtraged y
Ġbragg art
Ġglister ing
Ġeyeb rows
ĠUnw orthy
ĠUnha ppy
Ġwelcom ed
Ġstreak s
Ġvillan ous
Ġgreed iness
Ġtemperate ly
Ġexecut ing
Ġparch ment
Ġquarre lling
Ġcrad le
Ġstirru p
Ġexpost ulate
Ġbarb arism
spo ken
Ġunwill ingly
Ġcounterpo ised
Ġwagon er
Ġambassad or
Ġtransg ression
Ġvanqu ish
Ġbasil isk
Ġgrumb ling
Ġdifferen ces
Ġunrevere nt
ĠCheer ly
Ġmasqu ers
ĠRedeem er
Ġclergy men
ĠErr oneous
Ġcannib als
Ġà§¯à§§à§©à§© à§¨à§¦
Ġribbon s
Ġtumult uous
ĠFRANCISC A
Ġsulphur ous
ĠWond rous
ĠSum mon
ĠNic anor
ĠUs ur
ĠCH RISTOP
ĠMam illius
Ġstates man
Ġcod piece
ĠAut olycus
Ġbroo ch
Ġge ese
Ġtab our
ĠMir anda
mus ic
ĠHung ary
ĠME ASURE
ĠDra wn
Ġbrut ish
ĠVar rius
ishe th
ĠFerd inand
Ġaut umn
Ġfours core
Ġep it
ĠBoot less
ĠAlb ion
ĠPot pan
ĠInj urious
ĠArg ier
Ġtu ft
Ġpolit ic
Ġcrot chets
Ġcocke rel
ĠNortham pton
ĠSout ham
Cor iolanus
creat ure
ĠTIT US
Ġker sey
ĠLOV EL
Rem ember
ĠGonz alo
Ġscand alous
Ġlawy ers
Ġglit tering
Ġpromot ions
ĠBarb ary
Citiz ens
Ver ily
polit an
sim ple
tong ued
Ġaed iles
Ġaus picious
Ġsce pter
Ġmalm sey
Ġfurl ongs
Ġdaff odils
Ġnim bly
Ġponder ous
Ġphra se
Ġhunts men
Ġgas ping
Ġgav est
Ġgilly vors
Ġghast ly
Ġinex orable
Ġinhum an
Ġhagg ard
ĠBER KELEY
ĠBayn ard
ĠHann ibal
ĠCARD INAL
ĠMort imer
Ġwealt hily
ĠOurse lves
Ġsemb lance
ĠNea politan
ĠVAU GHAN
Ġcomfor ter
Ġlethar gy
Ġarrog ance
Ġarithmet ic
ĠForsw ear
Ġorison s
Ġquond am
Ġunfort unate
Ġungr ateful
Ġunset tled
Ġunpar allel
Ġhandker chief
Ġensu ing
Ġfrivol ous
Ġadmon ition
Ġprecip itation
Ġprenz ie
Ġpredomin ant
Ġunthank fulness
Ġpurbl ind
Ġmischie fs
Ġfurthe st
ĠDeuc alion
Ġcormor ant
Ġaffiance d
Ġextemp ore
Ġpettic oat
ĠVincet ino
Ġunsuspect ed
Ġcockatri ce
ĠBenedic ite
Ġcaterp illars
Ġpredecess ors
ĠCHRISTOP HER
à¦ª à¦¶à¦¨
Ġà¦ħ à¦®à¦°
Ġà¦ī à¦¬
ub er
à¦¯ à¦¶
Ġà¦¨ à¦°à¦ĵà¦¯
Ġà¦ī à¦ĩ
à¦°à¦® à¦¶
à¦ĩà¦² à¦¨
Ġà¦¬à¦° à¦«
ĠSh ows
Ġà¦ıà¦¨ à¦¡
Ġmom s
à§ĩ âĢĶ
Ġà¦ļ à¦²à¦¨
à¦īà¦ª à¦ľ
à¦¯ à¦ķà¦²
à¦¤ à¦°à¦ķ
à§¬ à§©
Ġà§® à§§
pl ay
atri x
à¦¾ ..
à¦° à¦ŀ
à¦¸ à¦¦à¦¸
Ġà¦Ł à¦ª
à¦Ĩ à¦°à¦¬
à¦¼à§Ģ à¥¤
Ġà¦Ĩà¦¦ à¦®
Ġà¦¯à¦¤ à¦Ł
à¦¸à¦Ł à¦²
e ge
Ù Ĳ
Ġd p
Ġà¦¹ à¦ĵ
Ġà¦¦ à¦Ĺ
Ġà¦° à¦«à¦¤
ru ary
Ġà¦ıà¦ķ à¦¸à¦®à¦¯
Ġà¦ıà¦®à¦¨ à¦ĩ
eb ruary
Ġà¦¨à¦ľ à¦°à¦¦
à§ĭ '
à¦· à¦ĩ
Ġà§¯ à§©
Ġà§¨à§¦ à§¨à§§
Ġà¦² à¦°
ho se
Ġà§® à§¨
Ġà¦ħà¦ª à¦ª
Ġà§Ń à§©
Ġà§¯ à§¬
à§§à§¨ à§¦à§Ń
Ġà§§à§© à§Ń
Ġtit ty
à§¦à§© à§§
à¦®à¦¸à¦® à¦°
Ġà¦¶ à¦¶
li ck
Ġà§¬ à§¦à§¦
Ġà¦Ĩà¦ĩ à¦Ń
Ġà¦ľà¦¨à¦Ĺà¦£ à¦ķ
Ġà¦¹à¦ľ à¦°à¦¤
Ġsext ape
à¦¬ à¦ªà¦¨
Ġà¦Ĩ à¦¹à¦²
Ġà¦¹ à¦ľà¦®
Ġà¦ľ à¦ĸà¦®
Ġbut ts
Ġfa ci
Ġà¦¸à¦¹ à¦ķà¦°
à¦ıà¦¨ à¦ıà¦¨
à¦¶à¦ķ à¦¦
Ġdomin atrix
à¦® à¦ĩ
Ġà¦¬ à¦ĩà¦®
à§Ģ (
Ġ: -
à¦¿à¦Ĥ à¥¤
Ġà¦ĩà¦¨ à¦ļ
Ġà¦ªà¦¥ à¦ļ
à¦¨ à¦ľà¦¨à¦ķ
ĠT imes
ers hamed
à¦īà¦ľ à¦Ł
Ġà¦ĺà¦Ł à¦Ľ
ershamed ia
4 3
8 8
Ġà¦ª à¦¹
ĠO me
à¦ĵ à¦Ń
à§Ń à§«
à§¨à§¦à§§à§ ¦
Ġà¦Ĺà¦£ à¦¶
Ġà§§à§§à§ ¦
ĠOme gle
à¦¯ à¦¸à¦¹
Ġà¦¬ à¦®
Ġà¦ľ à¦Ĺ
à¦¼à¥¤ âĢĻ
Ġà¦®à¦¹ à¦¡
Ġà¦ĩà¦¨ à¦ľ
Ġà¦¶à¦¤ à¦Ń
à§§à§§à§ ¦
f ucking
Ġ z
Ġà¦¬ à¦ľà¦²
Ġh uge
Ġà¦ħ à¦ļ
Ġà¦¤ à§İà¦ķ
à¦²à¦ķ à¦¦
Ġsoft core
Ġà¦ªà¦Ł à¦Ń
Ġà¦ħà¦¬à¦¨ à¦¤
Ġf il
Ġà¦ĩ à¦ĩà¦ī
à¦ł à¦®
Ġà¦Ľ à¦ķ
Ġà¦īà¦ª à¦®à¦¹
à§® à§ªà§©à§¨à§©
à¦ķ à¦²à¦ķ
à¦¼ /
om s
Ġ3 6
Ġà¦Ĺà¦£ à¦¨
5 1
v ie
â Ĩ
à¦ķ à¦¸à¦¹
à¦ľ à¦ªà¦¥
à¦ļ à¦ľà¦¨
à¦¥ à¦Ń
à¦Ĩ à¦²à¦®
Ġà¦ĩà¦¨ à¦¬à¦ķ
news bd
Ġà¦ª à¦²à¦ķ
an ny
Ġà¦® à¦°à¦¹
Ġun sha
à§¯ à§®
Ġà¦§à¦° à¦²
à§§à§¨ à§§à§¬
Ġà¦ķà¦¤ à¦¦
Ġà¦ıà¦¡ à¦Ń
T uber
à¦¨ à¦ħà¦¨à¦²
à§Ģ '
Ġà¦Ł à¦°
Ġà¦ľà¦¨ à¦¶à¦ķ
à¦Ĩ à¦ĩà¦ľ
Ġlat ina
N ews
W S
Ļ ¦
à¦ľ à¦ķà¦°
à¦¼à§ĩ !
à¦°à¦¤ à¦²
Ġà§¦ à§§à§«
à§ĩ? âĢĿ
Ġcoll ege
ĠðŁĻ Ĥ
6 6
Ġ ]
à¦¨ à¦°à¦¤
Ġà¦¬ à¦¬
Ġà¦ıà¦ķà¦¨ à¦ľà¦°
à¦ķ à¦¹
Ġà¦¬ à¦°à¦£
à¦ª à¦ľ
à§Ģ à¦ĥ
ĠS ar
ĠM ed
Ġà¦Ĩà¦² à¦¬
Ġà¦ķà¦® à¦¬
ĠÂ £
à¦°à¦ļ à¦°
à¦°à¦¹à¦£ à¦®
i um
ĠA j
Ġv ideo
à¦ī à¦ĩà¦ķ
à¦Ĩ à¦¶
Ġà§¨à§¦à§¦ à§¨
gr ound
Ġà¦Ĩà¦īà¦Ł à¦¸
t ie
ï »¿
à¦® à¦ĵ
or m
Ġà¦ķ à¦ĩ
à¦§ à¦¦
ĠP ay
Ġà¦ĵ à¦¹
Ġà¦ĵ à¦¡
à¦°à¦¸ à¦®
à¦Ĺà¦¤ à¦Ń
ï¿½ ...
5 3
ĠG ay
ĠD ec
Ġà¦ĩ à¦¤à¦°
Ġà¦ķà¦®à¦¨ à¦ĵà¦¯
ĠDr Tuber
A tom
ĠR am
Ġà¦ĵ à¦°à¦«
à§® à§§
à§İ à¦ªà¦°
à¦ıà¦¸ à¦¡
ĠÂ «
Ġbutt fuck
ra b
ru l
Ġà¦ħà¦¨ à¦¬
Ġà§Ń à§¬
à§®à§® à§¦à§¨à§¯
ĠRight s
ĠDou ble
e xt
à¦Ł à¦¹
à¦ł à¦¤
à§Ń à§¨
Ġà¦Ĩà¦¨ à¦¹
Ġà¦ħà¦° à¦«
Ġà¦ĺà¦Ł à¦¬
Ġà¦Īà¦¦ à¦Ĺ
Ġà¦ķ à¦Ļ
à¥¤ "
Ġà¦¶ à¦¤à¦ķ
ĠG al
Ġà¦ıà¦ķ à¦¯
à§ª à§§à§«
Ġà¦Ĩà¦¸ à¦®
Ġà§® à§¬
à¦ıà¦® à¦ĩà¦ī
Ġà§¦à§§à§Ń à§¯à§ª
Ġà¦ķà¦ĸà¦¨ à¦ĩ
Ġjer king
à¦° à¦«à¦¤
Ġ Z
Ġà¦ı à¦¨à¦¬
Ġà¦° à¦¤à¦¨
à¦ı à¦¡
Ġà¦Ĩà¦° à¦®
Ġà¦ķà¦® à¦²à¦Ĺà¦ŀ
Ġà¦¸à¦° à¦²
Ġà¦¦à¦¶ à¦Ł
ĠPri vate
à¦ķ à¦§
Ġh ug
Ġà¦ļ à¦¶à¦®
à¦¬à¦° à¦ĩ
à§ĩ? âĢĻ
à§¨à§¦ à§ª
Ġcocks ucking
at ure
Ġà¦® à¦Ĺà¦¬
à¦Ĺ à¦«
à¦§ à¦ķà¦°
Ġà¦° à¦ĵ
Ġà¦ļ à¦¬
à§ĥ .
Ġ3 1
à¦²à¦¤ à¦²
Ġà¦ıà¦² à¦ľ
Ø§ ÙĦ
M o
à¦° à¦ªà¦ķ
à¦¨ à¦ķà¦°
Ġà¦¯à¦¤ à¦ĩ
à§§à§§à§ §à§
Ġcele b
N A
à¦§ à¦¶à¦¤
ĠD a
Ġà§Ń à§ª
Ġà¦Ŀ à¦Ĺà¦¡
Ġâ ĺħ
à¦¸à¦Ń à¦¬à¦¨
6 9
an ews
Ġg agging
à¦· à¦¬
ĠIs lam
à¦īà¦ľ à¦¡
à¦ıà¦¸à¦ıà¦® à¦ıà¦®à¦ĩà¦ī
p ussy
Ġà¦ķ à¦¹
al i
à¦ĵ à¦Ĩà¦ĩà¦¸
à¦¾à¦ģ à¥¤
Ġà§¦ à§§à§¬
Ġà¦ħà¦¬ à¦Ĺà¦¤
à¦¯à¦® à¦¯
à¦¸à¦¨ à¦ķ
Ġà¦ķà¦¨ à¦¡à¦®
Ġà§§à§¯à§¯ à§¬
ĠHD porn
ĠAug ust
Ù Ĵ
à¦ Ĭ
à¦ĩ à¦īà¦¨
ĠC lips
à¦« à¦ķ
Ġà§Ń à§¯
Ġà¦Ĩà¦ĩà¦¨ à¦¸
Ġà¦ıà¦¸ à¦ª
à§¨à§« à§§à§¦
Ġà§®à§® à§Ń
à¦ıà¦ĩ à¦ļà¦Ł
rib une
fo x
Ġà¦Ĩ à¦·
à§Ń à§©
à¦Ŀ à¦ĸ
à§ĭà¥¤ âĢĻ
h t
à¦® à¦ĸ
à¦· à¦Ĺ
ĠS uck
Ġà¦ķà¦° à¦¨
ĠC ate
Ġà¦¶ à¦ĵ
Ġà¦² à¦¸
Ġà¦² à¦Ł
à¦ı à¦®à¦¨
à¦ŀ à¦¦
à¦°à¦® à¦§
à¦°à¦¬ à¦£
Ġà§¦à§§à§Ń à§©
Ġà¦ªà¦°à¦ªà¦° à¦ĩ
' ,
à¦¼à¦¾ !
Ġà¦ī à¦®à¦°
Ġà¦ĩ à¦¸à¦®
Ġà¦ªà¦° à¦¦
Ġà¦ĸ à¦£
à¦ĩà¦¨ à¦¸
à¦Łà¦ķ à¦¯
à§§à§§à§ ¯
Ġà¦ķà¦¬à¦° à¦¸
à¦ ĭ
on i
à¦ıà¦¨ à¦¸
Ġà¦ĸà¦¬à¦° à¦Ł
Ġ201 2
201 5
à¦² à¦ĵ
Ġc ream
Ġà¦ª à¦Ļ
ĠG iving
Ġà¦Ĺ à¦¯
ĠV ideo
-- -
Ġor g
à¦¬à¦¸ à¦Ł
à§¯ à§¦
à¦ĺ à¦Ł
Ġà¦Ĳ à¦¶
Ġà¦¸à¦« à¦²à¦Ń
Ġà¦ĭ à¦¤
Ġà§¦à§§à§® à§ªà§§à§«
Ġà§¦à§§à§®à§ªà§§à§« à§¨à§§à§«
p ri
à§ĩ (
Ġy o
ĠA M
Ġà¦¨ à¦®à¦¨
Ġà¦¤ à¦²à¦¬
Ġv oy
Ġà¦¡ à¦¯
à¦ı à¦¤
à¦Ĩ à¦«
à¦Ĩ à¦ĵà¦¯
à¦īà¦ľ à¦²
ĠIm age
ĠC ha
à¦°à¦ķ à¦¦
ire fox
à¦Ĩ à¦§
Ġà¦ĩà¦¨ à¦Ń
Ġà§©à§¦ à§¨
à§§à§§à§ «
à¦¤ à¦Ľ
à¦¤ à¦ĵ
st ar
à¦ľ à¦¹
ĠP H
od e
à¦Ĩ à¦ĩà¦Ł
à¦¯à¦® à¦ķ
Ġà¦Ŀ à¦²à¦ķ
Ġà¦¶à¦¤ à¦ķà¦°
à¦ĩà¦ľ à¦¡
à§§à§ª à§©
Ġà¦¯à¦¤ à¦¦
ĠCur rent
o v
Ġ Ø§ÙĦ
Ġà¦Ĩ à¦Łà¦Ł
ĠS ho
Ġà¦¶ à¦¸
à§Į -
à¦Ĩ à¦¬à¦¶
Ġà¦Ĩà¦¨ à¦Ľ
Ġ0 17
Ġà§® à§§à§®
Ġà¦ĩà¦īà¦ıà¦¨ à¦ĵ
w ord
à¦ĩ à¦¥à¦¨
à¦§ à¦²
ĠM as
Ġ( -
à¦ıà¦¨ à¦ı
Ġfirst time
ĠðŁ ĺ
ĠSub s
M L
Ġà¦ķ à¦ĵà¦®
ĠL ab
Ġà¦ĩ à¦¬à¦¤
pon s
Ġà¦®à¦¤ à¦ĩ
6 8
o lf
s om
Ġà¦¬ à¦£
ow job
Ġà¦ľà¦¨ à¦Ĺà¦¨
un n
à¦Ĩ à¦ĩà¦¯
à¦¦à¦¨ à¦¶
Ġà§Ń à§¦à§¦
6 7
9 0
A Q
à¦¯ à¦Ĺà¦£
à¦¼ "
à§ģ ?
Ġà¦¸ à¦°à¦¬
à¦Ł à¦ĸ
à¦¶ à¦ķà¦°
à¦§ à¦°à¦¨
Ġà¦ĵ à¦¨
à§¬ à§§à§¨
Ġà§¨à§¦à§¦ à§©
19 71
Mo vies
F lix
m ale
t it
Ġà¦ħ à¦£
à¦¥ à¦¦
ĠF irefox
Ġà¦ķà¦® à¦¤
à§Ń à§¬
Ġà¦¸à¦¬ à¦¶
ĠSt ra
Ġà§§à§¨ à§®
201 4
Ġbust y
à¦¯à¦Łà¦ķ à¦¦
C l
b oobs
Ġà¦ĩ à¦®à¦¨
Ġà¦« à¦²à¦¨
ĠâĢ İ
à¦Łà¦¨ à¦®
Ġà¦ħà¦ª à¦Ł
Ġ? ?
Ġà§¦à§§à§Ń à§«
bl owjob
re port
à§ģ .
à¦¶ à¦ĵ
à¦§ à¦¹à¦¯
à¦¼à¦¾ ...
ĠV ip
Ġtw inks
à¦¦à¦° à¦Ĺà¦ŀ
Ġcr ime
à§¨à§¦à§¦ à§®
à¦Ĺà¦ł à¦¨à¦Ł
ĠBea uty
y a
Ù ħ
à§ĩ à¦Ĥ
à¦¨ à¦ĵà¦¯
it ra
à¦¸ à¦ķà¦²
à¦¦ à¦¹
à¦Ł à¦ľ
à§Ĥ -
Ġà¦Ĩà¦² à¦¤
à§¯ à§ªà§«
à¦ıà¦ĩà¦ļ à¦¡
g ra
Ġc z
à¥¤ [
à¦¡ à¦Ĺ
à¦ĸ à¦Ł
à¦¬à¦¨ à¦¬
à¦Ĩ à¦ļ
à¦²à¦ķ à¦ķ
Ġà§¯ à§Ń
ĠRe g
à§İà¦¸ à¦ķà¦°
Ġà¦ıà¦ĩà¦ļ à¦Ł
Ġblind fold
Ġca ption
Ġà§§à§§à§ ¬
gu y
ĠVip Tube
u zz
à¦¿ "
à¦ķ à¦®à¦¤
er k
ĠT rick
ĠW in
Ġà¦¨ à¦²
à¦°à¦¤ à¦°
Ġà¦ıà¦ĩ à¦ĸ
Ġà¦ħà¦ª à¦Ľà¦¨
à¦ĩà¦¸ à¦Ļ
run et
Ġpant y
à¦ķ à¦¸à¦Ń
ĠI ce
à§Ģ __
ot Porn
à¦¶ à¦¤à¦®
ir lf
ĠH T
ĠL y
Ġà¦ıà¦ĩ à¦¬
Ġold guy
b azar
à¦ł à¦¶
âĢ¦ ..
à¦ĩà¦ķ à¦Ĺ
à§İà¦¸ à¦ķà¦¦
Ġà¦ľà¦® à¦ľà¦®
Ġà¦ıà¦¡ à¦®
Ġrid es
âĢĶ âĢĶ
à¦¬à¦ľà¦¨ à¦¦
Ġkam rul
Ġlezz y
irlf ri
r am
Ġà¦ķ à¦¸à¦®
ĠA uthor
om b
à¦ľ à¦ĵà¦¯
à¦§ à¦¸à¦®
ic ro
Ġà¦Ĩà¦« à¦ľ
Ġ6 9
Ġcz ech
à¦¸ à¦ªà¦¨
ĠT NA
à¦· à¦¦à¦°
ĠB ang
ĠM ilf
Ġà¦° à¦ĵà¦¨
à¦Ń à¦°à¦¶
Ġà¦ĩ à¦ķà¦®
ec hat
Ġà§¯ à§¨
à¦¼à§Ĥ ,
B D
Ġt eens
à¦¯ à¦¬à¦°
à¦ķ à¦¸à¦¨
ĠA rab
Ġà¦ħ à¦ļà¦²
ĠC ustom
Ġsu cks
Ġà§ª à§ªà§ª
Ġà¦ħà¦ª à¦¹
ĠAl otPorn
à¦®à¦ķ à¦°à¦£
Ġà¦¬à¦ķ à¦¶
à¦°à¦ľà¦¨ à¦¨
à§¬à§¯ à§¨à§ª
ĠSuck s
ĠTNA Flix
Ġà¦¸ à¦°à¦£
Ġà¦Ĩ à¦ĩà¦ķ
Ġà¦¦ à¦ĩ
à¦¼à§ĩ -
Ġà¦¤ à¦ĵà¦¬
ĠR an
Ġà¦Ń à¦²
à§ĩà¥¤ ...
Ġshe ershamedia
à¦ı à¦ĸ
à§® à§¦à§§à§¯
à¦ĺ à¦®
Ġà¦Łà¦ķ à¦Łà¦ķ
à§®à§®à§¦à§¨à§¯ à§§à§ªà§©
ĠIce Porn
à§®à§®à§¦à§¨à§¯à§§à§ªà§© à§©à§®
b a
c a
p art
ĠT empt
at idin
à§Ģ .
ot o
Ġas ian
ĠV irg
ound ed
Ġà¦ķà¦® à¦Ľ
Ġà¦ļà¦² à¦²
NE WS
à§¨à§¨ à§¬à§¯à§¨à§ª
à§¨à§® à§«à§¨
âĢ¦âĢ¦ âĢ¦âĢ¦
Ġwebs ite
à§®à§¦à§§à§¯ à§®à§«
à§¨à§®à§«à§¨ à§¨à§¦à§ª
, ...
G o
M ay
à¦¯ à¦ļ
à¦ķ à¦¨à¦Ł
Ġà¦¬ à¦¹à¦°
ĠB u
à¦¼à¦¾ Â®
Ġà¦¯ à¦¤à¦ķ
à¦¬à¦¨ à¦Ĺà¦°
Ġsp an
Ġà§§à§¨ à§§à§¨
Ġà§¦à§§à§Ń à§§à§©
Ġvirg ins
Ġà§§à§¯à§Ń à§©
Ġà¦¸à¦¨à¦¦ à¦ªà¦¤
à¦¼à¦¾Â® ,
B G
Ġ Ã
à¦¾ [
Ġa li
Ġme g
Ġà¦° à¦ľà¦¨
à§ĩà¥¤ "
Ġpr on
Ġshe male
Ġtr anny
Ġà¦¸à¦¹ à¦ª
ĠCh ina
ip ed
ĠInd ian
Ġà¦ıà¦« à¦¬
à¦ķ à¦ł
à§ģ à¦Ĥ
à¦¸ à¦Ľ
à¦Ĺ à¦°à¦£
Ġà¦ı à¦®à¦¸
Ġà¦ı à¦®à¦¦
Ġà¦ıà¦ĩ à¦Ń
Ġà¦¸à¦° à¦¦
à§§à§¯ à§§à§¯
Ġà¦Ĩà¦« à¦¸
à¦Ĩà¦ĩ à¦ıà¦¸
Ġà¦ħà¦² à¦°
Ġà§§à§¯à§¯ à§Ń
Ġï ĥ
i i
à¦¾ à§į
à¦¬ à¦°à¦¤
à¦® à¦«
Ġf ucking
à¦Ł à¦¸à¦¹
ĠC ho
Ġà¦¶ à¦ĸ
ĠP en
Ġà¦Ĺ à¦¤à¦¬
âĢ ¢
à§ĥ à¦Ĥ
à¦Łà¦ķ à¦®à¦ķ
Ġà¦Ŀ à¦°à¦¨
Â °
à¦¼ '
à§ģ à§ģ
ur a
Ġ' '
Ġà¦ªà¦° à¦²
à¦ıà¦® à¦ıà¦²
à¦Ĩà¦° à¦¡
Ġà§¦à§§à§Ńà§« à§¨à§§
Ù ı
à¦¤ à¦¹
ha s
Ġb runet
Ġn ude
Ġà¦Ĩ à¦¬à¦°
à¦°à¦¬ à¦¤
à¦°à¦ĸ à¦¬à¦°
Ġsn atch
ĠCour t
Ġcollege girl
Ġt ub
à¦¯ à¦®à¦¤
or ter
à§ģ )
ĠC ar
ĠP ink
à¦°à¦¤ à¦®
un ity
eng ali
Ġà¦Ĩà¦Ĺ à¦¤
Ġà§® à§¦à§¦
à§§à§¨ à§¨à§¯
Ġà¦®à¦ľ à¦¬
ĠBl ue
à¦¯à¦¥ à¦Ń
à§©à§¯ à§§à§¯à§§à§¯
ĠGu y
ĠDep art
Ġmilf s
Ġà¦ĩà¦¨à¦« à¦°à¦®
Ġïĥ ĺ
I n
b angladesh
i que
p ot
t ail
Ġ vers
à¦¬ à¦ķà¦°
ĠS chool
ĠC r
ĠC at
Ġst upid
ent er
oo ed
ver t
à¦¼à¥¤ âĢĿ
Ġra cks
Ġà§Ń à§®
Ġà§¦à§§à§Ń à§§à§§
Ġsuck ing
Ġà§§à§¯à§Ń à§¨
ĠPe ople
Ġlesb ian
Ġtight pussy
Ġà¦¶à¦ĵ à¦ķà¦¤
o ft
t on
t im
à§ĩ )à¥¤
Ġà¦ķ à¦¸
ĠT ri
à¦Ĺ à¦Ńà¦¬à¦¨
ĠG ot
Ġà¦¡ à¦Łà¦ķà¦®à¦ķ
à¦Ĩ à¦īà¦¯
à§§à§¨ à§©à§¦
à§ĩâĢĻ à¥¤
ĠLo ves
ĠBre aking
Ġanal fuck
à¦ĭ à¦£
ĠCourt ney
C h
l ished
à¦¸ à¦ĵ
à¦Ĺ à¦ĵ
Ġà¦¹ à¦ľà¦¯
ĠC lo
ĠC BG
il ian
Ġà¦Ĩà¦° à¦Ł
à¦ľà¦¨ à¦¦
à¦°à¦Ĺ à¦£
Ġà§§à§© à§¦
à¦¾âĢĻ à¥¤
we bs
itt ag
Ġdild os
____ ____
ĠCBG R
7 8
: )
g i
Ġt ube
Ġà¦¬ à¦°à¦ķ
ĠA v
à¦Ĺ à¦°à¦®
à¦¹ à¦ª
ĠB bw
à¦ł à¦¦
Ġà¦Ľ à¦¨
Ġor ient
Ġown ing
à¦Łà¦ķ à¦Ł
lic ation
Ġà§§à§¯à§¯ à§¯
ittag ong
X videos
m i
t ube
à¦¿ ),
à¦ķ à¦ľà¦¨à¦ķ
à¦² à¦Ŀ
ĠW A
Ġà¦ı à¦¨à¦ķ
Ġà¦° à¦ļ
à¦ĸ à¦ķà¦¦
ĠD ark
Ġdo ll
Ġ: )
ang bad
Ġà¦ªà¦¦ à¦Ł
Ġà¦ªà¦¦ à¦ļ
ener al
Ġbig Xvideos
à§®à§® à§¯
Ġà¦ıà¦« à¦Ł
Ġà¦ľà¦Ĺ à§İ
b al
g on
v is
à¦® à¦¸à¦¹
à§ĭ )
Ġà¦ľ à¦¬à¦¸
ĠC har
lo p
Ġà¦§ à¦°à¦¬
Ġà¦®à¦¨ à¦ľ
ĠDo ctor
Ġà¦Ĩà¦¶ à¦ª
ĠCom mon
Ġà¦¸à¦« à¦°à¦ķ
à¦ıà¦« à¦ıà¦¨
ĠMo vie
Ġà¦ıà¦ıà¦« à¦ª
c um
à§ĩ /
à¦¦ à¦®à¦¤
Ġà¦¨ à¦ĸ
à¥¤ (
ĠS har
ĠH ol
à¦¬à¦¨ à¦Ł
yn n
ag s
à§¨à§¦à§§à§ ¯
Ġà¦īà¦ªà¦ķ à¦¥
ĠRec o
' -
= =
b ub
d in
o li
Ġt an
à¦¬ à¦°à¦ķ
Ġà¦ķ à¦ķà¦Ł
Ġn i
Ġn ic
Ġh i
à¦ª à¦®à¦¨
Ġà¦¨ à¦Ł
à¦Ľ à¦Ł
Ġà¦ľ à¦²à¦ª
à¦ļ à¦ª
ĠP ower
à¦ĵ à¦ķ
à¦ĵ à¦Ĺ
Ġà¦ī à¦¸à¦ķ
if ic
um a
à¦¤à¦° à¦ª
Ġà§§à§¨ à§«
Ġà§§à§¨ à§¦à§Ń
Ġà¦ıà¦®à¦¨ à¦Ń
Ġà¦¬à¦¹ à¦¨à¦ķ
Ġà¦Ĩà¦ļà¦°à¦£ à¦¬
Ġthrees omes
Ġgy m
Ġbrunet tes
f ield
p hy
à¦¯ à¦§
à¦ķ à¦ĵ
à¦¸ à¦ľ
à¦¦ à¦īà¦²
Ġà¦® à¦¤à¦¨
ĠM iss
ĠL usty
ĠK hobor
-- >
à§© à§Ńà§§
ĠMar y
à§¯ à§¨
à¦¨à¦¸ à¦¨
Ġcar b
ĠPr atidin
Ġà§¦à§§à§Ń à§§à§¬
Ġà§§à§¯à§¯ à§«
Ġà§§à§¯à§¯ à§®
Ġà¦īà§İà¦¸ à¦°
Ġinflu ence
d own
f ire
s am
t alk
Ġt ips
à¦¨ à¦Ĺà¦£
ha h
er o
Ġà¦¬ à¦ķà¦°
à¦Ł à¦Ĩà¦ª
ĠA ud
ch ing
ĠC reat
ĠG erman
ĠD ar
ĠV o
Ġà¦ĸ à¦°
Ġà¦ľà¦¨ à¦®à¦¤
ic y
Ġex hi
à¦Ŀ à¦°
Ġà§¯ à§ª
Ġass fuck
à¦¨à¦¦ à¦£
Ġà¦Ĩà¦ĩ à¦°
Ġgall ery
Ġà§§à§§à§ Ń
Ġà§¦à§§à§¯ à§Ńà§Ń
des k
H ome
b ile
r s
he ll
à¦² à¦ªà¦¤
à¦Ł à¦®à¦¸
ĠB on
ĠH ab
Ġst yle
à¦Ń à¦²
ĠF ilth
ear ch
Ġà¦ľà¦¨ à¦ªà¦¦
AN G
à§Ń à§ª
à¦ĺ à¦²
Ġà¦ħà¦Ń à¦¯
ĠCom p
Ġà¦Ĺà¦£ à¦ľ
à¦¯à¦ª à¦¦
Ġed itor
ah u
P l
s k
à¦¬ à¦ªà¦°
or a
Ġf lo
ĠT ab
an ese
et ta
ĠW ork
Ġre e
à¦ļ à¦¸
ĠD ri
ist ory
ĠSt ar
ĠSt arr
Ġà§§à§¦ à§§
à¦ķà¦Ł à¦ª
co x
ues day
à¦²à¦Ĺ à¦Ł
Ġà§§à§¬ à§ª
ĠOff er
Ġà¦¬à¦ĩ à¦Ĺ
gr am
ek ly
à§¨à§¦à§¦ à§Ń
ĠHT ML
ĠClo se
à¦ıà¦«à¦ıà¦¨ à¦ıà¦®
P ri
S c
f m
n ay
n ew
à¦¾ +
à§ĩ âĢĵ
à¦¿ ]
à¦¿ ..
à¦ķ à¦Ľà¦¡
Ġà¦Ĩ à¦ĩà¦²
an i
à¦ĩ à¦īà¦Ł
if er
Ġà¦« à¦°à¦ľ
ell y
Ġà¦ľà¦¨ à¦¸à¦ļ
de v
age ment
ĠSt uff
Ġà¦®à¦¹ à¦¸
ĠGo es
Ġà¦ĩà¦¨ à¦¡
ĠUn re
Ġà§¨à§¦ à§¨à§¦
Ġà¦Ĺà¦£ à¦«
Ġbig boobs
Ġjug s
Ġfil m
' :
F all
b ar
b aby
u le
à¦¤ à¦ªà¦ķ
à¦² à¦ªà¦¥
nd ra
à¦ľ à¦ĩ
Ġà¦ı à¦°à¦®à¦§
Ġà¦¹ à¦°à¦®
ĠS outh
ĠB as
ĠM i
ĠM ass
ĠL ife
ĠF oot
ĠF ebruary
ess a
à¦Ļ à¦²
un k
à§® à§¨
à¦ķà¦° à¦¨
Ġcou ples
Ġsl utt
Ġà¦ħà¦ª à¦°à¦ķ
ark hobor
Ġ5 0
face book
Ġà¦¤à¦° à¦«
Ġdam es
!! !!
ĠRep ort
ĠBus iness
ĠAdd ress
36 5
ĠDhak ar
dhak arkhobor
ĠGay Fall
8 0
b ra
b ird
h ub
l a
à¦¨ à¦ĸ
à¦¬ à¦ĵ
or ing
à¦¸ à¦¸à¦¹
Ġp ink
à¦Ł à¦ĵ
ĠT ap
à¦ľ à¦ĵ
Ġbe ach
ed y
ĠS n
ĠS ign
ĠH y
ĠC ity
Ġsha ft
hi gh
il ab
ers on
à¦ı à¦¶
ub st
à¦²à¦ķ à¦Ń
à¦ªà¦ķ à¦Ń
ĠRe al
Ġà¦ħà¦¸ à§İ
Ġà¦ħà¦ªà¦° à¦¦
Ġà¦¤à¦ĸà¦¨ à¦ĵ
ĠSp an
Ġboot y
à§ªà§« à§¨à§®
à§§à§§à§ ¬
Ġà§§à§¯à§¯ à§§
ĠPorn er
Ġamaz ing
ĠPub lic
Ġnur ses
ĠSed u
8 9
D F
M ore
P r
S oft
T K
b et
q ilab
Ġ `
Ġ et
à¦ķ à¦¬à¦°
à¦¼ )à¥¤
Ġà¦¸ à¦ĵà¦¯
Ġto day
ĠA ur
ĠB our
ĠM ad
à¦¥ à¦ķà¦°
à¦£ à¦®à¦¨
à¦ĸ à¦Ĺà¦¤
ĠP i
ĠF OR
ĠG en
ĠG ol
ĠN i
ĠV ol
Ġà¦Ł à¦°à¦¨
à¦Ĩ à¦°à¦ĵ
ĠSt art
à¦ªà¦ķ à¦¥à¦¨
Ġ2018 0
Ġjo ins
Ġà§§à§¯à§¯ à§ª
Ġmeg asite
ĠVo ice
M S
M ar
d am
f r
y ed
z y
à¦ķ à¦¤à¦°
re g
er ies
Ġà¦¸ à¦ĸ
Ġn ip
ĠT uesday
ĠA ng
à¦¹ à¦¤à¦°
ĠS earch
ĠB in
ĠB urn
Ġà¦ħ à¦¸à¦¨
ur rent
à¦ļ à¦°à¦£
Ġà¦° à¦ŀ
am ond
ĠP ress
ĠF a
Ġso p
ĠD ot
ĠD as
ver tis
à¦ł à¦ª
Ġà¦Ľ à¦¤
el a
à¦īà¦¨ à¦¸
ĠAn na
Ġà¦®à¦¤ à¦²à¦¬
à¦¨à¦¸ à¦Ń
à¦ıà¦¸ à¦Ł
Ġà¦ł à¦ķ
ĠSh ot
ĠNe eds
az ing
à¦ıà¦® à¦ĩ
à§¦à§Ń à§¯à§ªà§«
ĠTit an
Ġjourn al
Ġdestroy ed
ĠTr im
ĠConf irm
Ġtrim med
Ġfeat ure
à§Ńà§¯ à§ªà§«à§¨à§®
Ġà§¦à§§à§Ńà§©à§¦ à§Ńà§¯à§ªà§«à§¨à§®
à§¦à§Ńà§¯à§ªà§« à§¨à§Ń
B o
a pping
g am
t ri
u it
Ġ Ø
Ġt ag
à¦¯ à¦ĸ
à¦® à¦ļà¦¨
Ġf ist
it ty
à§ģ âĢ¦
à¥¤ âĢ¦
ĠS pe
à¦Ľ à¦ª
Ġme mber
ĠM oney
ĠO b
as hed
Ġà¦Ĺ à¦¦
ĠE y
Ġv ip
à¦« à¦²à¦¨
à¦Ļ à¦¨
ak al
ond y
ĠJ une
Ġho se
Ġ3 5
ĠCom pl
Ġâ Ŀ
Ġà§§à§© à§¬
Ġà¦¸à¦¤ à¦¤
Ġsk irts
ĠBl ows
ĠAd vertis
ĠLo ad
Ġdi amond
Ġte am
ĠTrick bd
ĠBu y
7 9
D o
D ear
b ro
f inger
v id
y m
à¦¾ âĢĶ
à¦¸ à¦ķà¦¦
Ġd ir
Ġà¦¬ à¦§
Ġà¦ª à¦ľ
à¦Ł à¦°à¦¯
ing ed
à¦Ľ à¦ķ
ĠB lo
ĠB ears
ĠC op
ĠM other
à¦ļ à¦ĩ
à¦¥ à¦¸
ĠP hys
ĠP ierce
ĠF av
Ġso les
ĠN umber
ĠE ating
Ġà¦ıà¦ķ à¦¶
em on
ĠâĢ ĭ
um m
-- --
ab ility
à¦¼à¦¿ -
ĠMar ia
ĠLet s
à¦°à¦¨ à¦¦
pi res
Ġport al
Ġà§§à§® à§¦
ĠAd mit
ĠFri ends
porn o
ĠBea utiful
Ġà§®à§®à§Ń à§¦à§§à§¯
Ġni pple
N ow
R ed
c hange
m other
m ic
r ated
t rick
Ġb ath
er ver
Ġf ont
à¦¸ à¦ªà¦¤
Ġà¦ķ à¦¤à¦ķ
ĠT ent
st ock
ĠA ction
ot y
Ġà¦Ĩ à¦ł
ow ing
ĠW ake
ĠW alk
ĠB ent
Ġà¦ħ à¦ľà¦¯
ĠH us
ĠF i
ĠF ix
Ġà¦ī à¦ĩà¦®
ĠK ne
ĠV ict
à§ĩà¥¤ à¥¤
um bl
à¦°à¦£ à¦Ł
ĠJ ose
Ġà¦ıà¦ĩ à¦®
Ġà¦ıà¦ĩ à¦¡
ĠU nd
ĠU se
Ġri ding
ub s
Ġpre m
à¦ıà¦¨ à¦¬
Ġà§§à§¨ à§¦à§®
ran n
Ġà¦ıà¦® à¦ı
ix ed
Ġfill ed
Ġfam ily
ĠLo vers
act s
à§¨à§Ń à§ª
à¦Ī à¦²
ĠBen ef
Ġà§¦à§§à§¯ à§©à§®
à§Ńà§® à§Ń
Ġobser ver
Ġunivers ity
Ġà¦ıà¦ıà¦« à¦¸
ĠAj ax
à§¨à§«à§§à§¦ à§®à§®à§¯
ĠCate gory
B y
C ont
I s
W ind
d aughter
e is
e ating
f ers
p as
s un
â ĸ
he b
Ġm m
Ġm icro
Ġb a
Ġb er
Ġf ad
Ġf fm
it ute
à¦¸ à¦ĩ
à¦¸ à¦ĸà¦£
Ġp ol
ĠT am
st all
an a
à¦Ĺ à¦łà¦ķ
Ġbe l
à¥¤ âĢĺ
le g
ĠS ud
ĠB ANG
ĠH id
ĠF resh
us ive
Ġà¦Ĺ à¦®à¦¨
Ġà¦ī à¦Ł
Ġà¦ī à¦§
ver sed
il ter
Ġà¦ĩ à¦°à¦¶
li b
ish ment
ap s
ĠU t
Ġal way
à§¯ à§«à§¬
ĠWar m
ĠSha w
Ġ3 8
ren s
à¦¼à§ģ ,
ran ge
ran ces
Ġà¦ħà¦¬à¦¸ à¦°à¦ª
ĠLu c
Ġâ Ļ¦
Ġext ract
Ġblack s
Ġund ress
so ci
ĠEx ec
ĠDis c
Ġà§§à§¯à§¯ à§¦
Ġà§§à§¯à§Ń à§«
Ġsedu ced
7 6
B C
O TH
c it
c ar
c ol
m all
m und
p ens
s ucking
Ġt un
er ry
Ġf iles
à¦¦ à¦¸à¦¹
ĠT al
ĠA mb
Ġà¦¨ à¦¸
à¦· à¦ķà¦¤
ay lor
ut er
ĠS em
ĠS ug
ĠS atisf
Ġre verse
ad ding
ur ton
oo st
ke in
ĠP ol
ĠP ierced
ĠF reed
id i
ĠR ound
ĠR ail
Ġsha ring
hi a
ig er
à¦ł à¦¬
Ġbr ush
ĠAs soci
ag re
Ġold er
ĠGo ing
Ġ3 9
ach ie
Ġinst all
à¦¾: )
Ġpar lor
ump h
ban i
ĠEn c
Ġseal ing
ĠYoung er
po li
Ġnaught y
Ġte xt
à¦°à¦¥ à¦®à¦¤
ĠValent ine
Ġunex perienced
âĨ Ĵ
Ġà¦°à¦ĵ à¦¶à¦¨
ĠAuthor ity
ĠAur ora
ĠWake field
C on
F air
W hy
b ate
g ars
i ac
k nown
m eet
m ates
n ings
p at
w i
Ù Ĭ
Ġt ak
à¦ķ à¦¸à¦¬
or med
er fect
it an
ll a
Ġd ad
Ġà¦ķ à¦Ń
st on
à¦Ĺ à¦²à¦ķ
ĠW a
à¦ĩ à¦ªà¦²
ĠS ilver
ĠB ug
ĠM art
ĠL iving
Ġde l
à¦Ń à¦°à¦¯
ĠP ort
ĠF ight
ĠG ab
ĠR um
ĠR ash
ge l
ear th
Ġà¦ľà¦¨ à¦ªà¦¥
end er
ĠHe at
ĠHe ad
ind er
ind ia
ĠJ ac
ol at
yn e
Ġsa le
à¦¾à¦ģ -
Ġpo s
Ġà¦īà¦ª à¦¸à¦°
man ce
ĠIn ch
ber ry
à§İ à¦¬
for mance
Ġtw ist
ĠSt range
ĠHere after
vent ion
Ġà§¯ à§§
ĠAl ways
ĠUn known
ange l
ĠCor re
Ġdisp lay
ĠPr oof
à¦¨à¦® à¦£
ĠAr ms
lic a
à¦¾? âĢĻ
Ġlau nd
ĠCo in
ĠCo ver
Ġsqu ir
Ġdi aper
Ġà¦ļà¦°à¦® à¦ªà¦¨
Ġstret ched
ĠGu ard
Ġbutt on
ĠCle an
ĠJes us
ĠTrans late
Ġà§¦à§§à§Ńà§©à§¦ à§Ńà§®à§Ń
Ġrubb ing
Ġtot ally
ĠCreat or
meet ing
W ar
] [
a ahu
b angl
b orough
c il
c lip
e ven
g m
g all
h is
l ady
m ant
m ers
n urse
r ise
· º
Ġ il
Ġ ....
Ġt al
Ġw ow
Ġb um
à¦¼ __
nd ar
er m
Ġc ran
à¦¸ à¦§
à¦¸ à¦°à¦¤
à¦¦ à¦¸à¦®
Ġp aw
Ġp ars
Ġp icked
ĠT re
ĠT im
ut ter
ĠS le
ĠS its
ĠS aid
ĠS ons
ĠS abb
ĠB rid
ĠH ook
ĠC row
ad u
ent ion
Ġà¦° à¦¤
Ġà¦° à¦®à¦¯
ĠP ene
ĠF er
ĠF eed
ĠG lo
EN T
Ġà¦ļ à¦ķà¦²
ĠD w
ĠD uck
ter m
ĠE st
ĠE ve
iz ing
Ġma ll
Ġma il
ĠK in
ast a
Ġam ber
ost er
à¦®à¦¨ à¦Ł
lo gic
à¦ľà¦¨ à¦ĩ
à¦¤à¦° à¦¬à¦Ļ
Ġaw ard
de ep
Ġri ver
à¦¶à¦¨ à¦¸
à§¯ à§©
Ġcont est
oc ation
Ġà¦¸à¦¹ à¦¸
Ġgr ind
Ġcha p
ale ndar
arr ing
ach i
Ġcame l
Ġà§§à§¨ à§§à§©
ĠNe ed
Ġext ra
Ġsk ills
à§®à§® à§¦à§§à§®
umb ers
su pp
Ġvisit ors
Ġmod ern
rent ice
ĠSc ratch
ĠLe ads
ĠArt icle
ĠPlay ers
à¦¾à¦ĥ) -
ĠAcc ord
ĠWr it
ĠCle ar
ĠCry ing
Ġmil king
Ġà§¦à§§à§¯ à§Ń
ĠSub ject
ĠTra vel
Ġfre ck
ĠFree Porn
ĠAg ri
Ġsugg est
ĠSl ave
ĠSed ucing
ĠJew el
P at
b row
b by
c ry
c os
d ow
d ie
e an
g hed
h ook
l ers
l od
m ay
m ete
t ro
z el
Ġs cience
Ġs nat
Ġs na
Ġs que
à¦¯ à¦°à¦¤
à¦¤ à¦¬à¦¸
is hi
Ġf isher
Ġd ip
en ix
Ġl ot
Ġl ag
Ġp ierced
ĠT ro
ing e
an im
Ġà¦® à¦°à¦£
Ġg an
Ġg ig
ĠW at
ĠW ra
ĠW ait
ĠW ater
ĠS el
ĠS ne
à¦§ à¦ľ
ĠH all
ĠH ope
Ġre co
Ġre covery
ĠM al
ĠM atch
ĠM ang
ĠM ann
ri dge
ĠL oud
ĠG le
id ency
ĠR ou
ck en
Ġli z
ĠD en
ĠD ash
ĠN ero
ore ss
Ġma k
Ġv id
Ġv ied
han ging
Ġà¦ıà¦ķ à¦ĩà¦¸à¦Ļ
ant ed
à§¨ à§¨à§ª
ink ing
Ġpro b
Ġpro ject
à¦¤à¦° à¦Ł
Ġà¦Ĩà¦² à¦«
à¦Ĩ à¦ľà¦ķ
har m
Ġex posed
à¦¦à¦ķ à¦¸à¦¹
Ġsweet heart
Ġsc reen
Ġmo ist
red ible
iss ions
ret s
Ġ3 7
pro per
Ġapp rentice
Ġà¦ıà¦¸ à¦¡
ĠRe lease
co cks
ĠSh ut
ĠAnge lica
Ġà§¨à§¦ à§«à§¦
Ġdream ing
à§ĭà¥¤ âĢĿ
Ġsister s
Ġcra ving
Ġmark ed
Ġag ent
ner able
ĠAr med
Ġgar ters
Ġviol et
à¦Ĩà¦ĩ à¦ı
Ġbar n
Ġinn ov
ĠEx p
Ġid ea
ban k
Ġsour ce
irc le
ĠPut s
lay ed
Ġemp ire
Ġbas is
ĠRem ove
ĠComm un
ĠGhost s
ĠIm m
bb les
Ġinv is
br ook
cast le
ĠJud ge
Ġdedic ated
ai hi
ĠLa ura
ĠBare ly
ĠSuccess ful
Ġdoll ar
Ġexhi bit
ĠSedu ced
ĠSpe ed
ĠHus band
ĠAssoci ated
ĠBrid get
ĠCrow d
Ġsnat ches
' ;
B r
L ord
S i
Y our
b ush
c and
c oun
c ons
d ess
e as
e ck
e ast
f ound
g ings
g race
g ical
h ung
l ore
l ower
m ont
m atic
p int
r ite
s pect
v il
z ure
Ġ ~
Ġ zen
Ġt art
he rent
Ġs yn
in ch
Ġm ate
Ġm un
re ar
ha il
Ġb ump
or am
or ters
is er
is el
is sed
Ġf und
it on
à§ģ à§į
Ġc age
en or
Ġn om
Ġn ick
Ġp row
Ġp ep
ĠT art
ĠT aken
at ra
ĠA ve
ĠA ge
ot ar
om ed
Ġof fered
Ġg ab
Ġg erman
et ed
ĠW ears
ĠW inc
le arn
Ġin sp
ut ies
ir ra
ĠS ail
ĠS pr
ĠS lu
ĠB le
ĠB um
ĠB ond
ĠB orn
ĠB ark
ĠB acc
ĠH unt
ĠH umph
ĠC ost
ĠC ance
ĠC hop
Ġre ct
Ġre versed
ĠM um
ĠM oved
Ġst arted
à¦ļ à¦ķà¦°
al ing
ri ce
ri al
à¦£ à¦Ĺà¦¤
ĠL iv
ĠL onely
ĠL ynn
am er
am ined
Ġk ick
ĠP rom
ĠP aint
lf are
ĠF ully
ĠF lies
ĠF illing
ĠG one
ĠG ross
ĠR ow
ĠR ush
ĠR ode
Ġà¦ĵ à¦Ĩà¦ĩà¦¸
ct ed
ĠD ab
ĠD aint
if est
Ġne b
qu ar
à¦ī à¦«
à¦ī à¦ĩà¦¨
Ġcom ic
Ġpr im
ant e
Ġà¦Ĩà¦® à¦²à¦ķ
ine er
res pon
ry ing
ea sed
Ġwas hing
Ġsay ings
-- '
all aahu
Ġwor ry
Ġwor ks
ĠAs ses
pp ery
ish men
âĢĻ !
Ġdef init
ice ly
Ġpo se
Ġà¦®à¦¨ à¦Ł
ub a
ac ity
Ġwar ms
à¦¦à¦ķ à¦ķ
Ġfi xt
Ġfair y
Ġint est
ĠIt s
Ġsl imy
Ġad ore
ĠSt ru
ĠSt ars
Ġper vert
Ġà¦®à¦¹ à¦°à¦°à¦®
Ġsc al
red ient
Ġhar ness
Ġà¦ħà¦¬ à¦§
os en
ale ct
ĠOn line
ser ver
Ġend ing
ach ment
cl uding
Ġà¦ıà¦¸ à¦ķ
Ġmist y
Ġpat ent
ĠUn in
ĠHer o
ey s
by l
Ġperson al
ĠPr ote
Ġpost ing
Ġinc est
Ġwhi ps
Ġhot test
ĠPet ition
Ġsk it
ĠX ant
ĠJo an
ĠChrist mas
ĠEx posed
Ġform at
Ġur ine
Ġmed al
Ġsho e
Ġgrand mother
ĠDis claim
Ġpal p
ĠSc andal
Ġlaugh s
born e
ĠSp ain
Ġschool s
ĠPlease d
Ġpin n
Ġproper ties
ĠCo g
Ġtort ured
Ġroom s
à§§à§§à§ ©
Ġwood s
Ġslow ly
Ġà§§à§§à§ ¨
ĠBen net
Ġbuild ings
Ġcat ches
roll ing
ĠPri est
eg as
ĠGr ind
ĠAtt ach
Ġspread ing
ĠMis c
ĠMis used
Ġann ual
chol as
mph s
ĠAg reed
ĠFe eling
ĠDef init
Ġshower ing
bu ilt
bu ilding
ĠDream s
ĠTrans pare
Ġconver t
serv ice
Ġgle ek
emp loy
quis ite
qual ity
Ġhappen ed
ĠRoy al
Ġsall am
Ġsall allaahu
Ġcel est
Ġcri cket
Ġmagn ific
ĠSubs cri
sam akal
ĠSpan ish
ĠNi cholas
tri cks
Cont ent
ĠJac ob
ĠPene lope
ĠAccord ing
Ġreco il
Ġinsp ired
ĠHumph rey
ĠCance l
B es
C ock
F or
F ri
F ap
J es
K ing
L ook
R et
S he
S mall
W ill
W elcome
b urn
b one
b ags
c ern
c ourse
e lect
e quality
g io
g od
g reg
h ours
i bly
i pper
l est
l ins
l ots
m ish
m adam
m oon
n ell
o ves
o ze
o pian
p ig
p ac
p iled
r ont
r ising
s uck
t ure
t ered
u pe
u ild
v ato
w ish
w ords
x es
y ear
z ing
Ġt as
Ġt ast
Ġt ick
Ġt roll
Ġt ugging
he me
Ġa ub
ou bled
in ters
Ġm ul
Ġm alk
Ġm alt
Ġm ix
Ġm ention
Ġw al
à¦¤ à¦ľà¦¨
re vol
on et
on str
on ement
Ġb order
à¦® à¦Ĺà¦¡
or ic
or ative
Ġf ring
it ate
ĠI o
Ġc ake
Ġc oop
Ġd uck
Ġd ung
Ġà¦¸ à¦ĩà¦¤
es th
Ġn ill
Ġn ie
Ġl ots
Ġl awn
Ġl ux
Ġp om
Ġp am
Ġp atch
Ġp ag
Ġp iles
Ġp assed
ar qu
Ġo y
Ġo pens
ĠT ie
ĠT ug
ĠT ale
ĠT ouches
at hi
at ement
à¦ª à¦Ń
st art
st ers
ĠA bs
om ies
ow ell
Ġg ems
Ġg ash
ĠW re
ĠW ea
ĠW end
ĠW hip
ĠW orship
Ġbe llow
Ġà¦ı à¦¤à¦ķ
Ġin com
im per
ĠS een
ĠS ide
ĠS alt
ĠS lain
ĠS aving
ĠB ord
ĠB end
ĠB ade
ĠB astard
ĠB ene
Ġme ats
ĠH ist
ĠH ides
ĠH ours
ĠC arn
ĠC raft
ĠC ato
ĠC aucas
ĠM ut
ĠM end
ĠM ove
Ġst er
Ġst it
Ġe ve
Ġe lf
al as
al ph
ill es
ri pe
as her
as ers
ĠP egas
ĠF iddler
ĠG F
ĠG ray
ĠG rant
ĠR ice
ĠR ansom
ĠR idd
ĠR alph
ro asted
ck ets
Ġse pt
Ġse lect
Ġli b
Ġso aking
ra ven
ra ined
ĠD au
ĠD azz
pe al
ĠN est
ĠN aught
ĠN ips
Ġsha n
Ġsha res
Ġcon greg
ver age
ĠE aster
iz on
ge al
ge ment
th us
Ġdo xy
ru its
Ġno vel
Ġsu f
and e
ĠTh orough
Ġher mit
Ġlo gic
ĠV el
ĠV ia
qu ake
qu ick
ell er
ig matic
Ġcom edy
ho ps
li us
ous ing
ER V
Ġwhat ever
Ġsh irt
ak ens
iv ates
Ġman n
Ġbl ad
ci ate
ci cle
ea ux
Ġthem es
out ing
au f
um ing
Ġj elly
Ġj unk
ĠHe red
Ġhat s
Ġbr ist
all ing
ic ar
ic ult
Ġqu ote
od or
Ġun loads
Ġspe ars
Ġdef ying
Ġsp un
Ġsp ice
Ġsp ying
Ġsp here
Ġaw akens
Ġimp aled
Ġpl ac
Ġout d
Ġout cry
Ġup l
ĠIn fect
ance d
Ġoff icial
Ġcl ay
ĠSo on
ĠSo le
ac a
ac led
ac cess
Ġex pose
Ġex empt
Ġex quisite
ĠCl ar
Ġab bey
ens es
Ġdes cription
erv a
ĠBe re
ult ation
ĠMar ried
Ġlea f
Ġlea se
Ġpart ici
Ġsl iding
ait ed
Ġpre st
Ġpre fers
ĠSt ream
ĠSt amp
Ġtr ot
Ġtr ash
int ell
ull ed
Ġhead ing
ĠAn ch
ĠAn thon
ĠAn cient
ĠSe ven
Ġsc ot
ont ide
Ġfe eds
Ġpe g
com ing
Ġru les
iss es
os ity
Ġgr ad
ĠPro c
ĠPro duce
Ġcomp act
pen sed
ret ches
pro p
me aning
Ġsm art
TI M
Ġearth quake
Ġval idity
ĠList en
ren ched
Ġban ks
Ġche w
Ġgl ued
à¦§à¦¨ à¦ķ
ĠRe ign
Ġpass ions
ĠSh ine
Ġch ine
Ġvill age
ault s
ĠRes ume
Ġsen i
ham ber
Ġsubject ed
Ġmer maid
Ġcar p
Ġmaj or
Ġspo ons
ĠPl un
ĠPl uto
und ers
Ġà¦¬à¦¸ à¦Ľ
Ġhard est
ĠCon cern
Ġfore n
Ġcr ushing
à¦¨à¦® à¦ľ
Ġmus c
Ġsat in
Tw o
lic ity
Ġact ors
ĠSw itch
Ġprom otion
Ġprom ising
Ġac ross
ĠCall s
Ġreg ister
Ġbreast ed
cher y
ĠPre fer
Ġta wn
ĠBl ow
ĠBl own
Ġlim ited
sp reading
Ġlab el
oss ible
Ġur gent
Ġshi pping
Ġref lex
ĠMe asures
pr it
pr oof
Ġstud s
ĠSc ar
Ġmonth ly
Ġexce l
ĠSp it
ĠSp ies
mon th
Ġed if
chie ve
low ered
ĠBrother s
Ġbrows ing
Ġdec or
Ġallow ance
Ġtempt ation
Ġperfect ly
othe red
Ġsens ual
Ġproper ly
Ġproper ty
Ġpi pes
Ġamb ig
Ġthrust s
ib el
Ġmat erial
Ġmat ches
Ġele v
Ġneg ative
Ġseas ide
zz le
Ġprincess es
Ġswallow ing
Ġtomb s
Ġsqu ash
Ġdi alect
Ġtest ament
ĠRet ire
Ġodd ly
Ġglo be
ĠSold iers
ĠBer gam
ĠSupp er
Ġvirgin ity
Ġchat s
Ġconstant ly
gar ment
ĠTr adition
ĠMin erva
Ġstret ches
Ġer go
Ġmir acles
ĠGu ess
father s
upt uous
Ġmyster ies
ĠVal ance
Ġinv iol
sell er
Ġbir ch
Ġdecl are
pier ced
Ġobject s
Ġcorrupt ed
Ġfant asy
Ġfix es
Ġunfold s
Ġsau ce
ĠSub t
ĠSub du
Ġbru nt
Ġcook s
Ġeight een
?? ?
ĠTra il
ĠTra velling
rat ches
Ġcro p
ĠTur key
ĠTeach ing
ĠFlor a
Ġcommit s
por ter
ĠSim ple
ĠFe ast
ĠFe ather
ĠIns ult
cat cher
Ġdedic ation
Ġhy per
Ġshout ing
ĠDev ouring
bu zz
Ġtea ches
ĠLess er
ĠMeet ing
ĠMount ed
Ġshoot ing
Ġtoss ing
stool s
keep er
Ġquest s
Ġdiscreet ly
Ġestab lished
ĠDig est
ĠAdo pt
Ġpenet rate
Ġtwink le
ĠTor ment
ĠMer ry
ĠBro ken
Ġfel ony
ĠDru ms
Ġrubb ish
ĠDivine ly
ashion able
Ġlave nder
ĠHour ly
Ġmeas uring
ĠOly m
Ġopport unity
ĠPresent ed
Ġceleb rate
ĠArab ia
ĠMovie Fap
ĠShar p
ĠAud ience
ĠDri ving
bro ad
leg ged
ĠAmb it
ĠEnc ourage
ĠGab riel
Ġpos it
Ġcran ks
ĠSne ak
ĠRou ge
ĠProm otion
ĠPaint ing
Ġfring ed
Ġpam per
ĠAbs olute
ĠWea pons
ĠBene ath
ĠPegas us
Ġbrist led
ĠAnthon y
ĠBergam o
) âĢİ
A lla
B ut
B ove
C uc
D ing
D eny
F ine
F arewell
F rets
H ell
H ark
J ack
M adam
M aries
N urse
P eace
P ardon
P ray
R ise
S it
S im
S aint
S ignior
S EPH
S unday
S hall
S death
T hat
T ear
T ribunes
T hen
W ell
W ilt
W idow
W here
a ward
a ired
b ish
b ound
b iting
b ew
b arr
b ring
b awd
b bit
b reed
b ursed
b lesome
b leness
b uts
b raid
b ranch
b webs
c ra
c ata
c ond
c rown
c ull
c ousin
c ates
c ides
c ils
c rest
c uss
c ases
c ann
c urg
c uing
c rates
c reen
c atching
c uba
c hamber
d ong
d ost
d ure
d ence
d ens
d ied
d ried
d ove
d ging
d ying
d ames
d ared
d rench
d ainty
d iments
d alls
d olour
d arting
d itary
d eaf
e ems
e ving
e bank
f ow
f ill
f ear
f ive
f ool
f ume
f ires
f aith
f ited
f lies
f law
f itable
f ishes
f oes
f olks
f athom
f actors
f atal
f ashion
f arewell
f layed
f ruits
g row
g ird
g ran
g ives
g awd
g aret
g ued
g rand
g ills
g raced
g iving
g iveness
g racious
g ays
g oned
g orged
g eneral
g aited
h out
h ound
h unt
h ouses
h orses
i ases
i work
i vering
j ury
j ured
j ump
j ealous
j acent
j unction
j uiced
j oram
k ill
k ine
k erc
k illing
k nit
k nock
l ave
l ough
l aud
l ane
l ackey
m ur
m ould
m ight
m out
m ness
m ns
m ured
m arry
m ix
m oot
m utation
m arried
m elting
m pery
m atching
m ercy
m ildly
n one
n ance
n ows
n che
n ever
n ointed
n ations
n oble
n areth
o an
o ison
o vern
o ons
o ifs
o ciate
p ard
p ake
p ice
p urse
p aint
p its
p ale
p ina
p ated
p aring
p arted
p ane
p othecary
p aced
p rying
r ound
r ity
r tle
r ating
r arch
r usion
r hyme
r othed
r oused
r oost
s pe
s ore
s ward
s old
s ling
s sed
s cent
s aid
s ainted
s set
s leep
s kin
s pear
s ongs
s ervation
s ium
t art
t ook
t ice
t own
t ise
t ance
t ful
t ack
t ling
t ale
t eth
t els
t ired
t uned
t alion
t reading
t ossed
t attling
t ribune
t ender
u ate
u ity
u age
u kes
u ished
v ow
v ul
v iv
v io
v ass
v iness
v illain
v itae
v ouched
w ou
w id
w ink
w alk
w arr
w hile
w ild
w idow
w aking
w oe
w aning
w arm
w arks
w aving
w ounding
w ooing
w olf
x ter
x ible
y onder
z eth
z ounds
Ġ row
Ġ icy
à¦° à¦¦à¦ķ
à§ĩ "
Ġt ard
Ġt utt
Ġt ough
Ġt ouse
Ġt aint
Ġt ilt
Ġt ittle
Ġt und
Ġt ua
Ġt awd
Ġt ames
Ġt allow
Ġt aper
Ġt eat
Ġt uns
Ġt aker
Ġt ickle
Ġt uned
Ġt ipt
Ġt asted
Ġt etchy
Ġt ilter
Ġt inder
Ġt irra
he ir
he al
he ath
he nce
he red
he ims
he irs
à¦¨ à¦¬à¦°
à¦¨ à¦Ĺà¦¤
Ġa ld
Ġa il
Ġa right
Ġa light
Ġa ired
Ġa ided
Ġa unts
Ġa venged
Ġa thwart
Ġa ching
Ġs or
Ġs ans
Ġs ignior
Ġs ours
Ġs ift
Ġs inks
Ġs akes
Ġs ided
Ġs allow
Ġs owl
Ġs izes
Ġs ourest
Ġs lop
Ġs essa
Ġs kein
ou rer
ou lly
ou gher
in us
in ction
in ally
in cible
in cial
Ġm it
Ġm io
Ġm ice
Ġm ire
Ġm ose
Ġm uck
Ġm int
Ġm ought
Ġm eth
Ġm ated
Ġm arted
Ġm ills
Ġm umbling
Ġm ickle
Ġm ules
Ġm ixture
Ġm uzz
Ġm ulled
Ġw ist
Ġw ins
Ġw ade
Ġw ished
Ġw ares
Ġw rench
Ġw arden
Ġw ards
Ġw anders
Ġw izard
Ġw rung
Ġw add
Ġw aned
Ġw iped
Ġw rens
re ce
re ly
re ast
re ment
re nder
re ach
re vere
re ments
re aching
re voc
ha ved
ha pen
ha vior
ha ca
on is
on ly
on ato
on imy
Ġb ard
Ġb ents
Ġb apt
Ġb akes
Ġb ots
Ġb ourn
Ġb ared
Ġb aff
Ġb arded
Ġb oring
Ġthe at
Ġthe ft
nd or
nd ed
nd ower
nd ix
or ch
or us
or ity
or als
or mity
or ato
er come
er we
er look
er grown
er ween
er worn
er weighs
er borne
is en
is ings
is ite
is sel
is ks
is ins
is eth
is ping
is ition
is cate
is covered
is cible
is emaker
Ġf ust
Ġf ry
Ġf ost
Ġf ens
Ġf ins
Ġf ren
Ġf ates
Ġf ives
Ġf ished
Ġf ines
Ġf iled
Ġf ane
Ġf eder
Ġf ann
Ġf ranch
Ġf idd
Ġf locks
Ġf usty
Ġf iddler
Ġf erry
Ġf idi
Ġf ishi
Ġf oully
it ure
it ling
it ured
it ched
it ating
it ulate
it ably
it igation
ĠI gn
ĠI rons
ĠI car
ll or
ll ity
ll ens
ll enger
Ġc ust
Ġc ue
Ġc ic
Ġc ac
Ġc utt
Ġc ors
Ġc ud
Ġc ork
Ġc url
Ġc els
Ġc rust
Ġc ites
Ġc ited
Ġc ement
Ġc arts
Ġc ases
Ġc utting
Ġc aged
Ġc rick
Ġc add
Ġc alendar
Ġd us
Ġd ice
Ġd ens
Ġd ale
Ġd ray
Ġd ici
Ġd ries
Ġd arted
Ġd rib
Ġd ib
Ġd ote
Ġd onation
Ġd rank
Ġd angling
Ġd ank
Ġd itch
Ġd ived
Ġd aws
Ġd ashing
Ġd yed
Ġd itty
Ġd uties
Ġd renched
en em
en ance
en sed
en ary
en ched
en itured
es ies
Ġn it
Ġn our
Ġn ook
Ġn erv
Ġn ets
Ġn ines
Ġn urs
Ġn ations
Ġn aming
Ġn avel
Ġl ath
Ġl out
Ġl eet
Ġl uke
Ġl ull
Ġl anc
Ġl ade
Ġl ush
Ġl unes
Ġl ash
Ġl aud
Ġl urch
Ġl ines
Ġl ining
Ġl utes
Ġl outs
Ġl itt
Ġl ingers
Ġl ulls
Ġl ids
Ġl avish
Ġl ascivious
Ġl agging
Ġl onely
Ġl isping
Ġy est
Ġy earn
Ġy arn
Ġy awn
Ġy ards
Ġy oked
Ġy ellows
Ġp ome
Ġp ho
Ġp end
Ġp other
Ġp ec
Ġp all
Ġp oul
Ġp ens
Ġp ied
Ġp ail
Ġp ious
Ġp ates
Ġp alt
Ġp unt
Ġp ash
Ġp ined
Ġp hee
Ġp ander
Ġp ots
Ġp each
Ġp ip
Ġp ester
Ġp ages
Ġp ushes
Ġp ouring
Ġp aved
Ġp umps
Ġp aws
Ġp ugging
Ġp ushed
Ġp aucas
Ġp oni
à§ĭ ;
ar led
ar ition
ar rel
ar bed
ar ries
ar rows
ar ians
ar mory
ar agement
Ġth ump
Ġth unders
Ġo ar
Ġo ily
Ġo ils
Ġo ats
Ġo pes
Ġo aken
Ġo live
Ġo mitted
Ġo mn
Ġo pin
Ġo peration
Ġo oze
ĠT ear
ĠT row
ĠT res
ĠT ook
ĠT ire
ĠT ies
ĠT arry
ĠT ends
ĠT idings
ĠT edious
ĠT eeth
ĠT akest
ĠT inct
ĠT ickle
ĠT etchy
Ġh oo
Ġh ue
Ġh ic
Ġh ies
Ġh ull
Ġh its
Ġh ild
Ġh use
Ġh ired
Ġh ips
Ġh oofs
Ġh ilding
Ġto d
Ġto ge
Ġto ol
Ġto ds
Ġto aze
Ġto pping
at ain
at hes
at omy
at ante
Ġyou nk
hat h
st s
st roke
st ition
st rue
st icks
st omach
st inate
st aining
st oned
st orm
ĠA ble
ĠA fore
ĠA ves
ĠA ub
ĠA ged
ĠA like
ĠA vo
ĠA live
ĠA iry
ĠA thwart
ĠA chieve
se al
se ly
se ver
se ven
se eing
se parable
se illes
ot le
ot ted
ve al
ve ying
ve ts
ve lope
Ġhe ath
Ġhe ft
Ġhe ating
Ġhe wing
Ġhe areth
Ġhe dges
Ġhe ifer
Ġhe sts
om est
om bed
om acher
om plish
ow der
ow ls
an ers
an swer
an ointed
Ġg i
Ġg in
Ġg art
Ġg out
Ġg aw
Ġg ory
Ġg irt
Ġg irth
Ġg nat
Ġg ib
Ġg ips
Ġg ulls
Ġg iber
Ġg landers
Ġg lib
Ġg adding
et ies
ĠW ast
ĠW ine
ĠW ol
ĠW ave
ĠW ither
ĠW onder
ĠW ept
ĠW enches
ĠW ailing
ĠW anting
ĠW ooing
ĠW retches
Ġbe es
Ġbe est
Ġbe ak
Ġbe ds
Ġbe lock
Ġbe arts
Ġbe hest
Ġbe areth
Ġbe queath
Ġbe verage
Ġbe paint
le on
le ather
le ges
le gg
le af
le vied
le ading
ce ment
Ġin ly
Ġin cess
Ġin cont
Ġin und
Ġin duce
Ġin herited
Ġin iquity
Ġin aus
Ġin ev
Ġin herent
Ġin equality
Ġin access
Ġha i
Ġha le
Ġha ver
Ġha res
Ġha ps
Ġha llow
Ġha ms
Ġha iled
Ġha vior
Ġha lves
Ġha voc
Ġmy rtle
ay beards
ut ic
ut el
ut ors
ut eth
ut ary
ed ed
ed ge
ed ified
ed alus
ed iction
ir ur
ir am
ir ous
ir ic
ir ation
ir its
ir mities
im able
im pse
im ney
im auf
ch m
ch ins
ch rist
ch oes
ch osen
ĠS ore
ĠS ink
ĠS ac
ĠS igh
ĠS cri
ĠS well
ĠS ici
ĠS ends
ĠS erved
ĠS andal
ĠS ailing
ĠS tern
ĠS coff
ĠS oto
ĠS ERV
ĠB ess
ĠB ate
ĠB ight
ĠB les
ĠB red
ĠB alk
ĠB roke
ĠB alt
ĠB ury
ĠB alm
ĠB ourn
ĠB roach
ĠB unch
ĠB ruised
ĠB urton
ĠB asta
Ġu pt
Ġu mp
Ġme ac
Ġme eds
Ġme rest
Ġme ads
Ġme chan
Ġme asures
Ġme agre
Ġnot ion
Ġnot ched
ĠH ood
ĠH ic
ĠH oy
ĠH ither
ĠH ag
ĠH ush
ĠH illo
ĠH umb
ĠH ames
ĠH umbling
ĠH aled
ĠH unger
ĠH iding
ĠH yr
gh ing
ĠC ain
ĠC orn
ĠC urse
ĠC ush
ĠC alm
ĠC ats
ĠC ease
ĠC unning
ĠC harge
ĠC harged
ĠC ousins
ĠC icester
ĠC icely
Ġre ly
Ġre el
Ġre mit
Ġre ft
Ġre iter
Ġre form
Ġre ech
Ġre els
Ġre cept
Ġre claim
Ġre eds
Ġre ared
Ġre semble
Ġre covered
Ġre eling
Ġre journ
Ġre vels
Ġre acheth
ĠM OR
ĠM aint
ĠM ates
ĠM ock
ĠM ended
ĠM elting
ĠM uddy
ĠM ildly
ĠM achi
ĠM itigation
Ġis ta
Ġst ow
Ġst ur
Ġst are
Ġst all
Ġst ile
Ġst oc
Ġst ool
Ġst able
Ġst alk
Ġst akes
Ġst ares
Ġst ews
Ġst aring
Ġst oned
Ġst umbl
Ġst upe
Ġst igmatic
Ġst omacher
Ġfor cing
Ġfor cible
ent ous
ent les
ent imes
ent rion
ur ous
ur ied
ur ions
ur den
ur ped
ur ably
ur ril
ke ls
Ġwith stand
Ġwith held
Ġwith dra
Ġwith stood
Ġwe als
Ġwe eder
Ġwe arers
Ġwe aved
Ġwe lfare
our sed
Ġe ll
Ġe an
Ġe art
Ġe un
Ġe el
Ġe ject
Ġe aves
Ġe wer
Ġe cho
Ġe yne
Ġe clip
Ġe choes
al ment
al ms
al oon
al uted
al con
ill ery
ill ains
ri ot
ri ved
ri ched
ri atic
ri ages
ri eves
ri ously
ri cocks
her d
Ġas cent
ĠO we
ĠO bed
ĠO pinion
ĠO vid
ĠL ent
ĠL ate
ĠL ose
ĠL ines
ĠL awn
ĠL awful
ĠL echer
ĠL omb
Ġde me
Ġde ject
Ġde alt
Ġde mer
Ġde gr
Ġde ities
Ġde lect
Ġde lu
Ġde xter
as ps
as ions
am ens
am azed
am bering
Ġon ion
Ġon ward
Ġk il
Ġk ite
Ġk erns
ĠP our
ĠP atter
ĠP ew
ĠP ud
ĠP ins
ĠP ots
ĠP iteous
ĠP imper
ĠF ro
ĠF ain
ĠF ame
ĠF ate
ĠF ew
ĠF ert
ĠF led
ĠF right
ĠF aster
ĠF ates
ĠF ated
ĠF lock
ĠF atal
ĠF landers
ĠF aults
ĠF alcon
ĠG il
ĠG ARD
ĠG rown
ĠG azed
ĠG rows
ĠG racious
ĠG orged
ĠG ENT
ĠG entles
id ies
id ents
id ences
ĠR ue
ĠR ough
ĠR ouse
ĠR hes
ĠR emn
ĠR ude
ĠR azed
ĠR uns
ĠR ideth
ĠR heims
EN ER
ord inary
ro dden
ro bed
ro ider
ro bri
ck le
ck nock
Ġse ld
Ġse eth
Ġse wing
Ġse paration
Ġse xton
Ġse izes
Ġse mic
Ġse izing
us al
us ions
us ical
us cad
us urped
ly ra
Ġli eth
Ġli lies
Ġli kest
Ġso b
Ġso ars
Ġso bs
Ġso fter
Ġso aring
Ġso bri
Ġso journ
Ġso othed
ra ble
ra ise
ra ged
ra ges
ra ided
ra cian
ct able
ct ives
ĠD iz
ĠD ine
ĠD ive
ĠD ish
ĠD rown
ĠD iss
ĠD ally
ĠD ares
ĠD rest
ĠD aring
ĠD ared
ĠD isting
ĠD oubt
ĠD uns
ĠD olour
ĠD aph
pe ace
pe red
pe less
pe rer
pe aring
ĠN ell
ĠN ICH
ĠN UR
ĠN ourish
ĠN imble
ĠN earer
ĠN ecess
ĠN uma
Ġsha ken
Ġsha mb
Ġsha kest
Ġcon ven
Ġcon ies
Ġcon form
Ġcon ject
Ġcon ceived
Ġcon join
Ġcon verse
Ġcon sec
Ġcon veying
ter bury
ver il
ver dict
if le
if ully
ĠY on
ĠY ond
ĠE lected
ĠE qual
th ine
th ink
th ol
th orn
th ought
Ġdo cks
Ġ' ?
ru g
ru le
ru ce
ru nk
Ġno ds
Ġno ontide
Ġno isemaker
est ry
est ic
est ical
est imable
Ġsu rer
Ġsu lly
Ġsu nders
Ġsu stain
Ġsu llens
Ġsu staining
Ġbut ler
Ġbut tock
il ent
il us
il ant
il ius
Ġne igh
Ġne uter
ame mn
Ġall ig
Ġall aying
Ġall ays
Ġma ce
Ġma ze
Ġma ker
Ġma ims
Ġma ndra
ĠTh rust
ĠTh rice
ĠTh racian
Ġv ary
Ġv arl
Ġv ines
Ġv antag
Ġv ouchs
Ġv ouched
Ġv agabond
Ġv otar
Ġv icar
Ġv award
han ced
Ġher b
Ġher ring
Ġan vil
Ġan atomy
ĠK ated
ĠK nown
ĠK AT
ĠK ept
ĠK ills
Ġlo a
Ġlo p
Ġlo an
Ġlo am
Ġlo pp
Ġlo ft
Ġlo zel
Ġlo athes
ĠV ail
ĠV ices
ĠV ere
ĠV arlet
ĠV ex
ĠV agabond
ĠV itra
ĠV illains
qu ed
qu ench
qu estion
qu ering
ul se
ul ity
ul ars
ul king
ul iar
Ġfa ble
Ġfa red
Ġfa llow
Ġfa cing
Ġfa cit
ig o
ig od
ig old
ig able
ig ested
ig ma
à¦ī à¦¦à¦ķ
Ġcom et
Ġcom eth
Ġcom bed
Ġcom pel
Ġcom ondy
ho g
ho ppers
Ġkn avish
Ġkn acks
em ning
em perate
li ances
urn t
urn ished
Ġwhat soe
Ġsh ill
Ġsh one
Ġsh orn
Ġsh red
Ġsh unning
Ġsh illing
Ġsh orter
Ġar row
Ġar gue
Ġar chers
Ġpr ancing
Ġpr anks
ant ity
ak ings
Ġgood lier
Ġgood fellows
art ings
ĠBut chers
ine ls
iv est
iv ative
iv oli
Ġlord ed
Ġlord ings
Ġat onement
Ġat omies
Ġman es
Ġman ure
Ġman ual
Ġman acle
Ġman gle
nt ly
nt hia
ers ing
Ġbl amed
Ġbl ades
Ġbl azon
Ġbl usters
Ġbl ubbering
Ġbl azing
ci ation
Ġwhe reat
Ġwhe tt
Ġwhe lp
Ġam id
Ġam ort
Ġam ount
Ġam erce
Ġam iable
Ġam ounts
ble eding
ong ing
Ġshe ar
Ġshe nt
Ġshe ars
Ġshe dd
Ġshe athe
Ġshe kels
ea ves
ea ping
end um
Ġmore over
Ġret ort
Ġret reat
Ġret ires
Ġgo at
Ġgo ad
Ġgo al
Ġgo gs
Ġgo ads
Ġgo aded
Ġgo sling
out running
out rements
Ġwas ps
Ġwas hed
ĠFor sp
ĠFor got
ĠFor giveness
au b
Ġreturn ing
um ond
Ġj et
Ġj our
Ġj ol
Ġj ury
Ġj ills
Ġj umps
Ġj aws
Ġj acks
Ġj ouncing
Ġj arring
ĠHe w
ĠHe ir
ĠHe ard
ĠHe igh
ĠHe irs
ĠHe cuba
Ġus ury
Ġus hers
ost le
ost ication
Ġthere at
Ġthere with
Ġthere upon
Ġthere abouts
ind ful
Ġknow ist
Ġcan op
ven erable
ep ht
fe ather
Ġsw eep
Ġsw ung
Ġsw erve
Ġsw itch
Ġsw oln
Ġsw ashing
Ġsw ounded
Ġsw inged
Ġsw eating
Ġsw oons
Ġhere to
Ġhere by
Ġhere abouts
Ġhere ditary
ec ost
Ġbr ay
Ġbr isk
Ġbr inish
Ġbr ushed
pt uous
ic led
ic ery
ic ament
ic ulous
Ġqu am
Ġqu art
Ġqu ired
Ġqu aked
Ġqu arts
Ġqu inces
Ġqu ivers
Ġqu ailing
Ġqu eas
Ġqu ivering
Ġqu oifs
Ġqu enched
Ġqu antity
un ge
un just
un ctions
un cle
un ciation
od ary
od emon
od iac
Ġun mit
Ġun path
Ġun load
Ġun ite
Ġun fil
Ġun right
Ġun apt
Ġun broke
Ġun string
Ġun rel
Ġun mer
Ġun be
Ġun so
Ġun sp
Ġun sh
Ġun cover
Ġun ited
Ġun she
Ġun roll
Ġun roof
Ġun horse
Ġun hur
Ġun shapen
Ġun weigh
Ġun blown
Ġun att
Ġun child
Ġun aching
Ġun active
Ġun beli
Ġun viol
Ġun hearts
Ġun loving
Ġun valued
Ġun lick
Ġun earth
Ġun harm
Ġun intell
Ġun roost
Ġun vul
Ġun answer
Ġun thought
Ġun question
Ġconst rue
Ġconst ancy
Ġconst ruction
Ġconst rains
ist ling
ist otle
ink le
ink ets
lo it
lo gue
lo seth
Ġwor ries
Ġà¦ıà¦¬ à¦Ľà¦°
Ġmay est
ĠAs ide
ĠAs semble
Ġpro ps
Ġpro posed
Ġpro gn
Ġpro sec
Ġpro jects
Ġpro strate
Ġpro vokes
Ġpro sely
Ġpro perer
Ġpro logue
Ġim itation
Ġim itate
Ġcome ly
Ġcome liness
pp a
pp ily
ĠJ oint
ĠJ amy
ĠJ epht
ĠWhe reat
Ġhand ed
Ġhand iwork
Ġhand kerc
ol ent
ol ver
ol ish
Ġset tle
Ġdef ac
Ġdef ied
Ġdef used
Ġdef ends
Ġdef iled
Ġdef ensive
Ġdef lower
Ġdef lowered
Ġsp ill
Ġsp ire
Ġsp ouse
Ġsp ied
Ġsp its
Ġsp av
Ġsp ade
Ġsp ots
Ġsp ites
Ġsp ited
Ġsp lay
Ġsp ared
Ġsp illing
Ġsp outs
Ġsp akest
Ġsp irts
Ġsp angle
Ġsp heres
Ġsp okest
Ġsp arrows
Ġsp ruce
Ġsp icery
Ġgra ven
Ġgra ved
Ġgra ined
Ġgra pes
Ġgra vest
Ġgra zing
Ġho a
Ġho ist
Ġho ars
Ġho gs
Ġho sp
Ġho lier
Ġho vering
Ġho arded
Ġho bby
Ġho xes
ef ull
Ġaw ed
Ġaw eless
Ġimp ure
Ġimp ress
Ġimp ale
Ġimp ert
Ġimp awn
Ġimp osed
Ġimp utation
Ġimp rim
Ġimp otent
Ġimp erfect
Ġimp oster
de ad
de red
el ids
el aus
Ġsa ith
Ġsa ge
Ġsa ff
Ġmad s
Ġmad st
Ġfather ly
Ġfather less
Ġpl ack
Ġpl aster
Ġpl enty
Ġpl ash
Ġpl ats
Ġpl ated
Ġpl umes
Ġpl aus
Ġpl acket
Ġpl agued
Ġpl unge
ng overn
ass us
Ġres ide
Ġres ides
Ġres ident
Ġres ervation
Ġres ounding
Ġres cuing
own ess
ab aster
ab ris
Ġpo ise
Ġpo per
Ġpo ised
Ġpo king
Ġpo esy
Ġpo pulous
Ġpo ckets
Ġdeath men
Ġen ointed
Ġen shi
Ġen lar
Ġen fold
Ġen sues
Ġen vied
Ġen amour
Ġen acts
Ġen pierced
Ġen noble
Ġen ormity
Ġen riched
Ġen raged
Ġen igma
Ġr out
Ġr ind
Ġr ook
Ġr ans
Ġr ated
Ġr ural
Ġr ises
Ġr ushing
Ġr aying
Ġr het
Ġr attling
Ġr ougher
Ġr isen
Ġnew er
Ġnew ness
Ġnew born
Ġspeak eth
Ġwhen ces
Ġout right
Ġout run
Ġout done
Ġout cast
Ġout grown
Ġout weighs
Ġout rages
Ġhow e
Ġhow led
Ġhow soever
Ġhow soe
Ġhow beit
ap hys
ap pearing
Ġtru ll
Ġtru ce
Ġtru mpery
Ġtru nche
Ġtru ckle
man ly
man ner
OL AS
Ġup ward
Ġup bra
Ġup start
Ġheart y
Ġheart en
Ġheart less
Ġà¦Ĩà¦² à¦®à¦ķ
à§® à§§à§ª
Ġname less
ĠU ngovern
ĠWe ak
ĠWith hold
Ġwho e
Ġwho les
Ġwho so
Ġwho soever
Ġwho soe
ign ess
eng ers
ĠIn sp
ĠIn herit
ĠIn estimable
iting s
Ġri ve
Ġri band
Ġri ds
Ġri gg
Ġri chest
Ġmar s
Ġmar row
Ġmar ries
Ġmar sh
Ġmar cheth
Ġmar gent
Ġmar joram
Ġmar riages
Ġmar igold
ire r
Ġhon ester
Ġhon ourest
Ġhon orato
Ġstr ay
Ġstr ut
Ġstr ings
Ġstr angling
Ġstr aying
Ġstr ays
Ġoff ends
Ġoff spring
Ġdis com
Ġdis claim
Ġdis ann
Ġdis pense
Ġdis arm
Ġdis adv
Ġdis covered
Ġdis quiet
Ġdis comfort
Ġdis valued
Ġdis lod
Ġdis eased
Ġdis junction
Ġdis vouched
Ġdis sever
Ġcl ad
Ġcl od
Ġcl own
Ġcl ack
Ġcl uck
Ġcl app
Ġcl apping
Ġcl asps
har itable
har ming
har itably
ub im
ub ine
ub ility
ber ds
wn ess
ĠSo oth
ĠSo vere
ĠSo fter
ĠSo journ
ĠSo crates
Ġhear se
ac ens
ac ides
ac ulous
ac rity
Ġbrother ly
Ġbrother like
Ġex ist
Ġex che
Ġex pi
Ġex cess
Ġex ten
Ġex clam
Ġex action
Ġex pel
Ġex amine
Ġex ultation
Ġhea pt
ĠCl are
ĠCl app
ĠCl erk
ĠCl ubs
ĠCl owder
ĠCl ambering
Ġab et
Ġab ed
Ġab ate
Ġab ject
Ġab ys
Ġab bot
Ġab using
Ġab jects
Ġab ilities
Ġab hors
Ġab jured
Ġab reast
Ġblood less
Ġblood ily
Ġfo b
Ġfo g
Ġfo h
Ġfo ppery
Ġfo sset
Ġear liness
Ġro ve
Ġro an
Ġro ver
Ġro bs
Ġro pes
Ġro aming
Ġro arers
Ġro pery
Ġlook ers
Ġthink est
ĠHow ever
ĠHow soever
ĠHow lings
Ġal ters
Ġal abaster
Ġal acrity
Ġey eless
Ġey elids
Ġwhere to
Ġwhere by
Ġwhere with
Ġwhere withal
ag ation
ag ne
ag eness
Ġfriend liness
ĠThis be
Ġdes olate
Ġdes olation
Ġdes irous
erv ative
erv ille
Ġart illery
Ġcomm ended
Ġcomm ixture
Ġcomm issions
ĠBe at
ĠBe get
ĠBe ating
ĠBe loved
ĠBe yond
ĠBe gu
ĠBe got
ĠBe queath
ĠMar cians
ĠMar iners
ĠMar cus
ĠMar seilles
Ġwar r
Ġwar ns
Ġwar mer
Ġwar ped
Ġbet id
Ġbet roth
Ġbet ossed
Ġbet rothed
ĠWhere with
get h
Ġtw ill
Ġtw ine
Ġtw angling
Ġtw itting
Ġtw isted
Ġcont emn
Ġcont ended
Ġcont rib
Ġcont roll
Ġcont aining
Ġcont ending
Ġarr as
Ġfear fully
Ġhast en
Ġhast es
Ġhast ings
Ġhast ening
ĠWho a
div ining
Ġcou ghing
Ġbre w
Ġbre ather
Ġbre ach
Ġbre eds
Ġbre eches
Ġbre aches
oc cup
Ġfair s
Ġfair ness
Ġaf ar
ĠAN OTH
Ġint itle
Ġint olerable
Ġint rusion
Ġint emperate
ĠYour s
ĠIt haca
ough s
Ġlea ven
Ġlea sed
Ġlea gues
Ġsl it
Ġsl ake
Ġsl ish
Ġsl ash
Ġsl aughters
Ġsl ugg
Ġsl uiced
Ġsl umbers
Ġsl ande
Ġcall at
Ġcall et
Ġcall est
Ġad age
Ġad dle
Ġad heres
Ġad judged
Ġad jacent
ss om
ĠOr der
Ġpre ten
Ġpre med
Ġpre ys
Ġpre jud
Ġpre fix
Ġpre late
Ġpre achment
Ġpre paring
Ġtrue born
Ġstand er
Ġstand est
Ġstand ard
Ġstand eth
ĠSt ain
ĠSt ood
ĠSt ab
ĠSt eep
ĠSt oop
ĠSt ony
ĠSt ifle
hing ed
Ġsweet ness
Ġsweet me
Ġple ader
Ġper use
Ġper ished
Ġper ils
Ġper ceived
Ġper mitted
Ġper verse
Ġper sec
Ġper missive
Ġper cuss
à¦ĩà¦Ł à¦ĵà¦¯
uck ling
ple asers
Ġtr ance
Ġtr ough
Ġtr outs
Ġtr ooping
Ġtr adition
Ġtr adu
Ġtr inkets
Ġown s
int us
Ġwr ings
str ings
ĠThere by
ĠThere take
Ġle ans
Ġle op
Ġle ases
Ġle asing
Ġle vies
Ġle vity
Ġle aky
Ġle iger
aw ay
aw fully
aw ays
Ġmean ly
Ġmean ings
ft ing
Ġpres age
Ġpres ents
Ġpres cience
Ġpres sing
Ġpres ages
Ġpres cribe
Ġpres umes
Ġpres erving
Ġpres ervative
Ġimport ing
Ġimport unate
ĠEd en
ĠEd mund
ĠAn sel
ĠAn cus
ĠSe est
ĠSe vent
ĠSe ldom
ĠSe ym
Ġsc ent
Ġsc ion
Ġsc ant
Ġsc aff
Ġsc ald
Ġsc ales
Ġsc roll
Ġsc owl
Ġsc aled
Ġsc off
Ġsc apes
Ġsc once
Ġsc abs
Ġsc reech
Ġsc orch
Ġsc urril
ont ory
ont roll
ĠWhen e
ĠWhen ever
ĠWhen soever
Ġmo i
Ġmo at
Ġmo vers
Ġmo ated
ĠLet he
ĠHere in
iter ran
ite ly
Ġdown ward
Ġra ve
Ġra kes
Ġra ins
Ġra rer
Ġra ils
Ġra ught
Ġra vel
Ġra vish
Ġra iny
Ġra pture
Ġra zure
Ġra bbit
Ġra isins
Ġwh oo
Ġwh ined
Ġwh irl
Ġwh ining
Ġrem ission
Ġrem oves
Ġrem onstr
Ġfe cks
Ġfe ats
Ġfe alty
Ġfe odary
Ġright ful
Ġfl ay
Ġfl own
Ġfl aw
Ġfl ail
Ġfl ows
Ġfl irt
Ġfl ax
Ġfl aunt
Ġfl ames
Ġfl amed
Ġfl ask
Ġfl ote
Ġfl outs
Ġfl aying
Ġfl aws
Ġfl aky
Ġfl amens
Ġarm ies
Ġarm ours
ilt ier
form ing
form able
Ġold est
Ġunt ie
Ġunt alk
Ġunt ried
Ġunt oward
Ġunt ired
Ġunt uned
Ġunt angled
Ġunt rodden
ĠNor bery
per ch
per formance
per forming
ĠShe pard
sw old
sw ift
sw orth
Ġrep ay
Ġrep ast
Ġrep ass
Ġrep ute
Ġrep ined
Ġrep uted
Ġrep osing
Ġrep lant
Ġrep liest
Ġrep aired
Ġrep rieves
Ġrep ulse
Ġbeg one
Ġbeg ged
Ġever more
Ġpe w
Ġpe at
Ġpe ise
Ġpe lic
Ġpe ering
Ġpe ereth
Ġpe bbles
Ġlive th
Ġlong ed
Ġlong ly
Ġchild ness
Ġfriends hips
Ġpoor ly
Ġcons ult
Ġcons pect
Ġcons erve
Ġcons ists
Ġcons olation
Ġcons istory
Ġcons umm
Ġcons pires
ĠGo verns
Ġty ing
Ġmight iness
Ġmight ier
Ġmight iest
com bs
Ġstay ing
Ġstay ed
ĠWar s
Ġrest ed
Ġrest ful
Ġrest itution
Ġrest orative
Ġhouse wife
Ġhouse keeping
Ġru g
Ġru ed
Ġru ins
Ġru dd
Ġru des
Ġru pture
Ġru diments
Ġhar row
Ġhar ts
its un
Ġcrown ing
ĠWarwick shire
Ġcour ser
Ġcour sers
ford s
Ġent ered
Ġent hra
Ġent itle
Ġent angled
Ġent itling
Ġent ombed
Ġlie u
Ġlie ve
erc ast
os est
Ġgr ange
Ġgr ating
Ġgr asp
Ġgr aybeards
Ġbetter ing
Ġi cicle
Ġstru gg
ĠPro ser
ĠPro voke
ĠPro perly
ĠPro vokes
Ġtri er
Ġtri pe
Ġtri pp
Ġser mon
cri cket
Ġkeep ers
Ġbest ial
Ġbest raught
che ering
che qued
Ġsle ight
Ġsle ekly
Ġcha fe
Ġcha me
Ġcha sed
Ġcha sing
Ġcha plain
Ġcha llenger
Ġcha riot
Ġcha peless
pi pe
pi pes
ĠServ ile
ĠDes olate
Ġacc user
Ġacc urst
Ġacc uses
Ġacc lam
Ġacc idents
Ġacc outrements
ĠSha ve
ĠSha med
hard y
hard iness
hard ening
ĠTy ing
ĠTy rian
ĠTy rants
ĠTy rann
Ġgri ping
Ġgri pes
Ġhence forward
ĠNot ing
ud inous
Ġcomp romise
Ġcomp ounds
Ġcomp utation
Ġcomp assed
ser y
ser ved
Ġcommon ly
Ġcommon ers
Ġcommon alty
ardon able
Ġend art
Ġend ures
Ġend uring
Ġkind s
Ġkind er
Ġkind ling
Ġyoung ly
Ġgu ided
Ġgu ider
Ġgu erd
Ġgu iding
Ġco pe
Ġco ign
Ġco ach
Ġco lic
Ġco ining
Ġco bble
Ġco active
Ġco bwebs
Ġco hered
Ġco vets
Ġpri zed
Ġpri zes
Ġpri oress
Ġpri esth
pro vided
ert on
ert ake
ert ainty
ert ainties
Ġpur itan
Ġwit ting
me asure
me gs
Ġsub missive
Ġsm atter
Ġsm ote
Ġsm utch
Ġsm acks
Ġsm othered
Ġdear s
Ġput ter
ason ably
Ġpath s
Ġpath way
Ġpath ways
Ġback ing
Ġhus ks
ach um
Ġfell est
sed ucing
Ġneed er
Ġneed ed
Ġneed ly
Ġearth y
Ġfind er
Ġfind ings
Ġbid es
ople xy
St ill
St rat
Ġlady bird
cl out
cl asp
cl aps
Ġval ues
Ġval ued
Ġhome ward
men cy
Ġhel per
Ġhel med
Ġtra pp
Ġtra ces
Ġtra gical
Ġtra ctable
Ġhigh most
Ġforth coming
Ġhusband ed
ren ed
ĠAll a
ĠAll ot
ĠAll aying
Ġbra g
Ġbra ch
Ġbra ver
Ġbra ves
Ġbra very
Ġbra wn
Ġbra gs
Ġpeople d
hip pe
Ġban e
Ġban ners
Ġban isher
Ġmind less
tw ig
ĠDo ve
Ġapp les
Ġapp ertain
Ġapp lied
Ġapp roof
Ġapp arition
Ġapp liances
right s
Ġshow ed
Ġshow est
Ġche ated
Ġche aper
Ġche veril
Ġconf used
Ġconf utes
Ġconf isc
Ġconf ixed
Ġconf iscate
Ġconf usions
Ġchar ging
Ġchar ities
Ġchar nel
ring er
Ġjoy ous
Ġjoy less
Ġjoy fully
Ġmaster less
Ġwo efull
Ġserv ile
Ġgl ut
Ġgl ide
Ġgl ues
Ġgl azed
Ġgl ances
Ġgl owing
Ġgl impse
Ġmist akes
Ġmist aken
Ġmist emper
Ġmist akings
Ġfort ed
Ġfort ress
Ġfort ify
Ġfort itude
ans ing
Ġbod ged
Ġbod ily
Ġbod kin
ĠRe be
ĠRe vive
ĠRe voke
ĠRe venged
ĠRe peal
ĠRe veal
Ġbring ings
Ġdou bleness
Ġpass able
Ġpass engers
ĠBo sworth
à¦ķà¦Ł à¦¬à¦°
sha ft
sha ken
Ġlight er
Ġlight nings
Ġnat urally
swer ver
Ġbes et
Ġbes peak
Ġbes creen
Ġbes eems
Ġbes pice
Ġthr ush
Ġthr ills
Ġthr illing
Ġroyal ize
co ated
Ġcame ls
Ġjust s
Ġsince rely
Ġpresent ation
Ġpresent eth
mb als
Ġdev ices
Ġdev ote
Ġdev ouring
Ġunder hand
Ġunder bear
Ġunder prop
Ġunder crest
Ġwrong ing
ĠOur s
ĠOur self
ping ham
Ġlast ed
Ġmis use
Ġmis like
Ġmis pl
Ġmis used
Ġmis place
Ġmis give
Ġmis app
Ġmis govern
Ġmis inter
Ġmis usest
Ġmis proud
Ġmis report
Ġmis gives
Ġmis leading
Ġmeet ings
Ġsorrow ed
Ġap ron
Ġap ricocks
Ġap ostle
Ġap oplexy
ĠSh uts
ĠSh outing
ĠSh rug
Ġanswer able
Ġtre bles
Ġch inks
Ġch iders
Ġch iding
Ġch isel
Ġch irur
Ġch imney
Ġch oughs
Ġbus sing
Ġpat rician
Ġfool eries
Ġhither to
Ġinter red
Ġinter pose
Ġinter pre
Ġinter join
Ġinter ruption
Ġinter ims
Ġinter changing
Ġinter mix
to pping
Ġhelp ful
Ġhelp less
ĠAl ps
ĠAl ready
ĠAl beit
ĠAl cides
Ġmaid ens
Ġfall ible
Ġgentleman like
Ġunc urse
Ġunc ons
Ġunc ivil
Ġunc onst
Ġunc log
Ġunc urrent
Ġunc hanging
Ġunc ontroll
Ġunc ertainty
Ġob serv
Ġob eis
Ġob servation
Ġbri dge
Ġthrow er
Ġthrow ing
Ġcourt ed
Ġcourt iers
Ġcourt ez
Ġcourt esies
air ing
Ġste als
Ġste ads
Ġste aded
Ġcoun ters
Ġstri ves
Ġstri king
Ġstri vest
Ġstri kest
Ġstri cken
Ġgracious ly
Ġwoman ly
Ġwoman kind
ject ural
ĠUn apt
ĠUn like
ĠUn mer
ĠUn pl
ĠUn law
ĠUn arm
ĠUn heard
ĠUn seem
ĠUn people
ĠUn rip
ĠUn comfortable
ĠUn even
ĠUn separable
ĠUn venerable
ĠUn manner
ĠUn clasp
ices tershire
Ġcomfort ing
Ġcomfort ed
Ġworth iness
Ġhum s
Ġhum bles
Ġhum bler
Ġsleep er
Ġsleep est
Ġbed ward
Ġbed ash
Ġbed rench
Ġbed fellow
Ġbed azz
Ġbed aub
Ġtalk est
Ġass ail
Ġass ailing
Ġass ociate
Ġass uage
Ġover come
Ġover joy
Ġover set
Ġover go
Ġover look
Ġover weigh
Ġover blown
Ġover whel
Ġover take
Ġover gone
Ġover ween
Ġover flow
Ġover fond
Ġover much
Ġover peer
Ġover ture
Ġsun k
Ġsun rising
ove able
Ġinst ate
Ġinst itution
Ġinst itute
Ġinst alment
ars op
Ġatt ire
Ġatt ired
Ġatt ires
Ġthank ed
Ġthank less
Ġseem ers
Ġsound er
Ġfault less
Ġplay ing
Ġplay fellows
Ġcur ts
Ġcur rants
Ġcur died
ĠMore over
Ġbo ard
Ġbo ss
Ġbo ors
Ġbo ats
Ġbo iled
Ġbo arded
raw l
Ġdeli cates
Ġpers pect
Ġkne els
Ġkne aded
Ġfight er
Ġvill ages
ĠHORTENS IA
Ġcare d
Ġsent entious
Ġsent inels
hold er
Ġgrave l
,' --
Ġmess es
Ġmess ages
Ġmerc er
Ġmerc hand
Ġmerc enary
Ġmerc atante
Ġdoubt ing
mp us
mp athi
Ġwant ed
Ġwant eth
cont ract
cont empt
ere ness
ere cted
pect ive
Ġwish ful
Ġbusiness es
Ġhang ings
Ġhang eth
ption s
ĠRes pect
ĠRes ides
ĠRes cued
ĠRes pecting
Ġdream ers
Ġcommand ers
Ġbreath less
ĠCom est
ĠCom pr
ĠCom mitted
Ġadv isings
ĠGentle woman
Ġlay s
Ġlay ing
Ġfree lier
Ġfree zes
Ġfree zeth
Ġport ly
Ġport ance
Ġport cull
Ġport entous
Ġwind y
Ġsen ator
Ġproud s
Ġproud lier
Ġpity ing
Ġchan geth
Ġspir iting
Ġget ter
Ġtend ed
eter a
pre y
ĠServant s
Ġstra nd
Ġstra ining
Ġstra ited
Ġsister ly
Ġgre asy
vers ity
Ġsaw est
Ġfoul est
Ġmistress es
Ġsovereign s
Ġsovereign ly
Ġgiv est
Ġgiv ings
ĠAt las
Ġbreak fast
Ġclo cks
Ġcontent ion
Ġcontent ious
Ġcra ven
Ġcra zed
ici ence
Ġappe all
Ġappe ase
Ġappe als
Ġappe ased
Ġappe areth
Ġappe ndix
Ġden iest
Ġden ote
Ġden unciation
ĠSay s
ĠSay ing
Ġhorse men
Ġsupp ress
Ġsupp ler
Ġsupp resseth
Ġsupp lant
Ġsupp lication
Ġsupp orters
Ġsupp osest
Ġfire d
Ġfaith less
Ġfaith fully
Ġcar ve
Ġcar man
Ġcar ping
Ġcar pet
Ġcar ouses
Ġcar nal
Ġcar oused
Ġcar ousing
Ġcar nations
ey eing
Ġmon uments
Ġmon achum
Ġsit hence
Ġwin ner
Ġwin ners
Ġrequ ites
Ġrequ ited
Ġrequ iring
Ġrequ isite
Ġmaj estical
Ġtraitor ly
Ġtraitor ous
ĠCan ker
ĠCan terbury
Ġprint s
ĠHast ing
Ġlam es
Ġlam ents
Ġlam ps
Ġlam pass
ĠJul io
Ġmet re
Ġmet res
Ġmet test
Ġmet aphys
BER T
Ġsight ed
ĠTybalt s
ĠPl ough
ĠPl aster
ĠPl ots
ĠPl aces
ĠPl acent
Ġfoot boy
Ġfoot stool
Ġsin n
Ġsin ister
Ġsin ner
Ġsin ners
Ġstring less
Ġwarrant ed
Ġsad der
Ġreport s
Ġreport ing
Ġgener ous
Ġgener ations
Ġgener ative
Ġgener osity
Ġos ier
Ġos prey
Ġfarewell s
Se er
De ath
Ġdeep est
sum ing
ĠPy gm
Ġsure st
Ġdict ator
derive d
Ġcho king
Ġcho pping
Ġcho pped
ĠCam est
Ġdep op
Ġdep rived
Ġbur r
Ġbur rows
Ġbur thens
Ġbur gher
Ġbur dens
Ġcold est
Ġcold ness
Ġgrow eth
ĠClifford s
up iscible
Ġbu z
ĠGre cian
Ġask er
Ġask ance
Ġask eth
ĠCor rupt
Ġwat ches
ĠTell est
Ġsuff rage
Ġsuff iceth
Ġpluck er
ĠWh iter
ĠWh oop
ĠWh isper
ĠWh itsun
Ġag ate
Ġag ile
Ġag ents
Ġag rees
Ġag ued
Ġag let
Ġag gra
Ġag round
ift ed
Ġair s
Ġpoint ing
ĠSome what
Ġheir less
Ġspirit ual
ĠLike ly
mer ry
Ġhard en
Ġhard ness
Ġhard iest
Ġhard ening
Ġbat he
Ġbat ing
Ġbat hed
Ġbat ten
Ġbat talion
Ġpast e
Ġpast ry
Ġpast ures
Ġpast orals
Ġdesire st
Ġdesire rs
Ġtrust s
Ġtrust ing
Ġground ed
ĠCon ceive
ĠCon vey
ĠCon ceit
ĠCon ceives
ĠCon quer
ĠCon cluding
ĠCon geal
ĠCon formable
ĠCon jectural
ĠCon suming
Ġfound ations
Ġvis ion
Ġvis itor
Ġvis ible
Ġdisp ort
Ġdisp osing
Ġdisp lace
Ġdisp ossess
Ġdisp enses
Ġdisp aragement
Ġdisp raise
Ġservice able
Ġord nance
Ġmur rain
Ġmur mur
Ġang ling
Ġang led
Ġbetw itched
Ġquick sand
LE MEN
Ġstrong est
Ġwear iest
Ġinf old
Ġinf used
Ġinf usion
Ġinf ants
Ġinf liction
Ġinf irmities
ĠSee k
ĠSee ly
à§§à§« à§«à§«
Ġfast en
Ġfast est
Ġwoo es
Ġwoo llen
Ġfit test
Ġfit teth
Ġgrant ing
ract ed
Ġpar ish
Ġpar son
Ġpar amour
Ġfur row
Ġfur ze
Ġfur bish
Ġprof iting
Ġprof essed
Ġquar ry
Ġà¦ĩà¦® à¦ª
be fore
be lieve
be loved
ĠMaster ly
Ġspeed ing
Ġspeed ed
Ġdist ill
Ġdist ant
Ġdist rain
Ġdist inction
Ġdist racted
Ġdesp ise
Ġdesp iteful
Ġstreng the
ĠShepherd ess
op atra
Ġfore ward
Ġfore noon
Ġfore cast
Ġfore fend
Ġfore said
Ġhell ish
Ġmin ion
Ġmin ions
Ġmin nows
Ġmin ority
Ġdiv ides
Ġdiv ining
Ġdiv inest
Ġdiv ideth
Ġfield ed
Ġbehold er
Ġcond emns
Ġjud ges
Ġjud icious
Ġjud gments
Ġmock er
Ġmock ers
pl ant
pl uck
pl ined
pl ished
Ġcr one
alm ost
Ġshort ness
Ġshort ens
Ġdam age
Ġfeel ingly
Ġinc ertain
Ġinc ident
Ġinc ision
Ġinc idency
Ġinc redible
Ġinc haritable
Ġbound eth
Ġye oman
Ġwret ches
Ġhearts ick
ĠDe ck
ĠDe ceive
ĠDe ceived
ĠDe ceit
the y
the ads
Ġten ement
Ġten ants
Ġwhi pp
Ġdraw er
Ġdraw ing
Ġdraw bridge
Ġrun ners
Ġrun away
Ġguilt ier
Ġattend s
Ġattend ing
Ġattend ant
Ġwidow hood
Ġburn ed
Ġburn eth
Ġdish clout
Ġwork manly
Ġmus cad
Ġtrib utary
Ġsat iety
Tw ould
Ġcor por
Ġcor respon
Ġcor onet
ĠCA IUS
Ġsing er
Ġsing ly
Ġsing leness
Ġconfess es
Ġconfess ing
ĠAr gues
ĠAr istotle
Ġdisc ase
Ġdisc olour
Ġdisc losed
Ġdisc oursed
Ġhot ly
Ġhot ter
ĠCap er
ĠPet rarch
Ġwast eful
Ġaff ied
Ġaff ray
Ġaff ability
ĠBianc o
hood s
Ġstir reth
ĠMarry ing
ĠSw ord
ĠSw ills
ĠSw arm
ĠSw inge
ĠCh oose
ĠCh orus
Ġext ended
Ġext inct
Ġext raught
Ġthanks giving
Ġsign or
Ġsign et
Ġgar b
Ġgar ners
Ġsk ains
Ġsk ilful
Ġtitle less
Ġforg ery
Ġforg iven
ĠHER BERT
ĠUnt ouch
ĠUnt ainted
ĠUnt utor
Ġchee red
Ġprom pter
Ġprom iseth
Ġprom ontory
Ġabs olved
Ġweak en
Ġweak ly
Ġweak est
Ġweak ling
Ġsick er
Ġsick en
Ġsick liness
Ġjest ed
Ġplain er
Ġplain ing
Ġplain est
ĠRich ly
ĠPetru cio
Ġbig amy
Ġsoft est
ĠJO SEPH
Ġwall ow
Ġcast les
Ġcast aways
Ġac orn
Ġreg ia
Ġreg ions
Ġreg enerate
Ġissue less
Ġev ade
Ġev asion
Ġev idences
Ġprop agate
Ġprop agation
Ġwise lier
ĠBes ide
ĠBes pake
Ġcheer ing
Ġforget s
Ġforb ad
Ġpoison s
Ġpoison er
Ġconsul ship
Ġconsul shi
ĠAufidius es
uff icience
Ġbook ish
Ġwed ged
Ġdire st
Ġbad est
Ġbad ness
Ġbad ges
Ġrec all
Ġrec ure
Ġrec ourse
Ġrec anting
Ġmove th
Ġwis p
Ġemb ark
Ġemb oss
Ġemb owell
Ġemb roider
Ġrequest s
Ġrequest ed
Ġsur ge
Ġsur ges
Ġsur pass
Ġsur vive
Ġsur geon
Ġsur feiting
Ġsur viv
Ġsur render
Ġbegin ners
Ġconsent ing
ĠAb el
ĠAb ase
ĠAb ides
ĠAb ated
vo ided
vo iced
Ġenc hant
Ġenc losed
Ġenc loseth
Ġenc ertainties
Ġtrou bler
Ġtrou blesome
ĠSpeak est
Ġfeast ed
Ġquarrel some
ĠRichmond s
Ġund ream
Ġund oubt
Ġund oes
Ġund oubted
Ġund isc
Ġund utiful
Ġund eaf
Ġund eck
Ġund iscovered
rest rial
Ġcase d
Ġcase ments
ĠMust er
Ġvict ress
Ġvict ories
Ġest ates
Ġdread s
Ġdread fully
Ġred oubled
ĠMarg ery
Ġbrief er
Ġservant ed
ĠPre vent
ĠPre vail
ĠPre ys
ĠPre posterous
ĠPre occup
so led
Ġpen ance
Ġpen alties
Ġpen cil
bl ade
ĠKeep down
Ġexp ound
Ġexp ire
Ġexp osition
Ġexp iring
Ġexp uls
Ġexp iration
Ġexp loit
Ġbow ling
Ġbow ls
Ġble w
Ġble at
Ġble ated
Ġble aching
Ġble nded
Ġcap ers
Ġcap acity
Ġcap itulate
Ġcompl ot
Ġcompl iments
ILI P
ĠSaint s
Ġrespect ing
Ġrespect ive
Ġflatter s
Ġflatter ies
ĠBaptist s
Ġta pp
Ġta vern
Ġta verns
Ġmoon s
Ġmoon light
Ġmoon shine
Ġbro king
Ġbro iled
Ġbro ker
Ġdra b
Ġdra ve
Ġdra bs
Ġdra ught
Ġdra chm
Ġjo llity
Ġbuy er
Ġpret end
Ġpret ending
Ġpret ext
Ġappear ance
Ġvow ed
Ġvow el
Ġancient ry
Ġusur ies
Ġusur per
Ġdishon esty
Ġdishon oured
Ġbitter ness
ĠBl anc
ĠBl ister
ĠBl ubbering
Ġdog g
Ġcross ly
Ġcol ts
Ġcol oured
Ġbar m
Ġbar bed
Ġbar ric
ĠDown load
Ġlim p
Ġlim ber
Ġlim ping
Ġlim itation
Ġreb ate
Ġreb used
Ġreb ukes
Ġflesh monger
Ġopp osition
Ġopp resseth
Ġopp robri
ĠRoman o
Ġcreat ing
Ġappro acheth
Ġbawd ry
Ġscorn ful
Ġscorn fully
Ġtriump hing
Ġvaliant ness
Ġlament ing
Ġlament ably
ĠAm ity
su ited
ĠJo g
Ġgall ants
Ġgall eys
Ġgall iases
Ġgall imauf
sc apes
Ġoffer ing
ĠChrist ians
Ġprin cox
Ġsecret ly
sh ut
sh own
sh rew
sh runk
ĠMerc iful
Ġvisit ed
Ġdark est
Ġter med
Ġter restrial
Ġbec hanced
Ġlack ed
Ġpit ched
Ġpit cher
Ġpit tance
ĠOxford shire
antag ing
Ġdefend er
Ġdefend ing
Ġdefend ed
Ġdefend ers
ĠAd judged
ĠAd onis
ĠAd riatic
ĠAd versity
ĠOff ended
ĠOff icious
ĠOff iced
ĠEx empt
ĠEx act
ĠEx ped
ĠEx cels
bit ten
Ġnay ward
Ġdest inies
Ġid les
Ġid leness
Ġid olat
Ġprov and
Ġprov ides
Ġprov inces
Ġprov okest
Ġprov incial
Ġins ult
Ġins hell
Ġins ufficience
Ġben ched
Ġben cher
Ġben ediction
ĠWhi pt
ĠWhi pp
Ġbeast liest
Ġunw ares
Ġunw ept
Ġunw itting
Ġunw ashed
Ġunw edge
Ġocc ident
Ġocc asions
ĠBohem ian
Ġchance llor
Ġexecution ers
Ġdamn ation
ĠNorthumberland s
ĠBr utus
Ġpain ter
Ġpain fully
Ġdu ly
Ġdu cat
Ġdu chess
ament al
ĠSweet ly
cience d
rem oveable
Ġfond ness
Ġeas iest
Ġmusic al
Ġtrump eter
Ġfavour ing
Ġtear ing
Ġtear ful
Ġproceed ed
Ġproceed ers
Ġoffence ful
Ġgrie ving
ny mphs
Ġwild est
Ġfr oth
Ġfr ames
Ġfr isk
Ġur n
Ġur chins
Ġcle ars
Ġcle arer
Ġcle aving
Ġcle ansing
Ġshi vers
Ġshi vering
force ment
ĠEnglish men
Ġwalk ed
Ġinj unctions
Ġay e
Ġshad y
ĠStay ing
Ġchurch men
Ġmatch ing
Ġslew est
Ġtreason able
Ġmod erately
Ġmed ler
Ġmed lars
Ġmed itating
Ġem inent
Ġem peror
Ġem pery
ons hire
ĠMen elaus
Ġsho ps
Ġsho ots
Ġsho vels
Ġsho emaker
ĠOut live
Ġsecond ed
Ġsecond ary
Ġfam ine
ĠWatch ing
Ġlist ed
Ġlist ening
Ġhur ly
Ġhur dle
ĠMist rust
Ġcontin ent
Ġcontin ually
Ġcontin uing
Ġmarch ing
Ġmarch pane
Ġsole mness
Ġneck lace
Ġunk iss
Ġreign ing
Ġshepherd ess
Ġkneel ing
Ġbreathe st
Ġforbid den
Ġdishonour able
ĠPlantagen ets
ne as
ne ck
ne gl
ne eded
ban ishment
ĠInt end
ĠInt ents
ĠInt ending
ĠInt olerable
ĠAnt ony
ĠAnt ipodes
Ġfresh ness
Ġgrand child
Ġdrunk ards
Ġref ell
Ġref ined
Ġref rain
Ġref usal
Ġcru eller
Ġpet tit
Ġsort s
Ġheld ing
ĠHea vy
ĠHea rest
ĠHea viness
Ġtemp ter
Ġtemp ers
Ġmorrow s
Ġdry beat
Ġoft ener
Ġoft entimes
Ġvain er
Ġvain ly
Ġproclaim s
Ġremain ing
Ġremain ed
Ġremain der
Ġappare ll
Ġobey s
Ġobey ed
Ġcondemn ation
Ġjoin er
urs ors
Ġhair less
ĠMe an
pr us
Ġview ing
Ġview less
Ġfat ting
Ġfat igate
Ġlau rel
Ġlau ghed
ĠPer use
ĠPer mitted
ĠPer pet
ĠPer fume
ĠPer jury
Ġsus picious
Ġsaf est
Ġlust s
Ġlust re
Ġlust ier
Ġlust iest
ĠHear ing
Ġeffect ed
Ġeffect ual
Ġentertain er
Ġsli pt
Ġsli ps
Ġcounter vail
Ġcounter point
Ġcounter feiting
Ġwarm th
Ġthreat ens
Ġscar f
Ġscar fs
Ġsuccess or
Ġsuccess ive
Ġsuccess fully
Ġsuccess ively
Ġfru strate
Ġswift ness
Ġprecious ly
erle ap
Ġrevere ntly
Ġstain ed
Ġstain less
Ġblessed ly
Ġencounter ing
ĠEn vied
ĠEn rich
ĠEn franch
ĠEn velope
ĠFri days
ĠDis semble
ĠDis order
ĠDis comfortable
ĠDis mant
ĠDis proper
ĠDis bursed
ĠDis plant
ts ied
Ġpun ishes
ip otent
Ġstud ded
Ġhealth s
Ġhealth y
Ġhealth some
Ġcapt um
Ġcapt ivity
Ġcapt ivates
Ġpal y
Ġpal ate
Ġpal ates
Ġpal ms
Ġpal mer
Ġpal tering
Ġsour ly
Ġmount ebank
Ġsto pping
Ġsto ics
Ġplant ation
Ġplant eth
;' --
Ġmut ter
Ġmut able
Ġmut iners
Ġcorn er
Ġdeterm ines
Ġdeterm ination
Ġdeterm inate
Ġsever ing
Ġsever als
Ġcontr aries
Ġmasters hip
ĠSc ars
ĠSc aring
ĠSc ales
ĠSc aling
ĠSc ratches
ĠLea p
:-- '
Ġsim ile
Ġsim ples
ern ible
ounce d
Ġcred itor
Ġcred itors
Ġcred ulity
Ġdemand ed
Ġrot e
Ġaid ing
Ġaid less
Ġguard ed
Ġguard ant
Ġfoolish ly
Ġjudge ment
Ġusurp ed
Ġusurp ers
Ġà¦¨à¦Ĺ à¦°à¦¬
ĠLo ath
ĠFl ow
ĠFl int
ĠFl utter
Ġrid iculous
ĠBet id
ĠBet roth
ĠMus icians
Ġimag ery
Ġimag inary
asc ule
Ġcirc le
Ġcirc ling
Ġcirc uit
Ġforce ful
Ġchast ise
Ġchast ised
Ġglass y
Ġpack et
Ġpack ed
Ġbright ness
Ġthie vish
ĠBid s
ĠBid ding
Ġexce ptions
Ġwail s
Ġease ful
Ġblame ful
Ġdism ay
Ġdism ember
Ġdism issed
Ġfellows hips
Ġmiser ably
Ġbenef ice
Ġbenef its
ĠSp urn
ĠSp ake
ĠSp akest
ĠSp irits
ĠSp rawl
Ġschool masters
Ġblind s
Ġblind ing
Ġblind ly
ĠLe icestershire
Ġsport ive
Ġver se
Ġver ier
Ġver dure
Ġboot ies
vol ences
Ġroot ing
Ġroot eth
Ġflower y
Ġflower ing
Ġacqu itt
Ġwre cks
Ġwag es
Ġwag ed
Ġwag gon
Ġgod fathers
Ġunf ill
Ġunf irm
Ġunf inish
Ġunf urnish
Ġunf ledged
Ġunf ashionable
Ġunf urnished
Ġfirm ness
Ġconvey ed
Ġconvey ers
Ġconvey ances
Ġgown s
Ġincl ining
Ġincl udes
Ġincl inest
Ġincl usive
Ġvile ly
Ġarri ves
Ġarri ving
Ġtyrant s
Ġcover let
Ġpossess or
Ġpossess es
Ġprophe ts
Ġed ges
Ġartic ulate
Ġind ite
Ġind igested
aff righted
Ġhol iness
ĠTut us
ĠSom erville
Ġcure less
Ġthunder ing
Ġunl oose
Ġunl awfully
Ġspring ing
Ġflat ly
Ġflat ness
Ġflat terest
Ġflat tered
Ġtread ing
Ġgross ness
Ġghost s
Ġstab s
Ġbutcher y
Ġbutcher ly
Ġsheep s
Ġprevent ion
Ġprevail ing
Ġrepent ant
Ġundert a
Ġundert akes
Ġsilence d
Ġembrace ment
ked st
ĠSu ps
ĠSu itors
Ġlar ks
Ġinform al
Ġshar ps
ĠTurn ing
Ġround ing
Ġemp oison
Ġemp iric
ĠFr amed
Ġdec rease
Ġdec ayed
icious ly
she athed
anch or
Ġhollow ly
Ġdesign ments
Ġdelight ed
Ġship board
Ġlangu ages
Ġgarden ers
Ġtempt ing
ĠApoll os
Ġempt ies
Ġempt ier
ĠSic ilian
Ġbark ing
Ġloath ness
Ġloath som
Ġshr inks
Ġsail maker
Ġfright s
Ġfright ful
Ġassist ing
Ġassist ant
Ġassist ants
Ġviolent ly
Ġviolent est
Ġutter most
Ġcountenance d
uss ing
rib bed
cha se
cha pp
cha sed
Ġperfect er
Ġperfect ed
Ġsens ibly
ĠGreat er
Ġstuff s
Ġearn ed
Ġow eth
Ġow ls
Ġpi ke
Ġpi ping
Ġstat ute
Ġstat ues
Ġamb uscad
eous ly
Ġthrust eth
ĠCo ppers
Ġdew y
Ġjealous y
Ġquit ted
Ġheav ings
Ġheav iest
Ġstorm y
Ġtedious ness
Ġwont ed
Ġinfect s
Ġuns ay
Ġuns afe
Ġuns isting
Ġuns atiate
Ġuns atisf
Ġuns avoury
Ġuns ubst
Ġuns aluted
Ġresign ation
Ġoutward ly
Ġoffend ing
Ġplead ing
Ġplead ers
Ġruin ate
Ġpersu ading
Ġrememb ers
Ġrememb rances
Ġinstruct s
Ġnobles se
Ġcolour ing
ilf ully
que an
Ġbond maid
Ġtrans mutation
Ġca ution
Ġca verns
Ġca usest
Ġca utel
Ġca etera
Ġstep p
Ġtop most
Ġange lical
ib ans
Ġband ying
Ġwait eth
Ġbrook ed
Ġstore house
Ġdirect ing
Ġdirect itude
Ġphys ical
Ġphys ics
Ġmat ron
Ġmat rons
Ġcal ved
Ġline ally
Ġline ament
Ġvan ities
Ġaccess ary
Ġweight ier
Ġequ all
Ġequ als
Ġdelay s
Ġdelay ing
Ġspeci alties
Ġcircum vention
Ġcircum spect
Ġcircum mured
Ġterror s
Ġcens er
Ġlend ings
Ġbew ail
Ġbew eep
Ġbew ept
Ġconj ures
Ġconj unction
Ġlod ges
Ġlod gers
Ġlod gings
Ġsway ed
Ġunnat urally
Ġspend thrift
Ġcontract ing
Ġperil ous
Ġwrath ful
Ġlean ing
Ġaccuse th
Ġcurst est
Ġadvantage ous
Ġburthen ous
Ġprotest ing
Ġprotest ation
Ġpetition er
Ġpetition ers
Ġpetition ary
Ġthreaten ed
Ġsanct ity
Ġsanct imon
Ġsanct ifies
ĠRep roach
ĠRep rieve
ĠRep orts
Ġwhore master
Ġwhore monger
Ġmiss es
Ġmiss ingly
Ġdag gers
Ġbot cher
par adise
Ġcup board
Ġbas in
Ġbas er
Ġbas es
Ġbas est
ĠNap s
Ġfra ud
Ġfra gments
Ġrel ate
Ġrel ents
Ġrel ished
Ġbud get
Ġbud ger
Ġbud ding
Ġvent ed
Ġvent urous
Ġspr inkle
Ġspr itely
Ġmarket place
Ġwood man
Ġgru bs
Ġgru mble
Ġgru dges
Ġgru dging
Ġcomb less
Ġcomb ating
Ġcomb inate
Ġsharp est
Ġemploy ment
Ġemploy ments
Ġfle a
Ġfle er
Ġfle eter
Ġfle cked
Ġfle xible
Ġreward er
ĠFrench woman
Ġunb ow
Ġunb id
Ġunb ound
Ġunb reech
Ġunb uckle
Ġunb uild
Ġunb arbed
Ġunb uried
Ġunb raided
Ġunb urnt
Ġintent ion
Ġpartic ulars
Ġsmo othing
Ġattempt s
Ġattempt ing
Ġattempt ed
Ġsqu are
Ġsqu ier
Ġsqu arest
Ġscept res
Ġmourn ers
Ġmourn ings
Ġmourn fully
Ġfro lic
Ġcalm ness
Ġdign ities
Ġdign ified
Ġdign ifies
Ġhunt ed
Ġheed less
Ġheed fully
Ġweigh s
Ġdebt s
Ġquench less
Ġdiscover ies
Ġdiscontent ing
Ġexpect ing
Ġado pt
Ġperpet ually
Ġperpet uity
Ġfee bly
Ġfee bling
ĠBeseech ing
Ġcomplain ings
Ġgriev ance
Ġgriev ances
Ġwreck ed
ĠUnc ase
ĠUnc ertain
ĠUnc haritably
ĠSet eb
Ġdi verse
Ġsky ey
Ġhost ility
Ġhost ages
atic a
ĠCal ibans
ĠRos cius
Ġmag ician
lar um
lar ums
ĠRem it
ĠRem ain
ĠRem aining
ĠYoung ling
whe n
whe els
whe lp
Ġalter ing
Ġgrey beard
Ġtest ed
Ġhaz ards
cer ies
cer ns
what e
ĠRet ain
ĠRet orts
Ġmill iner
Ġfeed er
Ġfeed ers
?-- '
Ġodd est
Ġimm ured
Ġimm aculate
Ġtap ers
Ġtap sters
Ġtap estry
Ġglo se
Ġglo sses
Ġglo oming
Ġprofess ors
Ġsav ageness
Ġvenom ous
Ġoppos er
Ġparticular ly
Ġparticular ise
Ġsmooth s
Ġsink ing
Ġmaint enance
Ġrepe als
Ġisland s
Ġweather s
Ġconce ption
Ġconce ives
Ġconce aled
Ġvault y
Ġshun less
Ġbeth ought
Ġintell ect
Ġintell igent
Ġslay s
Ġadvers ity
Ġvex ed
Ġconsider ate
Ġaccord ingly
Ġcompan ies
Ġpurcha sing
Ġmaiden hoods
Ġstrew ed
Ġprivile ged
Ġprivile ges
Ġprivile gio
Ġapproach ing
Ġtorment ing
Ġtorment ed
Ġtorment ors
Ġprosperous ly
Ġcounterfeit ly
Ġbehalf s
Ġtreacherous ly
Ġearnest ly
Ġdisdain ed
Ġdisdain ful
ĠCont end
ĠCont ract
ĠCont empt
ĠCont aining
ĠCont rolling
Ġsuck le
ĠBra ch
ĠBra ved
ĠBra gs
ĠStri ves
ĠComm une
ĠBer wick
ĠBer moot
ĠSupp ly
ĠSupp lied
Ġvirgin al
Ġvirgin alling
Ġdestroy er
af ed
Ġchat tels
Ġdress er
Ġdress ings
Ġwa vering
Ġlat ches
Ġlun acy
Ġsham es
ĠSm iles
ĠSm alus
Ġfig ures
Ġfig uring
Ġcharact s
Ġrecord er
Ġdig ress
Ġdig ging
Ġdig estion
Ġdig ressing
Ġrevol ting
Ġrevol ts
Ġcurrent s
Ġesc apes
Ġavoid ing
Ġjourney s
Ġjourney man
Ġing ots
Ġing redient
Ġbury ing
Ġfurn ace
Ġfurn iture
Ġcatch ing
Ġmelt s
Ġrede ems
Ġrede liver
Ġrecom mend
Ġrecom pensed
Ġstamp ed
Ġseason s
Ġconceit ed
Ġamazed ly
Ġamazed ness
Ġmuster ing
Ġspur r
Ġspur ring
Ġruth ful
Ġabhor red
Ġabhor ring
Ġadver tise
Ġperj uries
Ġrebell ious
Ġmaintain ed
con ceived
con strue
Th ough
eat ers
ĠAcc use
ĠAcc ords
ĠAcc omplish
gu ide
ĠUp braid
ĠTr ot
ĠTr iton
ĠMin ion
ĠMin os
ĠFo es
ĠIm mod
Ġstro kedst
ĠConf ound
ĠConf ounds
ĠConf usion
Ġcat ched
Ġcat alo
Ġsal ter
Ġsal uteth
Ġmir y
Ġmir aculous
Ġpot ch
ĠPri am
ĠPri vy
Ġune lected
Ġune qual
Ġtall er
ĠGu ilty
ĠGu iltier
ĠCons ul
ĠCons isting
ĠCons enting
Ġsnow y
upt urned
Ġdri er
Ġdri ves
Ġdri velling
Ġdri zzle
Ġresist s
Ġapt ness
Ġdim ples
Ġdim ming
Ġprick ed
Ġhor sed
Ġhor izon
Ġhabit ed
Ġhabit ation
ĠCond uct
ĠCond emns
ĠCond emning
Ġdepend ent
Ġdepend ant
Ġdepend ency
ĠQu oint
ĠQu arrel
ĠQu intus
ĠProceed ed
Ġwing dalls
Ġcher ry
Ġcher ubim
Ġdow dy
Ġlent en
Ġoak s
Ġinqu iry
Ġinqu isition
ĠSix score
ĠCur ster
Ġstout ly
Ġdeceit ful
Ġvessel s
Ġmanif old
Ġblunt ly
Ġung ot
Ġung ently
Ġung rave
Ġung enitured
Ġsple ens
Ġsple ndor
Ġdisple ase
Ġexerc ises
ĠNoble man
Ġdescend s
Ġdescend ing
Ġdescend ed
Ġbetray s
Ġrare ly
Ġremorse ful
Ġremorse less
Ġbegu il
Ġbegu iles
Ġhousehold s
Ġrust le
Ġrust ic
Ġaccident al
Ġaccident ally
Ġsmell ing
Ġhelm et
Ġmistrust ing
Ġmistrust ed
Ġmistrust ful
Ġcraft y
Ġcraft ed
Ġcraft ily
Ġregard ed
Ġdirection s
Ġpitch y
Ġforswear ing
Ġunkind ly
Ġsuspect s
Ġsuspect ed
Ġsubstit ution
Ġstabb ing
Ġpilgrim s
Ġpenitent ly
ĠRa ise
ĠRa ised
ĠHo b
ĠHo ping
ĠHo isted
Ġsy cam
Ġsy mpathi
Ġsuper stit
Ġsuper stition
ĠVal iant
Ġtorture r
lu ce
Ġtim ed
ĠAf resh
ĠAw hile
ĠAw akes
asp iring
ĠCle ave
ĠCle opatra
Ġwithdraw ing
Ġeng aol
Ġeng aged
Ġeng rave
Ġthick er
Ġthick et
Ġthick est
Ġinv ited
Ġinv ocate
Ġinv ocation
Ġinv incible
ĠBetter ing
Ġbon fires
ĠSound post
mong ers
Ġdeb ate
Ġdeb ile
Ġdeb ating
Ġdeb atement
Ġvol uptuous
Ġvol ubility
ĠFollow ing
Ġwid est
Ġwid ens
Ġlap sing
Ġlap wing
ĠFort unate
ĠHim self
Ġspect acles
Ġspect acled
Ġdecl ension
Ġunp ink
Ġunp arted
Ġunp ossess
Ġunp ossible
Ġunp olish
Ġunp ardonable
Ġrain bow
Ġvel ure
Ġze alous
Ġmood s
Ġtoil ing
Ġfierce ly
Ġwhit est
Ġwhit eness
Ġremoved ness
Ġconfirm ed
Ġconfirm ation
Ġcorrupt ing
Ġtaunt ed
Ġtaunt ingly
inct ively
Ġmirth ful
Ġwink ing
Ġwink ed
Ġbuck et
Ġbuck led
Ġbuck ets
Ġcost ly
Ġcost ard
Ġnap es
Ġnap less
Ġped lars
Ġbeget s
Ġbelong ing
Ġbelong ings
ĠSomet hing
Ġdeck ed
Ġlift ed
Ġfawn ing
Ġknot ty
Ġshri ved
Ġshri ving
Ġretire ment
Ġunst able
Ġunst aid
Ġunst uff
Ġunst ooping
Ġproclam ations
Ġwarri or
Ġrail er
Ġfeather s
Ġrepose th
Ġgrat itude
Ġcommonwe al
Ġcoff er
Ġcoff ins
Ġcurt ail
Ġcareless ness
Ġabsolute ly
Ġproport ions
Ġblem ished
Ġblem ishes
Ġtriumphant ly
Ġoccup y
Ġoccup ations
Ġdisgu iser
Ġmodest ies
Ġchaste ly
Ġshrewd ly
Ġshroud s
Ġshroud ed
Ġconceal ing
Ġredeem ing
Ġtrespass es
Ġsepulch res
Ġale house
ĠGr issel
ĠBre cknock
ĠWed ges
ĠApp ointed
ĠApp arent
ĠApp roach
ĠApp rehend
ĠApp laud
ĠAtt orney
Ġnet tled
Ġmil ch
ĠImp ute
ĠImp rison
ĠImp arts
ĠImp rim
ĠImp lore
ĠImp airing
ĠPart ly
ĠPart ake
ĠPart let
Ġbeaut ify
Ġdece ase
Ġdece ivest
ĠCast ing
ĠPur ge
ĠPur sue
ĠPur chase
ĠFind s
ĠFind ing
ĠFair ly
Ġreply ing
Ġrestra ining
Ġtou ched
Ġtou gher
Ġhoney comb
Ġgodd ed
Ġdrag ons
Ġmoral ity
Ġbill ows
Ġbill ets
Ġbill eted
ĠWit ty
Ġdrunken ly
Ġdower y
Ġink y
Ġink les
Ġink ling
Ġstraw s
ĠGree ks
Ġarrest s
Ġblast ing
Ġblast ed
Ġspl its
Ġspl inter
Ġspl inters
Ġadmit ting
Ġchildish ness
Ġcheap est
Ġunfold ing
pardon ne
Ġtro phy
Ġtro vato
Ġtren chers
Ġmour ns
Ġward er
Ġbag s
Ġbag pipe
Ġfret s
Ġfret ted
Ġnumb ness
Ġlur ks
Ġlying est
Ġpear ls
Ġpace d
Ġthin ly
Ġhind s
Ġheap ing
Ġbere aves
Ġbere aved
Ġnoted ly
ĠMethought s
Ġstern ness
Ġdeaf ness
ĠEly sium
Ġswore st
Ġunm eet
Ġunm ade
Ġunm ask
Ġunm arried
Ġunm oan
Ġunm usical
Ġunm indful
Ġunse ver
Ġunse asonable
Ġunfe eling
Ġupright eously
Ġalms man
Ġscatter s
Ġflow ed
Ġflow ered
Ġflourish ing
Ġtrif le
Ġtrif ling
Ġserp ents
Ġserp igo
Ġbestow ed
Ġmisfort unes
Ġcounsell ors
Ġboast s
Ġboast ing
Ġmonarch ize
Ġcram med
Ġliberal ity
Ġtyrann ical
ĠRemember ing
Ġcompanion ship
Ġapprehend ed
Ġafflict s
Ġcherish ing
Ġnuptial s
Ġsacrif ices
Ġsacrif icing
ĠSus pect
ĠSus picion
ĠSus pecting
Ġdom ineer
Ġdom estic
Ġpor ch
Ġpor ridge
Ġpor ringer
Ġpant ry
Ġpant ler
Ġpant aloon
Ġwet her
des erving
br oth
ĠAdd ed
Ġcomment ing
Ġsau ced
Ġsn ail
Ġsn arl
Ġsn ip
Ġsn arling
Ġsn eaping
Ġcop ious
Ġcop atain
Ġaud it
Ġaud acious
Ġcent uries
Ġcent urions
Ġlock ed
Ġlock ram
ĠAdv ocate
ĠAdv antaging
ĠSub jects
ĠMis think
ĠMis construe
ĠMis guide
Ġleg ion
Ġpick ing
Ġpick lock
Ġfin er
Ġfin ished
Ġbuzz ed
Ġbuzz ards
Ġbol ster
Ġbol ts
Ġdem ise
Ġdem igod
ĠVirt uous
Ġgoddess es
bey s
kind led
Ġwax en
Ġwax es
Ġwax ed
Ġbru it
Ġbru ise
Ġbru ised
Ġsoci able
Ġsoci eties
Ġraven s
Ġraven ous
got ha
got ten
Ġwave d
Ġwave rer
Ġtops ail
Ġheight en
ĠSly s
ĠHon esty
alter ies
Ġransom ed
Ġaccom pt
Ġaccom mod
Ġaccom plished
Ġstrict ure
Ġprompt ure
Ġrobb ing
ĠDisp ark
ĠDisp ute
Ġtack les
Ġtack ling
Ġtack led
Ġtack lings
Ġslight s
Ġslight ly
Ġslight ness
Ġfrank ly
Ġfrank lins
Ġcab ins
Ġlance d
Ġpent ecost
Ġpill ory
Ġpill ars
Ġpomp ous
Ġgn ats
Ġgn arling
Ġgn arled
Ġgains aying
Ġgains ays
Ġhail stone
Ġrend s
Ġrend ers
Ġsevere st
Ġsevere ly
Ġconsequ ently
Ġconcer ning
ĠYield s
ĠYield ed
iliar ly
Ġvast idity
Ġshru b
Ġshru bs
Ġshru gs
Ġshru nk
Ġblot ted
Ġgoss amer
Ġunre al
Ġunre asonable
Ġunre asonably
Ġrouse d
Ġprefer r
Ġprefer ments
Ġplebe ii
Ġrack ing
ĠProclaim s
ĠProclaim ed
ĠDesp ite
ĠDesp air
ĠDesp ising
ĠDesp iteful
Ġcozen ing
Ġcozen ed
Ġcozen ers
Ġsmil est
Ġsmil ingly
Ġtravell ing
Ġtravell est
Ġtravell ers
Ġmisc all
Ġmisc arry
Ġmisc reant
Ġmisc arries
Ġobsequ iously
Ġattorney ed
Ġthankful ness
Ġmerri er
Ġmerri est
Ġinfer r
Ġparce ll
Ġcrook back
Ġprophes ied
Ġexped ience
Ġexped ient
Ġslipp ers
Ġconclud es
Ġconclud est
Ġfrost s
Ġfrost y
Ġfalcon er
Ġceremon ies
Ġsufficient ly
Ġfreedom s
Ġnarrow ly
het ua
Ġcoll ar
Ġcoll ars
Ġcoll op
Ġcoll iers
po or
ĠChe ated
ĠChe quering
ĠRel ate
ĠRel ish
ĠRel enting
ĠDep ose
ĠDep ress
ĠDep osed
ĠDep osing
Ġthrees core
Ġann als
ĠTra itor
ĠTra itors
ex perienced
ĠHar ford
bo lical
Ġsupport ance
ĠDiv ide
ĠDiv ides
ĠDiv ided
ĠBel man
ĠBel gia
ĠBel onging
Ġbald pate
Ġsearch ing
Ġbrand ish
ĠDest ruction
ĠDest inies
Ġbul ks
Ġbul warks
ĠKind ly
ĠKind ness
Ġug lier
ĠFall s
Ġclean ly
Ġclean sed
ĠBold er
Ġsubs isting
Ġsubs idies
Ġcro ssed
ĠTalk ers
ĠTur ph
Ġmilk maid
Ġir ons
Ġir revoc
Ġir removeable
erp ower
ĠAff righted
ĠAff ront
ĠAff rights
Ġmountain ous
Ġcool s
Ġcool ing
Ġdar ling
atri ces
Ġeff use
Ġeff usion
Ġvul gars
Ġfif es
Ġfif th
Ġdot ant
Ġbutter y
Ġsumm a
Ġsumm ons
Ġwol vish
Ġrein forcement
Ġcommit ting
Ġplan ets
Ġplan ched
Ġrum ours
Ġrum ourer
Ġgrim ly
ĠHapp iness
ĠHapp ier
Ġdisturb ing
Ġdisturb ers
Ġsingular ity
Ġsingular ities
Ġfront s
Ġmedic inal
ĠAttend ing
Ġsow ing
Ġbail iff
Ġbows prit
Ġfount ains
Ġdumb ly
Ġdumb ness
Ġlace d
Ġyare ly
Ġpow dered
Ġpest ilent
Ġpup ils
Ġthw arted
Ġthw arting
Ġthw artings
Ġgather ing
Ġinvent ory
Ġinvent ions
Ġhaunt ed
ĠCourage ous
ĠCourage ously
Ġstink ingly
Ġstag s
Ġstag ger
Ġstark ly
Ġasp ire
Ġasp ired
ĠFoul er
Ġconc ord
Ġconc ubine
Ġconc upiscible
Ġvass als
Ġancest or
Ġancest ry
ĠKent ishmen
Ġfaction s
Ġfaction ary
Ġprat tling
Ġswoon ed
Ġunpro perly
Ġunpro fitable
Ġimpeach ments
Ġdefor med
Ġdefor mities
Ġsap ling
Ġsack buts
Ġplaint ain
Ġranc orous
Ġrig or
Ġrig orous
Ġdiso beys
Ġdissemb ler
Ġdissemb lers
Ġexcept ing
Ġfox es
Ġfox ship
Ġalar ms
Ġperd ona
Ġperd onato
Ġperd urably
Ġnighting ales
Ġharl ots
Ġgrass y
Ġgrass hoppers
Ġbestri des
Ġobsc ure
Ġobsc ene
Ġsteep ed
ĠCommand s
ĠCommand ed
ĠCommand ments
Ġcloak s
Ġrequire th
Ġdistress ful
Ġembass ade
Ġgroom s
Ġtroubl est
Ġfamiliar ity
Ġtempor ary
Ġtempor izer
Ġtempor ized
Ġfleet ing
Ġcompassion ate
Ġadverse ly
Ġpuiss ance
Ġmanifest s
Ġsuperf icial
Ġfulf ill
ĠMurder ing
Ġacknow ledged
ĠJun ius
Ġav ouches
ĠAss ay
The y
Ġtur tles
ĠBan ished
Ġfre er
Ġnon age
ĠSim on
ĠDr oop
ĠDr inking
erd asher
ĠAg enor
ĠAg amemn
ĠHoll anders
ĠHoll oa
Ġfet tle
Ġfet locks
ĠDu chess
ĠCy nthia
ĠCy prus
ĠEr pingham
ĠJer onimy
Ġpuff s
ĠFe wness
ĠIns isting
ĠIns ulting
ĠIns olent
ĠDef y
ĠDef iance
ĠDef ormed
ĠHost ilius
ĠProf aned
ĠProf aners
cat ched
ĠCher ish
ado ed
ĠDirect itude
ĠEnd ue
Ġexact ing
Ġder ivative
Ġobser ved
Ġcard inal
Ġcard maker
Ġcard inally
ĠJud ases
Ġmum mers
Ġhaw k
Ġhaw ks
Ġhaw king
Ġhaw thorn
ĠPres erver
ĠPres uming
hall ond
Ġcand les
Ġdil igent
Ġhy mns
ĠSin on
ĠSin fully
Ġsugg estion
Ġmale factors
Ġswim s
jud gment
Ġoce ans
Ġgaz es
Ġgaz ers
Ġbeads men
ĠLam bert
Ġdenial s
Ġprofession s
ĠArm ies
Ġtax es
Ġtax ations
Ġhood ed
Ġhood wink
Ġhall ooed
Ġdefect ive
ĠFill ip
Ġoverth rown
ĠFrancis can
Ġmirror s
Ġbutterf lies
bell ied
Ġtink ers
Ġtreat s
Ġlin ens
Ġpull er
Ġpull ed
Ġhunger ly
ĠSuff er
ĠSuff iceth
Ġrent s
Ġassemb lies
Ġvig ilant
Ġworshi pp
Ġpoll ed
Ġpoll ution
ĠUns avoury
ĠUns hout
Ġridd les
Ġridd ling
Ġslack ness
Ġbox es
Ġembra cing
Ġshift s
Ġaug er
Ġaug urer
Ġmant led
Ġwaken ed
habit able
Ġdrows iness
Ġthres her
Ġhedge hog
Ġgeld ed
Ġbeet les
Ġinve ctives
Ġindu ction
Ġindu ctions
Ġstub ble
Ġforn icat
Ġweed ed
ĠObey ing
Ġdeceive able
Ġsear chers
Ġsequ ent
Ġsequ ence
Ġarbit rating
Ġarbit rement
Ġblister s
Ġwasp ish
ĠForb ids
ĠForth light
Ġusurer s
Ġhatch ing
Ġcann on
Ġquaint ly
Ġunple ased
Ġunsw orn
Ġunsw ept
Ġunrest rained
Ġhop est
Ġimpud ence
Ġimpud ently
Ġens ky
Ġens nareth
Ġrhe ums
ĠInfer ring
ĠInfer reth
Ġripen ing
Ġdisorder ly
Ġclap s
Ġabst ains
Ġabst ract
Ġabod ing
Ġabod ements
Ġfold s
Ġfold ed
Ġprec ursors
Ġscru ples
Ġscru pulous
Ġchival rous
Ġentire ly
Ġchaf es
Ġsubdu es
Ġneedle work
Ġappoint ments
Ġchest nut
Ġconfer ring
Ġundergo ing
Ġinterrupt s
Ġobst ruction
Ġobst inate
Ġattent ion
Ġattent iveness
Ġstrait ness
Ġappell ants
Ġsuppli ants
Ġinfring ed
Ġprofan ed
Ġprofan eness
Ġdisting uished
Ġforet old
Ġaffright s
Ġaffright ed
ĠAbhor red
Ġcaparison ed
ĠMeasure d
ĠMeasure less
Ġindifferent ly
Ġargos ies
Ġstarve th
Ġadmir ation
Ġadmir able
ĠRepent ed
Ġcombat ants
ĠTarqu ins
Ġcorrect s
Ġcorrect ing
Ġcorrect ed
ĠPursu ed
Ġunfeigned ly
Ġconspir ator
Ġdarken ed
Ġvulgar ly
Ġharlot ry
Ġeloqu ent
ĠDev ised
ĠDev onshire
ĠInf use
ĠInf used
ĠInf using
ersha de
ĠBea umond
Ġï»¿ ï»¿
ĠHard ly
Com mend
ĠWor st
Ġcli ent
Ġcli ents
Ġcli pping
ĠPe er
ĠPe ering
off ences
ob stinate
ĠDream t
ĠDream ing
ĠValent io
ĠValent inus
Ġtea cheth
Ġtea chest
Ġgang rened
Ġna pping
ĠGram ercy
ĠTrans form
ĠBar thol
Ġkitche ns
Ġel vish
Ġhab its
ĠOpp ose
ĠOpp osed
ĠOpp osing
Ġhoot ing
Ġhoot ed
ĠSl aughters
ĠSi byl
Ġram ping
ĠProv ide
ĠProv idence
ĠProv oked
dro ps
dro pping
dro pper
Ġgames ome
Ġgames ter
ĠMan ifest
rim an
Ġutt ereth
dra goned
ris y
ris en
Ġbis hops
Ġrub ies
Ġhook s
Ġstart les
Ġstart led
ĠBeg an
ĠBeg un
can ia
dis posed
Ġcy mbals
Ġcas a
Ġcav illing
ĠSleep ing
cup board
Ġaust ereness
ĠLad ders
ĠGall ows
ĠGall ia
ĠGall op
Ġhandsome ly
serv ant
Ġmot ions
ĠRef use
ĠRef used
ĠRef using
ĠDro pping
ĠDick y
Ġant iquity
Ġant ipodes
Ġant ique
Ġiv ory
ĠCot swold
ĠConst able
ĠConst rue
ĠConst rains
Ġnymph s
lord ship
Ġdial s
Ġhilt s
ĠPit iful
ĠFur ies
umn ia
Ġrip ens
Ġdetect s
Ġdetect ed
thi ck
wh om
wh ither
wh istling
Ġwra p
hast e
Ġbug s
Ġox en
Ġox lips
ĠPil ates
ĠAfric an
erth row
erth rown
erth rows
ĠAE sop
ĠAE acides
ĠAE neas
Ġhaven s
ĠBret agne
keep ers
Ġeg ally
ĠLift s
Ġnov ices
pted ly
Ġquest ions
Ġimpre se
Ġpred icament
ĠUnb ind
ĠUnb uckle
ĠUnb uckling
Ġdistrib ute
Ġdistrib ution
Ġdistrib uted
ĠGuild fords
ĠCondition ally
Ġspectators hip
sick ness
Ġming ling
Ġmart ial
Ġmart yr
onour able
Ġbaw ling
Ġbaw ds
Ġbaw cock
Ġfester ing
Ġfathom s
Ġced ars
Ġcert ainties
Ġdun geon
Ġdaint ies
Ġdaint iness
Ġdaint iest
Ġlame ly
Ġlass es
Ġlecher ous
Ġpir ates
Ġpith y
Ġpul se
Ġpals y
Ġthra ldom
Ġost ler
ĠTrem bled
ĠTiber io
Ġhew s
Ġbeho ves
Ġbecom ing
Ġbecom ed
Ġbecom est
Ġinhabit able
ĠSland ering
ĠBore s
Ġrevers o
Ġrehear sed
Ġew ers
Ġascend s
Ġkern el
Ġsevent y
Ġcondu its
Ġconvers es
geon ly
Ġdol ours
Ġsuret ies
Ġbutche red
Ġvest ure
Ġvap our
Ġvap ours
Ġvap orous
Ġherds man
Ġblasp heme
Ġwheres oever
ĠForget ting
Ġjump eth
ĠHelen a
Ġunman n
Ġunman ly
Ġunman ner
Ġunpre gnant
Ġunsc our
Ġunsc arr
Ġunsc ann
Ġunthrift s
Ġprog eny
Ġprover bs
Ġsparing ly
Ġplent ifully
Ġresp ites
Ġencom pas
Ġenfranch ise
Ġenfranch ised
Ġenfranch isement
Ġoutst rip
Ġstrang led
Ġdisci plined
Ġdispro ve
Ġdispro ved
Ġdispro portion
Ġexha le
Ġdesc ry
Ġcontem ning
Ġpartial ize
Ġadul terate
Ġadorn s
Ġadorn ed
Ġsweeten ed
Ġpert ain
Ġpresum ptuous
Ġscra pe
Ġscra ping
Ġscra ped
Ġscare crow
Ġremiss ness
Ġflour ishes
Ġflour isheth
Ġvehe mency
ĠProdig al
Ġendow ments
Ġendeav our
Ġtraged ian
Ġglister s
ĠRevol t
ĠRevol ving
ĠRevol ts
Ġthrong ing
Ġeyeb all
Ġchid est
Ġchron icles
Ġchron icle
Ġchron icled
Ġintercept s
Ġintercept ed
ĠUnw ieldy
ĠUnha ppily
Ġhumane ly
Ġwelcom er
Ġvillan ously
Ġgreed y
Ġclog ging
Ġmete or
Ġmete ors
Ġordain ed
ĠGlad ly
Ġexecut ors
Ġquarre lled
Ġdistemper ature
Ġforefather s
Ġcrad led
Ġdiscred it
Ġdiscred its
Ġdiscred ited
Ġstirru ps
Ġrecount ed
Ġsurm ise
Ġsurm ises
Ġsurm ounts
Ġmalicious ly
Ġthrift s
Ġthrift y
Ġthrift less
Ġexpost ure
Ġbarb arians
spo kes
ĠExcept ing
Ġunwill igness
Ġdooms day
Ġcounterpo ise
Ġsimp ly
Ġsimp leness
Ġsimp licity
Ġedict s
Ġambassad ors
Ġbonds lave
Ġtransg ressing
Ġvanqu isher
Ġbewitch ment
Ġbasil isks
Ġgrumb lings
Ġdifferen cy
ĠCondemn ed
Ġtimorous ly
Ġengross ing
Ġbonnet ed
ĠWitness ing
Ġfantastic oes
Ġunrevere nd
Ġprodigal ity
Ġabundant ly
Ġmasqu ing
Ġannoy ance
Ġclergy man
ĠForbid den
ĠForbid denly
Ġcannib ally
Ġdistinguish ment
Ġforetell s
Ġmalignant ly
Ġà§¯à§§à§©à§© à§¨à§Ńà§ª
ĠFRANCISC O
ĠInter pretation
Ġjer kin
Ġbdnews desk
ĠPub lius
ĠAccount ant
pur chased
inc ensed
ĠRec over
ev ils
ĠLand lord
ĠLim it
ĠLim ps
ĠInst ead
ĠInst inctively
shot ten
Ġadmin ister
ĠCour tsied
ĠDig ressing
ĠSk ipper
ĠSk ulking
ĠAdo ptedly
Ġnur sery
ĠGra ze
ĠGra pes
ĠSham est
ĠRequ ite
ĠRequ ires
Ġcu ore
Ġcu ps
ĠAim ing
Ġpenet rable
bre ach
bre aker
abs olver
ĠTor ments
ĠInc ertain
ĠInc apable
ĠMer riman
ĠPle ad
ĠPle ads
ĠFan cies
ĠStr ong
ĠStr angle
Ġsedu ce
Ġps alms
Ġps alteries
ĠBro cas
ĠFam ous
ĠFam iliarly
Ġmam met
Ġmam mock
ĠDi omed
ĠEs pecially
ĠEs sex
Ġcelebr ation
Ġcelebr ated
ĠRoy ally
ĠJew ry
ĠShort en
Ġsol um
stit ches
ĠBare headed
ĠMaid en
ĠRain old
Ġfel on
ĠIng rate
ĠIng ratitude
Ġlan es
Ġlan tern
ĠCount ing
ĠCount ess
ĠDru mmer
uct ing
Ġbal ance
Ġbal ms
Ġdiff ers
Ġdiff icult
ĠFore warn
ĠFore running
Ġunex amined
Ġtot tering
ĠSafe ly
Ġalt ered
Ġalt itude
ĠSuccess ively
wall ed
Ġdul ness
Ġdul cet
ĠSpl it
ĠSpl itting
ĠKiss ing
ĠUnf it
ĠUnf urnish
ĠNeg lect
ĠNeg lected
Sir rah
wind s
Ġavail s
Ġcel erity
Ġinvest ed
ĠFast en
Ġconn ive
Ġscri pture
Ġscri vener
beli eving
Ġsci ences
Ġsci atica
Ġcri pple
Ġdawn ing
Ġnut shell
Ġnut megs
ĠAllow ing
ĠWood ville
ĠWood stock
Ġreli ef
Ġreli eved
Ġsect s
Ġpeep eth
Ġmagn anim
Ġdrive th
flow ing
hors ing
viol ator
Ġwi ping
Ġcull ion
Ġdau b
Ġdau phin
Ġpang s
ĠTick ling
ĠTick led
ĠWish ing
Ġhal bert
Ġhal berds
Ġmeas les
Ġstif le
Ġstif led
ĠOly mpus
Ġseed ness
ĠEns ues
ĠEns uing
ĠEmb race
ĠEmb arqu
Ġbloss oming
Ġbloss oms
Ġgobl ins
Ġgobl ets
Ġproc ured
Ġproc ures
Ġholl oa
Ġholl owness
Ġenviron ed
Ġtwin n
Ġrav in
Ġrav isher
Ġreplen ish
Ġreplen ished
Ġcox comb
Ġcox combs
Ġclos ure
Ġclos eness
Ġcarbon adoed
Ġminim o
Ġopport une
Ġesp y
Ġesp ouse
Ġgamb old
Ġgamb ols
Ġviper ous
Ġhypoc rite
Ġhypoc risy
Sic inius
Sic ilia
gentle woman
sorrow ing
Ġess ay
Ġess ence
Ġmoth s
Ġmoth y
Ġmol es
Ġmol to
Ġwool vish
Ġbout ed
Ġbough s
Ġbunch back
Ġfert ile
Ġfert ility
Ġdall ies
Ġdall ied
Ġdub b
Ġdaunt less
Ġdally ing
Ġlear nt
Ġlear ns
Ġpru dent
Ġpru dence
Ġpea ces
Ġpea ches
ĠTemper ing
ĠTemper ance
stain ed
Ġgore d
Ġgest ure
ĠWot ting
ĠWind y
ĠWise ly
Ġbede w
Ġbede ck
Ġbemo an
Ġbemo iled
Ġinher its
Ġinher itor
Ġmeek ness
ĠCret e
ĠCret an
Ġreek y
ĠMatter s
ĠMortal ity
Ġstew ed
Ġassemble d
ĠLed a
Ġdeput ed
Ġdeput ation
ĠPed lar
ĠPed ascule
ĠPra ise
ĠPra ised
ĠGro an
ĠGro ping
ĠGrief s
Ġsew ed
Ġconv oy
Ġconv ict
Ġconvenient ly
ĠEthi ope
ĠEthi opian
Ġnost ra
Ġnost ril
Ġnodd ing
Ġnodd le
Ġvaunt s
Ġvaunt ingly
Ġvalley s
ĠVile ly
Ġshin eth
Ġproro gue
Ġproro gued
Ġampl er
Ġampl ified
Ġsheath ing
ĠFors ake
ĠFors low
Ġjaunt ing
Ġheretic s
icat est
Ġunho ly
Ġunho ped
Ġunres olved
Ġunres pective
Ġunadvised ly
Ġprolix ity
Ġprolix ious
Ġspright ly
Ġspright fully
Ġspray s
Ġspawn ed
Ġhoard ing
Ġrar ity
Ġrar ities
Ġrang es
Ġrang ing
aph s
ĠIncl ining
ĠIncl inable
Ġriot ous
Ġdisb ench
Ġdisb urden
Ġdisli ken
Ġdisli kes
Ġdisfig ure
Ġdisfig ured
Ġclang our
Ġhearken ing
Ġfoem en
Ġfoem an
ĠBegg ar
ĠBegg ars
Ġbreech ing
Ġprecept s
Ġperfid ious
Ġperfid iously
Ġpresag ing
[...]
